{
  "version": "1.0",
  "truncation": {
    "direction": "Right",
    "max_length": 4096,
    "strategy": "LongestFirst",
    "stride": 0
  },
  "padding": {
    "strategy": {
      "Fixed": 4096
    },
    "direction": "Right",
    "pad_to_multiple_of": null,
    "pad_id": 1,
    "pad_type_id": 0,
    "pad_token": "<pad>"
  },
  "added_tokens": [
    {
      "id": 0,
      "content": "<s>",
      "single_word": false,
      "lstrip": false,
      "rstrip": false,
      "normalized": false,
      "special": true
    },
    {
      "id": 1,
      "content": "<pad>",
      "single_word": false,
      "lstrip": false,
      "rstrip": false,
      "normalized": false,
      "special": true
    },
    {
      "id": 2,
      "content": "</s>",
      "single_word": false,
      "lstrip": false,
      "rstrip": false,
      "normalized": false,
      "special": true
    },
    {
      "id": 3,
      "content": "<unk>",
      "single_word": false,
      "lstrip": false,
      "rstrip": false,
      "normalized": false,
      "special": true
    },
    {
      "id": 4,
      "content": "[START_REF]",
      "single_word": false,
      "lstrip": false,
      "rstrip": false,
      "normalized": false,
      "special": true
    },
    {
      "id": 5,
      "content": "[END_REF]",
      "single_word": false,
      "lstrip": false,
      "rstrip": false,
      "normalized": false,
      "special": true
    },
    {
      "id": 6,
      "content": "[IMAGE]",
      "single_word": false,
      "lstrip": false,
      "rstrip": false,
      "normalized": false,
      "special": true
    },
    {
      "id": 7,
      "content": "<fragments>",
      "single_word": false,
      "lstrip": false,
      "rstrip": false,
      "normalized": false,
      "special": true
    },
    {
      "id": 8,
      "content": "</fragments>",
      "single_word": false,
      "lstrip": false,
      "rstrip": false,
      "normalized": false,
      "special": true
    },
    {
      "id": 9,
      "content": "<work>",
      "single_word": false,
      "lstrip": false,
      "rstrip": false,
      "normalized": false,
      "special": true
    },
    {
      "id": 10,
      "content": "</work>",
      "single_word": false,
      "lstrip": false,
      "rstrip": false,
      "normalized": false,
      "special": true
    },
    {
      "id": 11,
      "content": "[START_SUP]",
      "single_word": false,
      "lstrip": false,
      "rstrip": false,
      "normalized": false,
      "special": true
    },
    {
      "id": 12,
      "content": "[END_SUP]",
      "single_word": false,
      "lstrip": false,
      "rstrip": false,
      "normalized": false,
      "special": true
    },
    {
      "id": 13,
      "content": "[START_SUB]",
      "single_word": false,
      "lstrip": false,
      "rstrip": false,
      "normalized": false,
      "special": true
    },
    {
      "id": 14,
      "content": "[END_SUB]",
      "single_word": false,
      "lstrip": false,
      "rstrip": false,
      "normalized": false,
      "special": true
    },
    {
      "id": 15,
      "content": "[START_DNA]",
      "single_word": false,
      "lstrip": false,
      "rstrip": false,
      "normalized": false,
      "special": true
    },
    {
      "id": 16,
      "content": "[END_DNA]",
      "single_word": false,
      "lstrip": false,
      "rstrip": false,
      "normalized": false,
      "special": true
    },
    {
      "id": 17,
      "content": "[START_AMINO]",
      "single_word": false,
      "lstrip": false,
      "rstrip": false,
      "normalized": false,
      "special": true
    },
    {
      "id": 18,
      "content": "[END_AMINO]",
      "single_word": false,
      "lstrip": false,
      "rstrip": false,
      "normalized": false,
      "special": true
    },
    {
      "id": 19,
      "content": "[START_SMILES]",
      "single_word": false,
      "lstrip": false,
      "rstrip": false,
      "normalized": false,
      "special": true
    },
    {
      "id": 20,
      "content": "[END_SMILES]",
      "single_word": false,
      "lstrip": false,
      "rstrip": false,
      "normalized": false,
      "special": true
    },
    {
      "id": 21,
      "content": "[START_I_SMILES]",
      "single_word": false,
      "lstrip": false,
      "rstrip": false,
      "normalized": false,
      "special": true
    },
    {
      "id": 22,
      "content": "[END_I_SMILES]",
      "single_word": false,
      "lstrip": false,
      "rstrip": false,
      "normalized": false,
      "special": true
    }
  ],
  "normalizer": {
    "type": "NFKC"
  },
  "pre_tokenizer": {
    "type": "Sequence",
    "pretokenizers": [
      {
        "type": "Split",
        "pattern": {
          "String": "SPL1T-TH1S-Pl3A5E"
        },
        "behavior": "Removed",
        "invert": false
      },
      {
        "type": "Digits",
        "individual_digits": true
      },
      {
        "type": "Split",
        "pattern": {
          "Regex": "[\\(\\)\\[\\]\\{\\}]|([!\"\\#\\$%\\&'\\*\\+,\\-\\./:;<=>\\?\\\\\\^_`\\|\\~])\\1*"
        },
        "behavior": "Isolated",
        "invert": false
      },
      {
        "type": "Split",
        "pattern": {
          "String": "\n"
        },
        "behavior": "Isolated",
        "invert": false
      },
      {
        "type": "ByteLevel",
        "add_prefix_space": false,
        "trim_offsets": true,
        "use_regex": true
      }
    ]
  },
  "post_processor": {
    "type": "TemplateProcessing",
    "single": [
      {
        "SpecialToken": {
          "id": "<s>",
          "type_id": 0
        }
      },
      {
        "Sequence": {
          "id": "A",
          "type_id": 0
        }
      },
      {
        "SpecialToken": {
          "id": "</s>",
          "type_id": 0
        }
      }
    ],
    "pair": [
      {
        "Sequence": {
          "id": "A",
          "type_id": 0
        }
      },
      {
        "Sequence": {
          "id": "B",
          "type_id": 1
        }
      }
    ],
    "special_tokens": {
      "</s>": {
        "id": "</s>",
        "ids": [
          2
        ],
        "tokens": [
          "</s>"
        ]
      },
      "<s>": {
        "id": "<s>",
        "ids": [
          0
        ],
        "tokens": [
          "<s>"
        ]
      }
    }
  },
  "decoder": {
    "type": "ByteLevel",
    "add_prefix_space": true,
    "trim_offsets": true,
    "use_regex": true
  },
  "model": {
    "type": "BPE",
    "dropout": null,
    "unk_token": "<unk>",
    "continuing_subword_prefix": null,
    "end_of_word_suffix": null,
    "fuse_unk": false,
    "byte_fallback": false,
    "vocab": {
      "<pad>": 0,
      "<cls>": 1,
      "<sep>": 2,
      "<mask>": 3,
      "<unk>": 4,
      "<bos>": 5,
      "<eos>": 6,
      "\u0000": 7,
      "\u0001": 8,
      "\u0002": 9,
      "\u0003": 10,
      "\u0004": 11,
      "\u0005": 12,
      "\u0006": 13,
      "\u0007": 14,
      "\b": 15,
      "\u000e": 16,
      "\u000f": 17,
      "\u0010": 18,
      "\u0011": 19,
      "\u0012": 20,
      "\u0013": 21,
      "\u0014": 22,
      "\u0015": 23,
      "\u0016": 24,
      "\u0017": 25,
      "\u0018": 26,
      "\u0019": 27,
      "\u001a": 28,
      "\u001b": 29,
      "\u001c": 30,
      "\u001d": 31,
      "\u001e": 32,
      "\u001f": 33,
      "!": 34,
      "\"": 35,
      "#": 36,
      "$": 37,
      "%": 38,
      "&": 39,
      "'": 40,
      "(": 41,
      ")": 42,
      "*": 43,
      "+": 44,
      ",": 45,
      "-": 46,
      ".": 47,
      "/": 48,
      "0": 49,
      "1": 50,
      "2": 51,
      "3": 52,
      "4": 53,
      "5": 54,
      "6": 55,
      "7": 56,
      "8": 57,
      "9": 58,
      ":": 59,
      ";": 60,
      "<": 61,
      "=": 62,
      ">": 63,
      "?": 64,
      "@": 65,
      "A": 66,
      "B": 67,
      "C": 68,
      "D": 69,
      "E": 70,
      "F": 71,
      "G": 72,
      "H": 73,
      "I": 74,
      "J": 75,
      "K": 76,
      "L": 77,
      "M": 78,
      "N": 79,
      "O": 80,
      "P": 81,
      "Q": 82,
      "R": 83,
      "S": 84,
      "T": 85,
      "U": 86,
      "V": 87,
      "W": 88,
      "X": 89,
      "Y": 90,
      "Z": 91,
      "[": 92,
      "\\": 93,
      "]": 94,
      "^": 95,
      "_": 96,
      "`": 97,
      "a": 98,
      "b": 99,
      "c": 100,
      "d": 101,
      "e": 102,
      "f": 103,
      "g": 104,
      "h": 105,
      "i": 106,
      "j": 107,
      "k": 108,
      "l": 109,
      "m": 110,
      "n": 111,
      "o": 112,
      "p": 113,
      "q": 114,
      "r": 115,
      "s": 116,
      "t": 117,
      "u": 118,
      "v": 119,
      "w": 120,
      "x": 121,
      "y": 122,
      "z": 123,
      "{": 124,
      "|": 125,
      "}": 126,
      "~": 127,
      "": 128,
      "": 129,
      "": 130,
      "": 131,
      "": 132,
      "": 133,
      "": 134,
      "": 135,
      "": 136,
      "": 137,
      "": 138,
      "": 139,
      "": 140,
      "": 141,
      "": 142,
      "": 143,
      "": 144,
      "": 145,
      "": 146,
      "": 147,
      "": 148,
      "": 149,
      "": 150,
      "": 151,
      "": 152,
      "": 153,
      "": 154,
      "": 155,
      "": 156,
      "": 157,
      "": 158,
      "": 159,
      "¡": 160,
      "¢": 161,
      "£": 162,
      "¤": 163,
      "¥": 164,
      "¦": 165,
      "§": 166,
      "©": 167,
      "«": 168,
      "¬": 169,
      "­": 170,
      "®": 171,
      "°": 172,
      "±": 173,
      "¶": 174,
      "·": 175,
      "»": 176,
      "¿": 177,
      "À": 178,
      "Á": 179,
      "Â": 180,
      "Ã": 181,
      "Ä": 182,
      "Å": 183,
      "Æ": 184,
      "Ç": 185,
      "È": 186,
      "É": 187,
      "Ê": 188,
      "Ë": 189,
      "Ì": 190,
      "Í": 191,
      "Î": 192,
      "Ï": 193,
      "Ð": 194,
      "Ñ": 195,
      "Ò": 196,
      "Ó": 197,
      "Ô": 198,
      "Õ": 199,
      "Ö": 200,
      "×": 201,
      "Ø": 202,
      "Ù": 203,
      "Ú": 204,
      "Û": 205,
      "Ü": 206,
      "Ý": 207,
      "Þ": 208,
      "ß": 209,
      "à": 210,
      "á": 211,
      "â": 212,
      "ã": 213,
      "ä": 214,
      "å": 215,
      "æ": 216,
      "ç": 217,
      "è": 218,
      "é": 219,
      "ê": 220,
      "ë": 221,
      "ì": 222,
      "í": 223,
      "î": 224,
      "ï": 225,
      "ð": 226,
      "ñ": 227,
      "ò": 228,
      "ó": 229,
      "ô": 230,
      "õ": 231,
      "ö": 232,
      "÷": 233,
      "ø": 234,
      "ù": 235,
      "ú": 236,
      "û": 237,
      "ü": 238,
      "ý": 239,
      "þ": 240,
      "ÿ": 241,
      "ā": 242,
      "ă": 243,
      "ą": 244,
      "ć": 245,
      "Č": 246,
      "č": 247,
      "Đ": 248,
      "đ": 249,
      "ė": 250,
      "ę": 251,
      "ě": 252,
      "ğ": 253,
      "ĩ": 254,
      "ī": 255,
      "ĭ": 256,
      "İ": 257,
      "ı": 258,
      "ľ": 259,
      "Ł": 260,
      "ł": 261,
      "ń": 262,
      "ň": 263,
      "Ō": 264,
      "ō": 265,
      "Ő": 266,
      "ő": 267,
      "œ": 268,
      "Ř": 269,
      "ř": 270,
      "Ś": 271,
      "ś": 272,
      "Ş": 273,
      "ş": 274,
      "Š": 275,
      "š": 276,
      "ţ": 277,
      "ũ": 278,
      "ū": 279,
      "ů": 280,
      "ź": 281,
      "Ż": 282,
      "ż": 283,
      "Ž": 284,
      "ž": 285,
      "ƒ": 286,
      "ơ": 287,
      "ư": 288,
      "ǎ": 289,
      "ǧ": 290,
      "ș": 291,
      "ț": 292,
      "ʹ": 293,
      "ˆ": 294,
      "ˇ": 295,
      "́": 296,
      "̃": 297,
      "̄": 298,
      "̇": 299,
      "̈": 300,
      "̣": 301,
      "̧": 302,
      "͑": 303,
      "͒": 304,
      "͔": 305,
      "Έ": 306,
      "Α": 307,
      "Γ": 308,
      "Δ": 309,
      "Ε": 310,
      "Η": 311,
      "Ι": 312,
      "Κ": 313,
      "Λ": 314,
      "Μ": 315,
      "Ν": 316,
      "Ο": 317,
      "Π": 318,
      "Σ": 319,
      "Τ": 320,
      "Φ": 321,
      "Ψ": 322,
      "Ω": 323,
      "ά": 324,
      "έ": 325,
      "ή": 326,
      "ί": 327,
      "α": 328,
      "β": 329,
      "γ": 330,
      "δ": 331,
      "ε": 332,
      "ζ": 333,
      "η": 334,
      "θ": 335,
      "ι": 336,
      "κ": 337,
      "λ": 338,
      "μ": 339,
      "ν": 340,
      "ξ": 341,
      "ο": 342,
      "π": 343,
      "ρ": 344,
      "ς": 345,
      "σ": 346,
      "τ": 347,
      "υ": 348,
      "φ": 349,
      "χ": 350,
      "ψ": 351,
      "ω": 352,
      "ϋ": 353,
      "ό": 354,
      "ύ": 355,
      "ώ": 356,
      "А": 357,
      "Б": 358,
      "В": 359,
      "Г": 360,
      "Д": 361,
      "Е": 362,
      "З": 363,
      "И": 364,
      "К": 365,
      "Л": 366,
      "М": 367,
      "Н": 368,
      "О": 369,
      "П": 370,
      "Р": 371,
      "С": 372,
      "Т": 373,
      "У": 374,
      "Ф": 375,
      "Х": 376,
      "Ц": 377,
      "Ч": 378,
      "Ш": 379,
      "Э": 380,
      "Я": 381,
      "а": 382,
      "б": 383,
      "в": 384,
      "г": 385,
      "д": 386,
      "е": 387,
      "ж": 388,
      "з": 389,
      "и": 390,
      "й": 391,
      "к": 392,
      "л": 393,
      "м": 394,
      "н": 395,
      "о": 396,
      "п": 397,
      "р": 398,
      "с": 399,
      "т": 400,
      "у": 401,
      "ф": 402,
      "х": 403,
      "ц": 404,
      "ч": 405,
      "ш": 406,
      "щ": 407,
      "ъ": 408,
      "ы": 409,
      "ь": 410,
      "э": 411,
      "ю": 412,
      "я": 413,
      "ё": 414,
      "і": 415,
      "ї": 416,
      "ғ": 417,
      "ҙ": 418,
      "ң": 419,
      "һ": 420,
      "ә": 421,
      "ե": 422,
      "ֿ": 423,
      "،": 424,
      "أ": 425,
      "إ": 426,
      "ا": 427,
      "ب": 428,
      "ة": 429,
      "ت": 430,
      "ج": 431,
      "ح": 432,
      "خ": 433,
      "د": 434,
      "ذ": 435,
      "ر": 436,
      "س": 437,
      "ش": 438,
      "ع": 439,
      "غ": 440,
      "ف": 441,
      "ق": 442,
      "ك": 443,
      "ل": 444,
      "م": 445,
      "ن": 446,
      "ه": 447,
      "و": 448,
      "ى": 449,
      "ي": 450,
      "ḡ": 451,
      "ạ": 452,
      "ả": 453,
      "ấ": 454,
      "ầ": 455,
      "ẩ": 456,
      "ẫ": 457,
      "ậ": 458,
      "ắ": 459,
      "ằ": 460,
      "ặ": 461,
      "ẹ": 462,
      "ẻ": 463,
      "ẽ": 464,
      "ế": 465,
      "ề": 466,
      "ể": 467,
      "ễ": 468,
      "ệ": 469,
      "ỉ": 470,
      "ị": 471,
      "ọ": 472,
      "ỏ": 473,
      "ố": 474,
      "ồ": 475,
      "ổ": 476,
      "ỗ": 477,
      "ộ": 478,
      "ớ": 479,
      "ờ": 480,
      "ở": 481,
      "ỡ": 482,
      "ợ": 483,
      "ụ": 484,
      "ủ": 485,
      "ứ": 486,
      "ừ": 487,
      "ử": 488,
      "ữ": 489,
      "ự": 490,
      "ỹ": 491,
      "​": 492,
      "‎": 493,
      "‏": 494,
      "‐": 495,
      "‒": 496,
      "–": 497,
      "—": 498,
      "‘": 499,
      "’": 500,
      "‚": 501,
      "“": 502,
      "”": 503,
      "†": 504,
      "‡": 505,
      "•": 506,
      "′": 507,
      "⁄": 508,
      "⁡": 509,
      "€": 510,
      "←": 511,
      "↑": 512,
      "→": 513,
      "↓": 514,
      "∂": 515,
      "∈": 516,
      "∑": 517,
      "−": 518,
      "∗": 519,
      "∘": 520,
      "√": 521,
      "∞": 522,
      "∪": 523,
      "∼": 524,
      "≈": 525,
      "≔": 526,
      "≠": 527,
      "≤": 528,
      "≥": 529,
      "⊂": 530,
      "⊗": 531,
      "⊤": 532,
      "⋆": 533,
      "⋮": 534,
      "⋯": 535,
      "─": 536,
      "│": 537,
      "└": 538,
      "├": 539,
      "♣": 540,
      "✓": 541,
      "✗": 542,
      "⟂": 543,
      "⟨": 544,
      "⟩": 545,
      "⟼": 546,
      "⨉": 547,
      "、": 548,
      "。": 549,
      "〖": 550,
      "あ": 551,
      "い": 552,
      "う": 553,
      "お": 554,
      "か": 555,
      "が": 556,
      "き": 557,
      "ぎ": 558,
      "く": 559,
      "け": 560,
      "こ": 561,
      "さ": 562,
      "し": 563,
      "す": 564,
      "ぜ": 565,
      "そ": 566,
      "た": 567,
      "だ": 568,
      "ち": 569,
      "ぢ": 570,
      "っ": 571,
      "つ": 572,
      "て": 573,
      "で": 574,
      "と": 575,
      "ど": 576,
      "な": 577,
      "に": 578,
      "ぬ": 579,
      "ね": 580,
      "の": 581,
      "は": 582,
      "ひ": 583,
      "ふ": 584,
      "べ": 585,
      "ほ": 586,
      "ま": 587,
      "み": 588,
      "む": 589,
      "め": 590,
      "も": 591,
      "や": 592,
      "ゆ": 593,
      "よ": 594,
      "ら": 595,
      "り": 596,
      "る": 597,
      "れ": 598,
      "ろ": 599,
      "ゑ": 600,
      "を": 601,
      "ア": 602,
      "ウ": 603,
      "ク": 604,
      "グ": 605,
      "シ": 606,
      "ズ": 607,
      "セ": 608,
      "タ": 609,
      "チ": 610,
      "ッ": 611,
      "デ": 612,
      "ト": 613,
      "ド": 614,
      "ニ": 615,
      "パ": 616,
      "ピ": 617,
      "プ": 618,
      "ミ": 619,
      "メ": 620,
      "モ": 621,
      "ラ": 622,
      "リ": 623,
      "ル": 624,
      "ロ": 625,
      "ン": 626,
      "・": 627,
      "ー": 628,
      "一": 629,
      "上": 630,
      "下": 631,
      "不": 632,
      "业": 633,
      "个": 634,
      "中": 635,
      "为": 636,
      "也": 637,
      "了": 638,
      "交": 639,
      "京": 640,
      "人": 641,
      "从": 642,
      "他": 643,
      "以": 644,
      "们": 645,
      "众": 646,
      "会": 647,
      "伞": 648,
      "便": 649,
      "係": 650,
      "俊": 651,
      "保": 652,
      "候": 653,
      "假": 654,
      "做": 655,
      "光": 656,
      "入": 657,
      "公": 658,
      "兴": 659,
      "再": 660,
      "决": 661,
      "刘": 662,
      "利": 663,
      "别": 664,
      "到": 665,
      "力": 666,
      "加": 667,
      "勾": 668,
      "化": 669,
      "北": 670,
      "区": 671,
      "半": 672,
      "去": 673,
      "县": 674,
      "参": 675,
      "友": 676,
      "受": 677,
      "变": 678,
      "可": 679,
      "台": 680,
      "吃": 681,
      "吉": 682,
      "吸": 683,
      "周": 684,
      "咖": 685,
      "咪": 686,
      "响": 687,
      "哩": 688,
      "唱": 689,
      "因": 690,
      "図": 691,
      "在": 692,
      "地": 693,
      "基": 694,
      "境": 695,
      "声": 696,
      "大": 697,
      "天": 698,
      "奶": 699,
      "她": 700,
      "好": 701,
      "如": 702,
      "妈": 703,
      "姐": 704,
      "姪": 705,
      "娜": 706,
      "子": 707,
      "孙": 708,
      "学": 709,
      "孩": 710,
      "定": 711,
      "家": 712,
      "密": 713,
      "察": 714,
      "小": 715,
      "少": 716,
      "就": 717,
      "居": 718,
      "層": 719,
      "山": 720,
      "常": 721,
      "干": 722,
      "庭": 723,
      "建": 724,
      "式": 725,
      "张": 726,
      "强": 727,
      "影": 728,
      "很": 729,
      "心": 730,
      "念": 731,
      "思": 732,
      "性": 733,
      "情": 734,
      "我": 735,
      "或": 736,
      "房": 737,
      "所": 738,
      "打": 739,
      "技": 740,
      "护": 741,
      "抽": 742,
      "拿": 743,
      "振": 744,
      "推": 745,
      "支": 746,
      "收": 747,
      "改": 748,
      "放": 749,
      "数": 750,
      "文": 751,
      "新": 752,
      "方": 753,
      "旅": 754,
      "无": 755,
      "时": 756,
      "是": 757,
      "晋": 758,
      "智": 759,
      "最": 760,
      "有": 761,
      "朋": 762,
      "术": 763,
      "权": 764,
      "李": 765,
      "来": 766,
      "杨": 767,
      "果": 768,
      "概": 769,
      "構": 770,
      "次": 771,
      "歌": 772,
      "正": 773,
      "母": 774,
      "比": 775,
      "毕": 776,
      "没": 777,
      "法": 778,
      "泻": 779,
      "活": 780,
      "浙": 781,
      "渝": 782,
      "湘": 783,
      "点": 784,
      "烈": 785,
      "烟": 786,
      "然": 787,
      "爱": 788,
      "父": 789,
      "猫": 790,
      "率": 791,
      "王": 792,
      "球": 793,
      "理": 794,
      "甘": 795,
      "生": 796,
      "用": 797,
      "电": 798,
      "男": 799,
      "的": 800,
      "益": 801,
      "目": 802,
      "相": 803,
      "看": 804,
      "確": 805,
      "社": 806,
      "究": 807,
      "窶": 808,
      "竹": 809,
      "筑": 810,
      "算": 811,
      "粉": 812,
      "粤": 813,
      "系": 814,
      "細": 815,
      "結": 816,
      "经": 817,
      "给": 818,
      "習": 819,
      "考": 820,
      "者": 821,
      "能": 822,
      "腹": 823,
      "自": 824,
      "良": 825,
      "花": 826,
      "蒙": 827,
      "虽": 828,
      "行": 829,
      "表": 830,
      "被": 831,
      "要": 832,
      "視": 833,
      "覚": 834,
      "解": 835,
      "詳": 836,
      "话": 837,
      "说": 838,
      "谈": 839,
      "象": 840,
      "赛": 841,
      "越": 842,
      "趣": 843,
      "較": 844,
      "辽": 845,
      "达": 846,
      "近": 847,
      "还": 848,
      "这": 849,
      "进": 850,
      "远": 851,
      "造": 852,
      "郭": 853,
      "都": 854,
      "鄂": 855,
      "配": 856,
      "重": 857,
      "金": 858,
      "银": 859,
      "错": 860,
      "长": 861,
      "間": 862,
      "関": 863,
      "间": 864,
      "闽": 865,
      "陕": 866,
      "雄": 867,
      "青": 868,
      "非": 869,
      "面": 870,
      "音": 871,
      "顺": 872,
      "题": 873,
      "额": 874,
      "食": 875,
      "験": 876,
      "验": 877,
      "高": 878,
      "鸡": 879,
      "黑": 880,
      "가": 881,
      "강": 882,
      "거": 883,
      "것": 884,
      "게": 885,
      "결": 886,
      "경": 887,
      "계": 888,
      "고": 889,
      "곤": 890,
      "공": 891,
      "과": 892,
      "관": 893,
      "구": 894,
      "군": 895,
      "규": 896,
      "그": 897,
      "기": 898,
      "김": 899,
      "나": 900,
      "남": 901,
      "노": 902,
      "는": 903,
      "다": 904,
      "대": 905,
      "더": 906,
      "데": 907,
      "델": 908,
      "도": 909,
      "된": 910,
      "들": 911,
      "라": 912,
      "레": 913,
      "로": 914,
      "를": 915,
      "리": 916,
      "릴": 917,
      "매": 918,
      "며": 919,
      "명": 920,
      "모": 921,
      "목": 922,
      "및": 923,
      "바": 924,
      "박": 925,
      "방": 926,
      "법": 927,
      "변": 928,
      "보": 929,
      "부": 930,
      "분": 931,
      "비": 932,
      "빈": 933,
      "사": 934,
      "산": 935,
      "상": 936,
      "서": 937,
      "성": 938,
      "수": 939,
      "스": 940,
      "습": 941,
      "시": 942,
      "신": 943,
      "아": 944,
      "안": 945,
      "않": 946,
      "앙": 947,
      "야": 948,
      "업": 949,
      "에": 950,
      "여": 951,
      "연": 952,
      "오": 953,
      "와": 954,
      "요": 955,
      "용": 956,
      "우": 957,
      "울": 958,
      "위": 959,
      "유": 960,
      "율": 961,
      "은": 962,
      "을": 963,
      "의": 964,
      "이": 965,
      "인": 966,
      "일": 967,
      "있": 968,
      "자": 969,
      "잠": 970,
      "장": 971,
      "재": 972,
      "적": 973,
      "전": 974,
      "점": 975,
      "정": 976,
      "제": 977,
      "좀": 978,
      "주": 979,
      "준": 980,
      "중": 981,
      "지": 982,
      "진": 983,
      "천": 984,
      "최": 985,
      "측": 986,
      "치": 987,
      "코": 988,
      "큐": 989,
      "크": 990,
      "표": 991,
      "프": 992,
      "하": 993,
      "학": 994,
      "한": 995,
      "할": 996,
      "함": 997,
      "합": 998,
      "해": 999,
      "현": 1000,
      "호": 1001,
      "화": 1002,
      "확": 1003,
      "﻿": 1004,
      "￼": 1005,
      "�": 1006,
      "th": 1007,
      "in": 1008,
      "on": 1009,
      "er": 1010,
      "ti": 1011,
      "an": 1012,
      "en": 1013,
      "al": 1014,
      "the": 1015,
      "re": 1016,
      "te": 1017,
      "or": 1018,
      "ar": 1019,
      "tion": 1020,
      "bi": 1021,
      "{\\": 1022,
      "is": 1023,
      "le": 1024,
      "of": 1025,
      "me": 1026,
      "and": 1027,
      "ma": 1028,
      "ro": 1029,
      "se": 1030,
      "de": 1031,
      "be": 1032,
      "ta": 1033,
      "ra": 1034,
      "si": 1035,
      "ing": 1036,
      "},": 1037,
      "at": 1038,
      "to": 1039,
      "es": 1040,
      "la": 1041,
      "ch": 1042,
      "$\\": 1043,
      "20": 1044,
      "ig": 1045,
      "it": 1046,
      "lo": 1047,
      "st": 1048,
      "bib": 1049,
      "ic": 1050,
      "su": 1051,
      "co": 1052,
      "}\\": 1053,
      "for": 1054,
      "mp": 1055,
      "ve": 1056,
      "ce": 1057,
      "qu": 1058,
      "ent": 1059,
      "ou": 1060,
      "as": 1061,
      "ation": 1062,
      "ne": 1063,
      ".~": 1064,
      "}{": 1065,
      "ame": 1066,
      "ct": 1067,
      "(\\": 1068,
      "ph": 1069,
      "tem": 1070,
      "fo": 1071,
      "ly": 1072,
      "^{": 1073,
      "con": 1074,
      "pro": 1075,
      "Th": 1076,
      "ci": 1077,
      "ed": 1078,
      "we": 1079,
      "end": 1080,
      "wi": 1081,
      "}$": 1082,
      "un": 1083,
      "ref": 1084,
      "ter": 1085,
      "201": 1086,
      "ont": 1087,
      "cal": 1088,
      "di": 1089,
      "ge": 1090,
      "ver": 1091,
      "ol": 1092,
      "tr": 1093,
      "ction": 1094,
      "that": 1095,
      "el": 1096,
      "ck": 1097,
      "ot": 1098,
      "font": 1099,
      "bitem": 1100,
      "amefont": 1101,
      "mo": 1102,
      "ht": 1103,
      "au": 1104,
      "bibin": 1105,
      "bibinfo": 1106,
      "sp": 1107,
      "}}": 1108,
      "gin": 1109,
      "math": 1110,
      "The": 1111,
      "fra": 1112,
      "am": 1113,
      "bibitem": 1114,
      "per": 1115,
      "begin": 1116,
      "ex": 1117,
      "wh": 1118,
      "et": 1119,
      "with": 1120,
      ")$": 1121,
      "are": 1122,
      "10": 1123,
      "ul": 1124,
      "um": 1125,
      "ap": 1126,
      "ted": 1127,
      "fi": 1128,
      "ight": 1129,
      "equ": 1130,
      "li": 1131,
      "ft": 1132,
      "po": 1133,
      "ur": 1134,
      "frac": 1135,
      "tex": 1136,
      "cite": 1137,
      "ad": 1138,
      "bf": 1139,
      "ho": 1140,
      "ab": 1141,
      "})": 1142,
      "par": 1143,
      "by": 1144,
      "da": 1145,
      "new": 1146,
      "no": 1147,
      "\\\\": 1148,
      "us": 1149,
      "}.": 1150,
      "namefont": 1151,
      "ere": 1152,
      "_1": 1153,
      "res": 1154,
      "ine": 1155,
      "In": 1156,
      "ri": 1157,
      "19": 1158,
      "bel": 1159,
      "lock": 1160,
      "200": 1161,
      "right": 1162,
      "block": 1163,
      "ang": 1164,
      "thor": 1165,
      "author": 1166,
      "label": 1167,
      "ys": 1168,
      "eq": 1169,
      "tic": 1170,
      ".,": 1171,
      "newblock": 1172,
      "der": 1173,
      ",\\": 1174,
      "vi": 1175,
      "}(": 1176,
      "]{": 1177,
      "ts": 1178,
      "equation": 1179,
      "em": 1180,
      "ll": 1181,
      "ff": 1182,
      "$,": 1183,
      "ure": 1184,
      "mu": 1185,
      "$.": 1186,
      "del": 1187,
      "00": 1188,
      "ity": 1189,
      "ase": 1190,
      "pa": 1191,
      "~\\": 1192,
      "our": 1193,
      "left": 1194,
      "du": 1195,
      "iv": 1196,
      "text": 1197,
      "mb": 1198,
      "comp": 1199,
      "so": 1200,
      "ence": 1201,
      "int": 1202,
      "--": 1203,
      "}},": 1204,
      "ga": 1205,
      "all": 1206,
      "do": 1207,
      "low": 1208,
      "_2": 1209,
      "tive": 1210,
      ")\\": 1211,
      "gra": 1212,
      "dis": 1213,
      "time": 1214,
      "ment": 1215,
      "rom": 1216,
      "mi": 1217,
      "up": 1218,
      "line": 1219,
      "ble": 1220,
      "ha": 1221,
      ".}": 1222,
      "ds": 1223,
      "^{\\": 1224,
      "dot": 1225,
      "can": 1226,
      "_0": 1227,
      "emp": 1228,
      "sion": 1229,
      "rm": 1230,
      "this": 1231,
      "sub": 1232,
      "from": 1233,
      "whi": 1234,
      "pha": 1235,
      "Ph": 1236,
      "ev": 1237,
      "tions": 1238,
      "alpha": 1239,
      "ari": 1240,
      "FF": 1241,
      "ut": 1242,
      "ss": 1243,
      "fig": 1244,
      "sig": 1245,
      "fin": 1246,
      "tial": 1247,
      "tri": 1248,
      "We": 1249,
      "ty": 1250,
      "lu": 1251,
      "ces": 1252,
      "_i": 1253,
      "ob": 1254,
      "ant": 1255,
      "ect": 1256,
      "-\\": 1257,
      "sta": 1258,
      "ep": 1259,
      "ener": 1260,
      "}{\\": 1261,
      "str": 1262,
      "=\\": 1263,
      "set": 1264,
      "amma": 1265,
      "bibnamefont": 1266,
      "ther": 1267,
      "ber": 1268,
      "cit": 1269,
      "emph": 1270,
      "which": 1271,
      "citen": 1272,
      "tw": 1273,
      "citenamefont": 1274,
      "bibf": 1275,
      "bibfnamefont": 1276,
      "ac": 1277,
      "12": 1278,
      "ach": 1279,
      "fiel": 1280,
      "olu": 1281,
      "xi": 1282,
      ")}": 1283,
      "ir": 1284,
      "op": 1285,
      "mathcal": 1286,
      "ear": 1287,
      "nal": 1288,
      ").": 1289,
      "sh": 1290,
      "ges": 1291,
      "min": 1292,
      "man": 1293,
      "act": 1294,
      "m_": 1295,
      "),": 1296,
      "phi": 1297,
      "ate": 1298,
      "pi": 1299,
      "lon": 1300,
      "}^{": 1301,
      "over": 1302,
      "11": 1303,
      "cor": 1304,
      "exp": 1305,
      "mega": 1306,
      "field": 1307,
      "if": 1308,
      "om": 1309,
      "section": 1310,
      "ec": 1311,
      "den": 1312,
      "not": 1313,
      "model": 1314,
      "have": 1315,
      "where": 1316,
      "\\,": 1317,
      "oun": 1318,
      "il": 1319,
      "how": 1320,
      "}^": 1321,
      "iz": 1322,
      "times": 1323,
      "one": 1324,
      "_n": 1325,
      "pp": 1326,
      "spa": 1327,
      "fun": 1328,
      "ical": 1329,
      "ser": 1330,
      "val": 1331,
      "ary": 1332,
      "lamb": 1333,
      "od": 1334,
      "lambda": 1335,
      "angle": 1336,
      "+\\": 1337,
      "tit": 1338,
      "sc": 1339,
      "inter": 1340,
      "tra": 1341,
      "sed": 1342,
      "textbf": 1343,
      "199": 1344,
      "^{-": 1345,
      "graph": 1346,
      "ke": 1347,
      "ans": 1348,
      "ore": 1349,
      "$-": 1350,
      "rela": 1351,
      "non": 1352,
      "mple": 1353,
      "clu": 1354,
      "til": 1355,
      "show": 1356,
      "fol": 1357,
      "alig": 1358,
      "sigma": 1359,
      "ork": 1360,
      "ms": 1361,
      "function": 1362,
      "mm": 1363,
      "13": 1364,
      "pre": 1365,
      "tation": 1366,
      "row": 1367,
      "pres": 1368,
      "ding": 1369,
      "bu": 1370,
      "Phys": 1371,
      "mal": 1372,
      "hat": 1373,
      "log": 1374,
      "gamma": 1375,
      "tain": 1376,
      "ular": 1377,
      "beta": 1378,
      "15": 1379,
      "16": 1380,
      "gener": 1381,
      "ournal": 1382,
      "sa": 1383,
      "diff": 1384,
      "resp": 1385,
      "*}": 1386,
      "bb": 1387,
      "ray": 1388,
      "nu": 1389,
      "^\\": 1390,
      "umber": 1391,
      "lar": 1392,
      "[\\": 1393,
      "theta": 1394,
      ".}~\\": 1395,
      "bo": 1396,
      "sul": 1397,
      "psi": 1398,
      "ting": 1399,
      "bar": 1400,
      "out": 1401,
      "tilde": 1402,
      "align": 1403,
      "14": 1404,
      "rho": 1405,
      "two": 1406,
      "resul": 1407,
      "year": 1408,
      "tes": 1409,
      "ak": 1410,
      "vari": 1411,
      "ard": 1412,
      "Let": 1413,
      "able": 1414,
      "delta": 1415,
      "son": 1416,
      "ations": 1417,
      "dots": 1418,
      "Pro": 1419,
      "eta": 1420,
      "{{": 1421,
      "No": 1422,
      "its": 1423,
      "ous": 1424,
      "space": 1425,
      "tau": 1426,
      "eff": 1427,
      "case": 1428,
      "big": 1429,
      "For": 1430,
      "|\\": 1431,
      "data": 1432,
      "follow": 1433,
      "Re": 1434,
      "leq": 1435,
      "..": 1436,
      "sk": 1437,
      "Ch": 1438,
      "sing": 1439,
      "This": 1440,
      "ystem": 1441,
      "has": 1442,
      "tical": 1443,
      "imp": 1444,
      "''": 1445,
      "valu": 1446,
      "metr": 1447,
      "ion": 1448,
      "}$,": 1449,
      "ps": 1450,
      "men": 1451,
      "ori": 1452,
      "ance": 1453,
      "ba": 1454,
      "\\&": 1455,
      "Co": 1456,
      "pe": 1457,
      "array": 1458,
      "ima": 1459,
      "ten": 1460,
      "mul": 1461,
      "ssi": 1462,
      "col": 1463,
      "such": 1464,
      "ni": 1465,
      ".\\": 1466,
      "igh": 1467,
      "ound": 1468,
      "18": 1469,
      "ell": 1470,
      "sum_": 1471,
      "17": 1472,
      "stra": 1473,
      "ag": 1474,
      "//": 1475,
      "22": 1476,
      "eqref": 1477,
      "htt": 1478,
      "://": 1479,
      "ong": 1480,
      "lic": 1481,
      "FFFF": 1482,
      "href": 1483,
      "pr": 1484,
      "stru": 1485,
      "partial": 1486,
      "app": 1487,
      "form": 1488,
      "}(\\": 1489,
      "wa": 1490,
      "appro": 1491,
      "differ": 1492,
      "mation": 1493,
      "gro": 1494,
      "ors": 1495,
      "Bi": 1496,
      "journal": 1497,
      "omega": 1498,
      "ory": 1499,
      "``": 1500,
      "ree": 1501,
      "doi": 1502,
      "ark": 1503,
      "fini": 1504,
      "figure": 1505,
      "fty": 1506,
      "ele": 1507,
      "infty": 1508,
      "Ma": 1509,
      "Del": 1510,
      "EE": 1511,
      "cre": 1512,
      "quad": 1513,
      "id": 1514,
      "giv": 1515,
      "_k": 1516,
      "_j": 1517,
      "cu": 1518,
      "system": 1519,
      "ded": 1520,
      "ties": 1521,
      "bibfield": 1522,
      "fer": 1523,
      "Con": 1524,
      "also": 1525,
      "mathbb": 1526,
      "mathbf": 1527,
      "item": 1528,
      "reg": 1529,
      "there": 1530,
      "ics": 1531,
      "ated": 1532,
      "tribu": 1533,
      "21": 1534,
      "}$.": 1535,
      "03": 1536,
      "$$": 1537,
      "cent": 1538,
      "def": 1539,
      "dep": 1540,
      "then": 1541,
      "bet": 1542,
      "Sh": 1543,
      "fa": 1544,
      "org": 1545,
      "Delta": 1546,
      "},\\": 1547,
      "volu": 1548,
      "dy": 1549,
      "base": 1550,
      "ger": 1551,
      "Fig": 1552,
      "Rev": 1553,
      "bil": 1554,
      "cur": 1555,
      "02": 1556,
      "pm": 1557,
      "ew": 1558,
      "multi": 1559,
      "les": 1560,
      "order": 1561,
      "ran": 1562,
      "05": 1563,
      "chi": 1564,
      "}[": 1565,
      "var": 1566,
      "$(": 1567,
      "posi": 1568,
      "sity": 1569,
      "&\\": 1570,
      "04": 1571,
      "cy": 1572,
      "cla": 1573,
      "pages": 1574,
      "gh": 1575,
      "ved": 1576,
      "rt": 1577,
      "bra": 1578,
      "sy": 1579,
      "ally": 1580,
      "arrow": 1581,
      "only": 1582,
      "Li": 1583,
      "proof": 1584,
      "abs": 1585,
      "ste": 1586,
      "now": 1587,
      "comm": 1588,
      "bility": 1589,
      "sm": 1590,
      "each": 1591,
      "led": 1592,
      "cdot": 1593,
      "Bibitem": 1594,
      "ort": 1595,
      "ers": 1596,
      "number": 1597,
      "gy": 1598,
      "ents": 1599,
      "ning": 1600,
      "parame": 1601,
      "25": 1602,
      "23": 1603,
      "pri": 1604,
      "}},\\": 1605,
      "orem": 1606,
      "os": 1607,
      "using": 1608,
      "eqn": 1609,
      ")$.": 1610,
      "other": 1611,
      "cs": 1612,
      "ments": 1613,
      "mathrm": 1614,
      "07": 1615,
      "}}\\": 1616,
      "ze": 1617,
      "sider": 1618,
      "An": 1619,
      "ves": 1620,
      "sq": 1621,
      "pt": 1622,
      "will": 1623,
      "inclu": 1624,
      "lation": 1625,
      "2018": 1626,
      "lear": 1627,
      "under": 1628,
      "ween": 1629,
      "main": 1630,
      "top": 1631,
      "eng": 1632,
      "between": 1633,
      "des": 1634,
      "ective": 1635,
      "sure": 1636,
      "provi": 1637,
      "given": 1638,
      "lin": 1639,
      "volume": 1640,
      "depend": 1641,
      "any": 1642,
      "2017": 1643,
      "ov": 1644,
      "silon": 1645,
      "anal": 1646,
      "cap": 1647,
      "more": 1648,
      "title": 1649,
      "see": 1650,
      "2019": 1651,
      "action": 1652,
      "06": 1653,
      "use": 1654,
      "trans": 1655,
      "ist": 1656,
      "ici": 1657,
      "peri": 1658,
      "scal": 1659,
      "ential": 1660,
      "ince": 1661,
      "epsilon": 1662,
      "Xiv": 1663,
      "hi": 1664,
      "sqrt": 1665,
      "ature": 1666,
      "than": 1667,
      "Gamma": 1668,
      "parameter": 1669,
      "dic": 1670,
      "these": 1671,
      "obtain": 1672,
      "fir": 1673,
      "tis": 1674,
      "obser": 1675,
      "As": 1676,
      "thm": 1677,
      "ld": 1678,
      "dition": 1679,
      "high": 1680,
      "arXiv": 1681,
      "cont": 1682,
      "duce": 1683,
      "_3": 1684,
      "star": 1685,
      "im": 1686,
      "ysi": 1687,
      "trix": 1688,
      "^*": 1689,
      "fact": 1690,
      "matrix": 1691,
      ")$,": 1692,
      "2016": 1693,
      "De": 1694,
      "24": 1695,
      "oper": 1696,
      "let": 1697,
      "Omega": 1698,
      "ast": 1699,
      "work": 1700,
      "meth": 1701,
      "08": 1702,
      "pla": 1703,
      "^{(": 1704,
      "respon": 1705,
      "09": 1706,
      "2020": 1707,
      "struct": 1708,
      ")=": 1709,
      "partic": 1710,
      "comple": 1711,
      "results": 1712,
      "pen": 1713,
      "first": 1714,
      "group": 1715,
      "small": 1716,
      "consider": 1717,
      "olution": 1718,
      "tect": 1719,
      "sec": 1720,
      "198": 1721,
      "01": 1722,
      "ise": 1723,
      "lat": 1724,
      "very": 1725,
      "rangle": 1726,
      "fore": 1727,
      "33": 1728,
      "chan": 1729,
      "2015": 1730,
      "tab": 1731,
      ".}\\": 1732,
      "some": 1733,
      "formation": 1734,
      "ses": 1735,
      "image": 1736,
      "mea": 1737,
      "age": 1738,
      "ee": 1739,
      "dimen": 1740,
      "sur": 1741,
      "he": 1742,
      "}=": 1743,
      "state": 1744,
      "eqnarray": 1745,
      "nor": 1746,
      "ay": 1747,
      "ron": 1748,
      "\\|": 1749,
      "energy": 1750,
      "lem": 1751,
      "ish": 1752,
      "26": 1753,
      "subsection": 1754,
      "\\{": 1755,
      "&=": 1756,
      "tt": 1757,
      "27": 1758,
      "scri": 1759,
      "wide": 1760,
      ".}(": 1761,
      "}).": 1762,
      "gori": 1763,
      "red": 1764,
      "_t": 1765,
      "dimension": 1766,
      "}^{\\": 1767,
      "ess": 1768,
      "mag": 1769,
      "2014": 1770,
      "char": 1771,
      "lan": 1772,
      "defin": 1773,
      "und": 1774,
      "29": 1775,
      "Ho": 1776,
      "was": 1777,
      "ose": 1778,
      "distribu": 1779,
      "ject": 1780,
      ")^": 1781,
      "requ": 1782,
      "35": 1783,
      "lim": 1784,
      "na": 1785,
      "following": 1786,
      "point": 1787,
      "ski": 1788,
      "ru": 1789,
      "28": 1790,
      "inte": 1791,
      "linear": 1792,
      "x_": 1793,
      "45": 1794,
      "finite": 1795,
      "rc": 1796,
      "lit": 1797,
      "To": 1798,
      "ini": 1799,
      "metric": 1800,
      "sim": 1801,
      "It": 1802,
      "table": 1803,
      "fe": 1804,
      "spect": 1805,
      "cted": 1806,
      "av": 1807,
      "ner": 1808,
      "assu": 1809,
      "cess": 1810,
      "when": 1811,
      "Se": 1812,
      "esti": 1813,
      "Sch": 1814,
      "proble": 1815,
      "different": 1816,
      "used": 1817,
      "general": 1818,
      "ral": 1819,
      "ies": 1820,
      "af": 1821,
      "amb": 1822,
      ".~\\": 1823,
      "same": 1824,
      "2013": 1825,
      "ton": 1826,
      "Comp": 1827,
      "Big": 1828,
      "38": 1829,
      "repres": 1830,
      "ord": 1831,
      "ould": 1832,
      "geq": 1833,
      "correspon": 1834,
      "varphi": 1835,
      "ator": 1836,
      "p_": 1837,
      "{}": 1838,
      "cc": 1839,
      "rightarrow": 1840,
      "uni": 1841,
      "but": 1842,
      "Al": 1843,
      "bound": 1844,
      "http": 1845,
      "ample": 1846,
      "stu": 1847,
      "2012": 1848,
      "spe": 1849,
      "):": 1850,
      "vis": 1851,
      "fic": 1852,
      ".},": 1853,
      "ings": 1854,
      "provide": 1855,
      "sign": 1856,
      "sequ": 1857,
      "based": 1858,
      "[{\\": 1859,
      "che": 1860,
      "}}]{": 1861,
      "vec": 1862,
      "ful": 1863,
      "36": 1864,
      "75": 1865,
      "99": 1866,
      "ures": 1867,
      "mass": 1868,
      "measure": 1869,
      "}}{": 1870,
      "nam": 1871,
      "{-": 1872,
      "twork": 1873,
      "network": 1874,
      "vel": 1875,
      "mon": 1876,
      "mat": 1877,
      "into": 1878,
      "hline": 1879,
      "command": 1880,
      "MS": 1881,
      "temp": 1882,
      "Then": 1883,
      "defined": 1884,
      "int_": 1885,
      "equiv": 1886,
      "compu": 1887,
      "Phi": 1888,
      "2011": 1889,
      "models": 1890,
      "48": 1891,
      "zer": 1892,
      "include": 1893,
      "ai": 1894,
      "value": 1895,
      "cond": 1896,
      "antum": 1897,
      "large": 1898,
      "ctor": 1899,
      "sen": 1900,
      "well": 1901,
      "proper": 1902,
      "hy": 1903,
      "values": 1904,
      "circ": 1905,
      "dire": 1906,
      "2010": 1907,
      "lab": 1908,
      "ural": 1909,
      "langle": 1910,
      "ler": 1911,
      "textit": 1912,
      "ints": 1913,
      "tern": 1914,
      "url": 1915,
      "umer": 1916,
      "https": 1917,
      "arch": 1918,
      "Zh": 1919,
      "{(": 1920,
      "Mo": 1921,
      "ue": 1922,
      "cus": 1923,
      "ldots": 1924,
      "}]{": 1925,
      "sym": 1926,
      "olds": 1927,
      "ok": 1928,
      "tics": 1929,
      "ub": 1930,
      "overline": 1931,
      "ating": 1932,
      "clo": 1933,
      "d_": 1934,
      "ality": 1935,
      "og": 1936,
      "ference": 1937,
      "psilon": 1938,
      "f_": 1939,
      "37": 1940,
      "47": 1941,
      "If": 1942,
      "2009": 1943,
      "local": 1944,
      "algori": 1945,
      "position": 1946,
      "ox": 1947,
      "M_": 1948,
      "a_": 1949,
      "2021": 1950,
      "van": 1951,
      "their": 1952,
      "mula": 1953,
      "been": 1954,
      "less": 1955,
      "vol": 1956,
      "\\;": 1957,
      "orph": 1958,
      "descri": 1959,
      "ry": 1960,
      "example": 1961,
      "tur": 1962,
      "ling": 1963,
      "[]{": 1964,
      "wid": 1965,
      "both": 1966,
      "46": 1967,
      "width": 1968,
      "Eq": 1969,
      "wever": 1970,
      "ian": 1971,
      "zation": 1972,
      "ysis": 1973,
      "t_": 1974,
      "nab": 1975,
      "most": 1976,
      "milar": 1977,
      "theory": 1978,
      "vare": 1979,
      "name": 1980,
      "may": 1981,
      "size": 1982,
      "flu": 1983,
      "Lamb": 1984,
      "EEE": 1985,
      "39": 1986,
      "super": 1987,
      "Me": 1988,
      "ind": 1989,
      "IEEE": 1990,
      "rou": 1991,
      "gebra": 1992,
      "radi": 1993,
      ",''": 1994,
      "\\'": 1995,
      "FFFFFFFF": 1996,
      "49": 1997,
      "nabla": 1998,
      "elect": 1999,
      "put": 2000,
      "ij": 2001,
      "follows": 2002,
      "}),": 2003,
      "ove": 2004,
      "ie": 2005,
      "ving": 2006,
      "Lambda": 2007,
      "dynam": 2008,
      "go": 2009,
      "note": 2010,
      "ational": 2011,
      "T_": 2012,
      "velo": 2013,
      "sol": 2014,
      "ization": 2015,
      "varepsilon": 2016,
      "tran": 2017,
      "appa": 2018,
      "deno": 2019,
      "protect": 2020,
      "2008": 2021,
      "metry": 2022,
      "center": 2023,
      "graphics": 2024,
      "\\[": 2025,
      "Open": 2026,
      ")}]{": 2027,
      "als": 2028,
      "const": 2029,
      "prime": 2030,
      "ized": 2031,
      "phase": 2032,
      "know": 2033,
      "problem": 2034,
      "mark": 2035,
      "person": 2036,
      "sum": 2037,
      "includegraphics": 2038,
      "above": 2039,
      "kappa": 2040,
      "Theorem": 2041,
      "anti": 2042,
      "110": 2043,
      "{\\'": 2044,
      "Sig": 2045,
      "ÿÿ": 2046,
      "duced": 2047,
      "}-": 2048,
      "result": 2049,
      "So": 2050,
      "ster": 2051,
      "effici": 2052,
      "bed": 2053,
      "wer": 2054,
      "nonumber": 2055,
      "err": 2056,
      "A_": 2057,
      "dist": 2058,
      "2006": 2059,
      "${\\": 2060,
      "Stop": 2061,
      "med": 2062,
      "view": 2063,
      "real": 2064,
      "speci": 2065,
      "55": 2066,
      "78": 2067,
      "soci": 2068,
      "fy": 2069,
      "bm": 2070,
      "\\]": 2071,
      "functions": 2072,
      "rand": 2073,
      "opti": 2074,
      "E_": 2075,
      "vity": 2076,
      "There": 2077,
      "magne": 2078,
      "))": 2079,
      "har": 2080,
      "gen": 2081,
      "BibitemOpen": 2082,
      "Uni": 2083,
      "bin": 2084,
      "coun": 2085,
      "0000": 2086,
      "cm": 2087,
      "/\\": 2088,
      "approach": 2089,
      "algebra": 2090,
      "distribution": 2091,
      "structure": 2092,
      "stand": 2093,
      "Lett": 2094,
      "On": 2095,
      "method": 2096,
      "2007": 2097,
      "iden": 2098,
      "NoStop": 2099,
      "_s": 2100,
      "term": 2101,
      "duction": 2102,
      "providecommand": 2103,
      ".(": 2104,
      "citep": 2105,
      "Shut": 2106,
      "cau": 2107,
      "logy": 2108,
      "BibitemShut": 2109,
      "ength": 2110,
      "estima": 2111,
      "second": 2112,
      "quantum": 2113,
      "satis": 2114,
      "Ad": 2115,
      "\\%": 2116,
      "34": 2117,
      "66": 2118,
      "cer": 2119,
      "represen": 2120,
      "ons": 2121,
      "density": 2122,
      "shown": 2123,
      "theorem": 2124,
      "C_": 2125,
      "rough": 2126,
      "ix": 2127,
      "cho": 2128,
      "AS": 2129,
      "otimes": 2130,
      "tal": 2131,
      "(-": 2132,
      "88": 2133,
      "experi": 2134,
      "ven": 2135,
      "part": 2136,
      "art": 2137,
      "effect": 2138,
      "cons": 2139,
      "com": 2140,
      "fied": 2141,
      "learning": 2142,
      "classi": 2143,
      "Le": 2144,
      "Ex": 2145,
      "parameters": 2146,
      "En": 2147,
      "rate": 2148,
      "ax": 2149,
      "ists": 2150,
      "mn": 2151,
      "II": 2152,
      "30": 2153,
      "\\!": 2154,
      "ism": 2155,
      "spin": 2156,
      "search": 2157,
      "terms": 2158,
      "face": 2159,
      "back": 2160,
      "zero": 2161,
      "65": 2162,
      "analysis": 2163,
      "P_": 2164,
      "calcu": 2165,
      "_name": 2166,
      "image_name": 2167,
      "approxi": 2168,
      ")=\\": 2169,
      "lemma": 2170,
      "}+": 2171,
      "inu": 2172,
      ")}\\": 2173,
      "get": 2174,
      "states": 2175,
      "ods": 2176,
      "mes": 2177,
      "pot": 2178,
      "v_": 2179,
      "N_": 2180,
      "k_": 2181,
      "R_": 2182,
      "ysics": 2183,
      "mbox": 2184,
      "Lem": 2185,
      "44": 2186,
      "nel": 2187,
      "umn": 2188,
      "mer": 2189,
      "condition": 2190,
      "c_": 2191,
      "que": 2192,
      "incre": 2193,
      "50": 2194,
      "AC": 2195,
      "[{{": 2196,
      "type": 2197,
      "g_": 2198,
      "subset": 2199,
      "ned": 2200,
      "est": 2201,
      "Ne": 2202,
      "98": 2203,
      "similar": 2204,
      "paper": 2205,
      "ceed": 2206,
      "asi": 2207,
      "Di": 2208,
      "Univer": 2209,
      "}]": 2210,
      "Sci": 2211,
      "Since": 2212,
      "2005": 2213,
      "ki": 2214,
      "possi": 2215,
      "column": 2216,
      "perfor": 2217,
      "32": 2218,
      "citeauthor": 2219,
      "obtained": 2220,
      "since": 2221,
      "systems": 2222,
      "Sigma": 2223,
      "relation": 2224,
      "termin": 2225,
      "coup": 2226,
      "solution": 2227,
      "S_": 2228,
      "finition": 2229,
      "ress": 2230,
      "citeauthoryear": 2231,
      "dependent": 2232,
      "})$": 2233,
      "By": 2234,
      ")^{": 2235,
      "supp": 2236,
      "like": 2237,
      "gal": 2238,
      "}}.": 2239,
      "sample": 2240,
      "ice": 2241,
      "three": 2242,
      "sition": 2243,
      "vector": 2244,
      "ca": 2245,
      "mbol": 2246,
      "He": 2247,
      "algorithm": 2248,
      "region": 2249,
      "ext": 2250,
      "compon": 2251,
      "F_": 2252,
      "App": 2253,
      "scale": 2254,
      "77": 2255,
      "ency": 2256,
      "2004": 2257,
      "However": 2258,
      "lies": 2259,
      "predic": 2260,
      "urther": 2261,
      "r_": 2262,
      "ining": 2263,
      "ectively": 2264,
      "complex": 2265,
      "mid": 2266,
      "Lemma": 2267,
      "95": 2268,
      "sel": 2269,
      "prop": 2270,
      "u_": 2271,
      "edge": 2272,
      "old": 2273,
      "observ": 2274,
      "zeta": 2275,
      "corresponding": 2276,
      "constant": 2277,
      "level": 2278,
      "ates": 2279,
      "discus": 2280,
      "lay": 2281,
      "}=\\": 2282,
      "intro": 2283,
      "continu": 2284,
      "plan": 2285,
      "}}$": 2286,
      "contain": 2287,
      "ick": 2288,
      "identi": 2289,
      "s_": 2290,
      "ia": 2291,
      "dx": 2292,
      "68": 2293,
      "ami": 2294,
      "Ro": 2295,
      "ual": 2296,
      "duct": 2297,
      "particular": 2298,
      "n_": 2299,
      "ross": 2300,
      "minus": 2301,
      "were": 2302,
      "cdots": 2303,
      "L_": 2304,
      "ize": 2305,
      "){": 2306,
      "Tr": 2307,
      "Po": 2308,
      "potential": 2309,
      "ill": 2310,
      "conne": 2311,
      "tabular": 2312,
      "sour": 2313,
      "normal": 2314,
      "rop": 2315,
      "ino": 2316,
      "ision": 2317,
      "limit": 2318,
      "proba": 2319,
      "ically": 2320,
      "Ge": 2321,
      "67": 2322,
      "ences": 2323,
      "tice": 2324,
      "tations": 2325,
      "ative": 2326,
      "curr": 2327,
      "relax": 2328,
      "while": 2329,
      "they": 2330,
      "ads": 2331,
      "Bo": 2332,
      "ough": 2333,
      "dimensional": 2334,
      "[{": 2335,
      "40": 2336,
      "ctions": 2337,
      "sequence": 2338,
      "2003": 2339,
      "X_": 2340,
      "ently": 2341,
      "&&": 2342,
      "cos": 2343,
      "every": 2344,
      "import": 2345,
      "iel": 2346,
      "Conference": 2347,
      "ii": 2348,
      "...": 2349,
      "points": 2350,
      "].": 2351,
      "graphy": 2352,
      "sets": 2353,
      "hep": 2354,
      "operator": 2355,
      "fix": 2356,
      "through": 2357,
      "$)": 2358,
      "light": 2359,
      "poly": 2360,
      "erature": 2361,
      "requi": 2362,
      "B_": 2363,
      "after": 2364,
      "pol": 2365,
      "conver": 2366,
      "Figure": 2367,
      "due": 2368,
      "ators": 2369,
      "H_": 2370,
      "Ber": 2371,
      "map": 2372,
      "boun": 2373,
      "$(\\": 2374,
      "St": 2375,
      ".-": 2376,
      "lus": 2377,
      "Ver": 2378,
      "would": 2379,
      "frak": 2380,
      "respectively": 2381,
      "pair": 2382,
      "97": 2383,
      "ura": 2384,
      "acter": 2385,
      "ple": 2386,
      "magnetic": 2387,
      "xiv": 2388,
      "variable": 2389,
      "deg": 2390,
      "propo": 2391,
      "cri": 2392,
      "rol": 2393,
      "Section": 2394,
      "ined": 2395,
      "test": 2396,
      "natex": 2397,
      "natexlab": 2398,
      "wor": 2399,
      "off": 2400,
      "single": 2401,
      "way": 2402,
      "lio": 2403,
      "Be": 2404,
      "information": 2405,
      "fication": 2406,
      "})}\\": 2407,
      "widetilde": 2408,
      "ko": 2409,
      "Compu": 2410,
      "Sta": 2411,
      "ression": 2412,
      "cases": 2413,
      "ker": 2414,
      "study": 2415,
      "arxiv": 2416,
      "Thus": 2417,
      "geo": 2418,
      "homo": 2419,
      "sco": 2420,
      "maxi": 2421,
      "V_": 2422,
      "D_": 2423,
      "gi": 2424,
      "determin": 2425,
      "vious": 2426,
      "definition": 2427,
      "equations": 2428,
      "Journal": 2429,
      "|^": 2430,
      "Qu": 2431,
      "58": 2432,
      "random": 2433,
      "constra": 2434,
      "\\,\\": 2435,
      "\\}": 2436,
      "96": 2437,
      "wn": 2438,
      "Ar": 2439,
      "Wang": 2440,
      "^+": 2441,
      "($": 2442,
      "skip": 2443,
      "inst": 2444,
      "asy": 2445,
      "range": 2446,
      "2002": 2447,
      "does": 2448,
      "gu": 2449,
      "vert": 2450,
      "constru": 2451,
      "hand": 2452,
      "aris": 2453,
      "tak": 2454,
      "ysical": 2455,
      "qquad": 2456,
      "ness": 2457,
      "zed": 2458,
      "ST": 2459,
      "ceedings": 2460,
      "lack": 2461,
      "tational": 2462,
      "2001": 2463,
      "strong": 2464,
      "long": 2465,
      "actions": 2466,
      "initial": 2467,
      "Math": 2468,
      "calcula": 2469,
      "war": 2470,
      "path": 2471,
      "197": 2472,
      "character": 2473,
      "64": 2474,
      "sigma_": 2475,
      "power": 2476,
      "split": 2477,
      "process": 2478,
      "cause": 2479,
      "}\\,": 2480,
      "factor": 2481,
      "alpha_": 2482,
      "uc": 2483,
      "2000": 2484,
      "find": 2485,
      "bal": 2486,
      "Pi": 2487,
      "}:": 2488,
      "shows": 2489,
      "flow": 2490,
      "refer": 2491,
      "ground": 2492,
      "logical": 2493,
      "corre": 2494,
      "})\\": 2495,
      "Hu": 2496,
      "Note": 2497,
      "amp": 2498,
      "~~": 2499,
      "ymbol": 2500,
      "G_": 2501,
      "Si": 2502,
      "Psi": 2503,
      "ices": 2504,
      "Da": 2505,
      "analy": 2506,
      "tivity": 2507,
      "properties": 2508,
      "={": 2509,
      "even": 2510,
      "31": 2511,
      "sin": 2512,
      "Proceedings": 2513,
      "100": 2514,
      "mean": 2515,
      "allow": 2516,
      "biblio": 2517,
      "rit": 2518,
      "ific": 2519,
      "tional": 2520,
      "cha": 2521,
      "mis": 2522,
      "vers": 2523,
      "rid": 2524,
      "ju": 2525,
      "bibliography": 2526,
      "comb": 2527,
      "exists": 2528,
      "associ": 2529,
      "dual": 2530,
      "57": 2531,
      "equival": 2532,
      "ide": 2533,
      "simple": 2534,
      "eval": 2535,
      "tom": 2536,
      "cup": 2537,
      "side": 2538,
      "bolds": 2539,
      "verse": 2540,
      "mathfrak": 2541,
      "free": 2542,
      ")]": 2543,
      "\\\"": 2544,
      "Su": 2545,
      "object": 2546,
      "fami": 2547,
      "boldsymbol": 2548,
      "methods": 2549,
      "eps": 2550,
      "dra": 2551,
      "}\\\\": 2552,
      "dec": 2553,
      "93": 2554,
      "University": 2555,
      "Zhang": 2556,
      "ley": 2557,
      "lower": 2558,
      "known": 2559,
      "play": 2560,
      "max": 2561,
      "possible": 2562,
      "bul": 2563,
      "thebibliography": 2564,
      "ditions": 2565,
      "addition": 2566,
      "thema": 2567,
      "positive": 2568,
      "mod": 2569,
      "inci": 2570,
      "mini": 2571,
      "read": 2572,
      "define": 2573,
      "pu": 2574,
      "aver": 2575,
      "mann": 2576,
      "box": 2577,
      "series": 2578,
      "compo": 2579,
      "enti": 2580,
      "inde": 2581,
      "ris": 2582,
      "simp": 2583,
      "}+\\": 2584,
      "cle": 2585,
      "ques": 2586,
      "print": 2587,
      ")}{": 2588,
      "contribu": 2589,
      "ani": 2590,
      "exten": 2591,
      "}{{\\": 2592,
      "color": 2593,
      "invari": 2594,
      "wave": 2595,
      "found": 2596,
      "sive": 2597,
      "probability": 2598,
      "Mat": 2599,
      "{{\\": 2600,
      "Ap": 2601,
      "ected": 2602,
      "shi": 2603,
      "because": 2604,
      "}^\\": 2605,
      "conditions": 2606,
      "node": 2607,
      "PhysRev": 2608,
      "foot": 2609,
      "Te": 2610,
      "formula": 2611,
      "More": 2612,
      "present": 2613,
      "indic": 2614,
      "direct": 2615,
      "oc": 2616,
      ")-": 2617,
      "inger": 2618,
      "atures": 2619,
      ")]{": 2620,
      ");": 2621,
      "istic": 2622,
      "dag": 2623,
      "electron": 2624,
      "lish": 2625,
      "band": 2626,
      "observed": 2627,
      "jo": 2628,
      "2022": 2629,
      "images": 2630,
      "Therefore": 2631,
      "IC": 2632,
      "many": 2633,
      "56": 2634,
      "car": 2635,
      "maps": 2636,
      "applic": 2637,
      "angu": 2638,
      "length": 2639,
      "ward": 2640,
      "fit": 2641,
      "Wi": 2642,
      "fil": 2643,
      "}|": 2644,
      "frequ": 2645,
      "43": 2646,
      "networks": 2647,
      "boundary": 2648,
      "quanti": 2649,
      "Car": 2650,
      "indent": 2651,
      ")(": 2652,
      "clear": 2653,
      "ordin": 2654,
      "axi": 2655,
      "}-\\": 2656,
      "$^{": 2657,
      "Intern": 2658,
      "Gra": 2659,
      "}^{(": 2660,
      "ei": 2661,
      "rum": 2662,
      "medi": 2663,
      "neq": 2664,
      "frame": 2665,
      "I_": 2666,
      "dete": 2667,
      "modu": 2668,
      "};": 2669,
      "SS": 2670,
      "period": 2671,
      "make": 2672,
      "mance": 2673,
      "sses": 2674,
      "&=&": 2675,
      "International": 2676,
      "here": 2677,
      "add": 2678,
      "class": 2679,
      "mu_": 2680,
      "rho_": 2681,
      "tech": 2682,
      "1103": 2683,
      "weak": 2684,
      "compare": 2685,
      "pose": 2686,
      "surface": 2687,
      "control": 2688,
      "sty": 2689,
      "total": 2690,
      "86": 2691,
      "b_": 2692,
      "igen": 2693,
      "onal": 2694,
      "cell": 2695,
      "apj": 2696,
      "lambda_": 2697,
      "partial_": 2698,
      "ption": 2699,
      "thus": 2700,
      "{\\\"": 2701,
      "bit": 2702,
      "independent": 2703,
      "ali": 2704,
      "sele": 2705,
      "90": 2706,
      "sto": 2707,
      "stric": 2708,
      "need": 2709,
      "Bar": 2710,
      "increase": 2711,
      "ren": 2712,
      "assume": 2713,
      "87": 2714,
      "]$": 2715,
      "hen": 2716,
      "utr": 2717,
      "fixed": 2718,
      "sor": 2719,
      "\\}$": 2720,
      "temperature": 2721,
      "widehat": 2722,
      "artic": 2723,
      "multicolumn": 2724,
      "self": 2725,
      "gram": 2726,
      "Physics": 2727,
      "havi": 2728,
      "moment": 2729,
      "about": 2730,
      "ka": 2731,
      "related": 2732,
      "deta": 2733,
      "contra": 2734,
      "hal": 2735,
      "typ": 2736,
      "family": 2737,
      "should": 2738,
      "city": 2739,
      "K_": 2740,
      "product": 2741,
      ")},": 2742,
      "ins": 2743,
      "higher": 2744,
      "standard": 2745,
      "fields": 2746,
      "experiment": 2747,
      "Chen": 2748,
      "via": 2749,
      "ud": 2750,
      "Ra": 2751,
      "olutions": 2752,
      "94": 2753,
      "85": 2754,
      "tically": 2755,
      "domain": 2756,
      "footnote": 2757,
      "e_": 2758,
      "change": 2759,
      "numer": 2760,
      "ks": 2761,
      "caption": 2762,
      "\\@": 2763,
      "lied": 2764,
      "sions": 2765,
      "ced": 2766,
      "ude": 2767,
      "Ste": 2768,
      "dynamics": 2769,
      "Col": 2770,
      "nat": 2771,
      "error": 2772,
      "coeffici": 2773,
      "orphism": 2774,
      "relations": 2775,
      "orig": 2776,
      "implies": 2777,
      "exist": 2778,
      "gau": 2779,
      "eigen": 2780,
      "gre": 2781,
      "noindent": 2782,
      "arg": 2783,
      "60": 2784,
      "h_": 2785,
      "These": 2786,
      "evalu": 2787,
      "Trans": 2788,
      "ters": 2789,
      "bas": 2790,
      "sti": 2791,
      "previous": 2792,
      "denote": 2793,
      "sche": 2794,
      "hspace": 2795,
      "enumer": 2796,
      "cover": 2797,
      "Lo": 2798,
      "symmetry": 2799,
      "signific": 2800,
      "1999": 2801,
      "AP": 2802,
      "'$": 2803,
      "exact": 2804,
      "bre": 2805,
      "Fin": 2806,
      "dia": 2807,
      ":=": 2808,
      "1998": 2809,
      "loc": 2810,
      "proces": 2811,
      "within": 2812,
      "ano": 2813,
      "citet": 2814,
      "berg": 2815,
      "performance": 2816,
      "mode": 2817,
      "style": 2818,
      "sph": 2819,
      "54": 2820,
      "Gu": 2821,
      "code": 2822,
      "behavi": 2823,
      "associated": 2824,
      "Mar": 2825,
      "ww": 2826,
      "distance": 2827,
      "Sp": 2828,
      "integra": 2829,
      "limits": 2830,
      "ash": 2831,
      "oll": 2832,
      "origin": 2833,
      "call": 2834,
      "}}{\\": 2835,
      "norm": 2836,
      "current": 2837,
      "delta_": 2838,
      "lines": 2839,
      "zz": 2840,
      "rr": 2841,
      "rati": 2842,
      "Jo": 2843,
      "mic": 2844,
      "New": 2845,
      "mulation": 2846,
      "black": 2847,
      "SI": 2848,
      "hyper": 2849,
      "Un": 2850,
      "ture": 2851,
      "respect": 2852,
      "]\\": 2853,
      "studi": 2854,
      "nm": 2855,
      "particle": 2856,
      "element": 2857,
      "bigg": 2858,
      "attern": 2859,
      "ond": 2860,
      "NR": 2861,
      "her": 2862,
      "complete": 2863,
      "sch": 2864,
      "smo": 2865,
      "CD": 2866,
      "cross": 2867,
      "weight": 2868,
      "ene": 2869,
      "proj": 2870,
      ")}$": 2871,
      "strate": 2872,
      "EP": 2873,
      "unit": 2874,
      "69": 2875,
      "spectrum": 2876,
      "integ": 2877,
      "uld": 2878,
      "enumerate": 2879,
      "suff": 2880,
      "mani": 2881,
      "Here": 2882,
      "theta_": 2883,
      "rep": 2884,
      "squ": 2885,
      "training": 2886,
      "nomi": 2887,
      "Ko": 2888,
      "neutr": 2889,
      "ric": 2890,
      "solutions": 2891,
      "deriv": 2892,
      "hn": 2893,
      "phi_": 2894,
      "proposed": 2895,
      "could": 2896,
      "/}": 2897,
      "emis": 2898,
      "appear": 2899,
      "q_": 2900,
      "step": 2901,
      "Cor": 2902,
      "itemize": 2903,
      "}}(": 2904,
      "edu": 2905,
      "discre": 2906,
      "Liu": 2907,
      "accu": 2908,
      "atter": 2909,
      "open": 2910,
      "separ": 2911,
      "ÿÿÿÿ": 2912,
      "source": 2913,
      "df": 2914,
      "bot": 2915,
      "simula": 2916,
      "63": 2917,
      "relative": 2918,
      "gamma_": 2919,
      "mization": 2920,
      "Au": 2921,
      "aga": 2922,
      "signal": 2923,
      "000": 2924,
      "penal": 2925,
      "ao": 2926,
      "lying": 2927,
      "deri": 2928,
      "2_": 2929,
      "conclu": 2930,
      "beco": 2931,
      "abstra": 2932,
      ".;": 2933,
      "Ham": 2934,
      "representation": 2935,
      "run": 2936,
      "impro": 2937,
      ".}{": 2938,
      "below": 2939,
      "bs": 2940,
      "physical": 2941,
      "wise": 2942,
      "80": 2943,
      "SA": 2944,
      "approxima": 2945,
      "topo": 2946,
      "59": 2947,
      "rac": 2948,
      "tu": 2949,
      "x_1": 2950,
      "elements": 2951,
      "down": 2952,
      "tices": 2953,
      "uting": 2954,
      "those": 2955,
      "evolution": 2956,
      "omega_": 2957,
      "continuous": 2958,
      "assump": 2959,
      "Per": 2960,
      "equality": 2961,
      "rule": 2962,
      "Mathema": 2963,
      "optimal": 2964,
      "ras": 2965,
      "gence": 2966,
      "prove": 2967,
      "holds": 2968,
      "anguage": 2969,
      "further": 2970,
      "remain": 2971,
      "extra": 2972,
      "Gau": 2973,
      "Q_": 2974,
      "$\\{": 2975,
      "Table": 2976,
      "formal": 2977,
      "42": 2978,
      ")+": 2979,
      "y_": 2980,
      "axis": 2981,
      "PR": 2982,
      "called": 2983,
      "channel": 2984,
      "ApJ": 2985,
      "licit": 2986,
      "article": 2987,
      "polynomi": 2988,
      "PS": 2989,
      "Ri": 2990,
      "them": 2991,
      "va": 2992,
      "CO": 2993,
      "significant": 2994,
      "cluster": 2995,
      "symmetric": 2996,
      "parti": 2997,
      "four": 2998,
      "NN": 2999,
      "lead": 3000,
      "must": 3001,
      "Mc": 3002,
      "check": 3003,
      "41": 3004,
      "teq": 3005,
      "coordin": 3006,
      "At": 3007,
      "fies": 3008,
      "53": 3009,
      "estimate": 3010,
      "Mi": 3011,
      "dagger": 3012,
      "mechan": 3013,
      "coupling": 3014,
      "oth": 3015,
      "mix": 3016,
      "titu": 3017,
      "ants": 3018,
      "z_": 3019,
      "glo": 3020,
      "penalty": 3021,
      "cing": 3022,
      "aul": 3023,
      "integral": 3024,
      "without": 3025,
      "ane": 3026,
      "aff": 3027,
      "velop": 3028,
      "groups": 3029,
      "ann": 3030,
      "Our": 3031,
      "U_": 3032,
      "$|": 3033,
      "sic": 3034,
      "word": 3035,
      "asing": 3036,
      "bri": 3037,
      "CC": 3038,
      "dt": 3039,
      "atom": 3040,
      "abstract": 3041,
      "bounded": 3042,
      "approx": 3043,
      "ented": 3044,
      "velocity": 3045,
      "La": 3046,
      "full": 3047,
      "tor": 3048,
      "io": 3049,
      "Proposition": 3050,
      "sis": 3051,
      "sky": 3052,
      "draw": 3053,
      "Hence": 3054,
      "mum": 3055,
      "important": 3056,
      "^{-\\": 3057,
      "csname": 3058,
      "component": 3059,
      "tre": 3060,
      "Net": 3061,
      "spaces": 3062,
      "89": 3063,
      "lip": 3064,
      "flux": 3065,
      ".~{": 3066,
      "lot": 3067,
      "along": 3068,
      "($\\": 3069,
      ":\\": 3070,
      "Science": 3071,
      "described": 3072,
      "task": 3073,
      "near": 3074,
      "operators": 3075,
      "$}": 3076,
      "deep": 3077,
      "AR": 3078,
      "^-": 3079,
      "<\\": 3080,
      "51": 3081,
      "}}}": 3082,
      "date": 3083,
      "effective": 3084,
      "expression": 3085,
      "pack": 3086,
      "tative": 3087,
      "gives": 3088,
      "doibase": 3089,
      "though": 3090,
      "satisfy": 3091,
      "SM": 3092,
      "Ac": 3093,
      "ket": 3094,
      "pertur": 3095,
      "Com": 3096,
      "invariant": 3097,
      "w_": 3098,
      "alle": 3099,
      "loss": 3100,
      "divi": 3101,
      "cate": 3102,
      "Gamma_": 3103,
      "seteq": 3104,
      "input": 3105,
      "stein": 3106,
      "cat": 3107,
      "Lu": 3108,
      "From": 3109,
      "ability": 3110,
      "nega": 3111,
      "Fe": 3112,
      "considered": 3113,
      "ilton": 3114,
      ",-": 3115,
      "phot": 3116,
      "i_": 3117,
      "approximation": 3118,
      "average": 3119,
      "frequency": 3120,
      "Sy": 3121,
      "ages": 3122,
      "tar": 3123,
      "matic": 3124,
      "prec": 3125,
      "AT": 3126,
      "gauge": 3127,
      "basis": 3128,
      "larger": 3129,
      "pic": 3130,
      "effects": 3131,
      "cog": 3132,
      "Spr": 3133,
      "transition": 3134,
      "1997": 3135,
      "Res": 3136,
      "penalty0": 3137,
      "certain": 3138,
      "chang": 3139,
      "Lear": 3140,
      "yiel": 3141,
      "spectral": 3142,
      "construction": 3143,
      "uring": 3144,
      "AL": 3145,
      "ln": 3146,
      "statis": 3147,
      "axies": 3148,
      "FFFFFFFFFFFFFFFF": 3149,
      "degree": 3150,
      "features": 3151,
      "sf": 3152,
      "index": 3153,
      "J_": 3154,
      "2n": 3155,
      "79": 3156,
      ")|": 3157,
      "Now": 3158,
      "quo": 3159,
      "{$": 3160,
      "interaction": 3161,
      ";\\": 3162,
      "rank": 3163,
      ")\\,": 3164,
      "therefore": 3165,
      "76": 3166,
      "stars": 3167,
      "Sup": 3168,
      "Int": 3169,
      "BI": 3170,
      "Yu": 3171,
      "System": 3172,
      "ety": 3173,
      "auto": 3174,
      "Mon": 3175,
      "key": 3176,
      "70": 3177,
      "lev": 3178,
      "dri": 3179,
      "ances": 3180,
      "orted": 3181,
      "gas": 3182,
      "momentum": 3183,
      "tau_": 3184,
      "lattice": 3185,
      "variables": 3186,
      "iter": 3187,
      "being": 3188,
      "trm": 3189,
      "generated": 3190,
      "iso": 3191,
      "square": 3192,
      "consist": 3193,
      "subseteq": 3194,
      "ui": 3195,
      "neural": 3196,
      "{.": 3197,
      "stead": 3198,
      "classical": 3199,
      "least": 3200,
      "Using": 3201,
      "las": 3202,
      "matter": 3203,
      "Theta": 3204,
      "land": 3205,
      "textrm": 3206,
      "scatter": 3207,
      "({\\": 3208,
      "}^{-": 3209,
      "xt": 3210,
      "kov": 3211,
      "shap": 3212,
      "cording": 3213,
      "reas": 3214,
      "W_": 3215,
      "remark": 3216,
      "Moreover": 3217,
      "thms": 3218,
      "Z_": 3219,
      "]{\\": 3220,
      "noise": 3221,
      "Dis": 3222,
      "$$\\": 3223,
      "negative": 3224,
      "AM": 3225,
      "dence": 3226,
      "setminus": 3227,
      "DE": 3228,
      "display": 3229,
      "book": 3230,
      "wedge": 3231,
      "1996": 3232,
      "page": 3233,
      "galaxies": 3234,
      "hold": 3235,
      "develop": 3236,
      "vard": 3237,
      "Fer": 3238,
      "73": 3239,
      "IR": 3240,
      "gate": 3241,
      "bert": 3242,
      "smooth": 3243,
      "gs": 3244,
      "components": 3245,
      "equi": 3246,
      "$[": 3247,
      "83": 3248,
      "Learning": 3249,
      "stable": 3250,
      "upper": 3251,
      "]}": 3252,
      "ens": 3253,
      "\\{\\": 3254,
      "close": 3255,
      "aila": 3256,
      "manifol": 3257,
      "direction": 3258,
      "compact": 3259,
      "ils": 3260,
      "cept": 3261,
      "ratio": 3262,
      "expand": 3263,
      "$&": 3264,
      "),\\": 3265,
      "scalar": 3266,
      "vspace": 3267,
      "pub": 3268,
      "AA": 3269,
      "Computer": 3270,
      "ati": 3271,
      "ging": 3272,
      "mentation": 3273,
      "ledge": 3274,
      "ropy": 3275,
      "texts": 3276,
      "ack": 3277,
      "Par": 3278,
      "take": 3279,
      "restric": 3280,
      "layer": 3281,
      "pping": 3282,
      "true": 3283,
      "expon": 3284,
      "inves": 3285,
      "difference": 3286,
      "gr": 3287,
      "84": 3288,
      "Ref": 3289,
      "ring": 3290,
      "observations": 3291,
      "critical": 3292,
      "vertex": 3293,
      "harvard": 3294,
      "emission": 3295,
      "lect": 3296,
      "lli": 3297,
      "means": 3298,
      "hence": 3299,
      "equal": 3300,
      "mnras": 3301,
      "MR": 3302,
      "last": 3303,
      "syn": 3304,
      "much": 3305,
      "unct": 3306,
      "Delta_": 3307,
      "diag": 3308,
      "sever": 3309,
      "uniform": 3310,
      "empty": 3311,
      "particles": 3312,
      "rite": 3313,
      "oplus": 3314,
      "mf": 3315,
      "composition": 3316,
      "Hamilton": 3317,
      "hel": 3318,
      "oration": 3319,
      "equivalent": 3320,
      "One": 3321,
      "endix": 3322,
      "ssian": 3323,
      "theore": 3324,
      "numerical": 3325,
      "loop": 3326,
      "aligned": 3327,
      "pan": 3328,
      "\\(": 3329,
      "detection": 3330,
      "closed": 3331,
      "ater": 3332,
      "expected": 3333,
      "plane": 3334,
      "motion": 3335,
      "52": 3336,
      "Pe": 3337,
      "vect": 3338,
      "kin": 3339,
      "multip": 3340,
      "Anal": 3341,
      "match": 3342,
      "prof": 3343,
      "decay": 3344,
      "ass": 3345,
      "underline": 3346,
      "natural": 3347,
      "redu": 3348,
      "aa": 3349,
      "92": 3350,
      "Further": 3351,
      "language": 3352,
      "Springer": 3353,
      "turn": 3354,
      "imple": 3355,
      "Yang": 3356,
      "global": 3357,
      ")}(": 3358,
      "Model": 3359,
      "llar": 3360,
      "arison": 3361,
      "either": 3362,
      "unic": 3363,
      "embed": 3364,
      "bor": 3365,
      "connected": 3366,
      "SP": 3367,
      "l_": 3368,
      "bran": 3369,
      "Finally": 3370,
      "joint": 3371,
      "ailable": 3372,
      "Go": 3373,
      "Y_": 3374,
      "combin": 3375,
      "isom": 3376,
      "Ha": 3377,
      "king": 3378,
      "seen": 3379,
      "ways": 3380,
      "Wil": 3381,
      "regular": 3382,
      "61": 3383,
      "tensor": 3384,
      "1995": 3385,
      "'\\": 3386,
      "amplit": 3387,
      "figura": 3388,
      "dependence": 3389,
      "ER": 3390,
      "techni": 3391,
      "62": 3392,
      "problems": 3393,
      "psi_": 3394,
      "bili": 3395,
      "With": 3396,
      "investi": 3397,
      "mit": 3398,
      "ime": 3399,
      "74": 3400,
      "suffici": 3401,
      "mpto": 3402,
      "qui": 3403,
      "cogni": 3404,
      "usion": 3405,
      "recent": 3406,
      "correlation": 3407,
      "bro": 3408,
      "ones": 3409,
      "behavior": 3410,
      "91": 3411,
      "x_i": 3412,
      "decre": 3413,
      "property": 3414,
      "Gal": 3415,
      "serv": 3416,
      "domin": 3417,
      "=(": 3418,
      "Rob": 3419,
      "ull": 3420,
      "unique": 3421,
      "maximum": 3422,
      "net": 3423,
      "around": 3424,
      "graphs": 3425,
      "multiple": 3426,
      "ets": 3427,
      "And": 3428,
      "sug": 3429,
      "Do": 3430,
      "configura": 3431,
      "write": 3432,
      "give": 3433,
      "physics": 3434,
      "Whi": 3435,
      "detect": 3436,
      "presented": 3437,
      "setting": 3438,
      "orth": 3439,
      "count": 3440,
      "ories": 3441,
      "pdf": 3442,
      "SU": 3443,
      "',": 3444,
      "satisfies": 3445,
      "ya": 3446,
      "Theory": 3447,
      "Pa": 3448,
      "what": 3449,
      "82": 3450,
      "simulations": 3451,
      "81": 3452,
      "expan": 3453,
      "fill": 3454,
      "contains": 3455,
      "chas": 3456,
      "spatial": 3457,
      "sugges": 3458,
      "hard": 3459,
      "ollary": 3460,
      "rier": 3461,
      "quark": 3462,
      "~$": 3463,
      "special": 3464,
      "br": 3465,
      "writ": 3466,
      "explicit": 3467,
      "commu": 3468,
      "preprint": 3469,
      "pattern": 3470,
      "conve": 3471,
      "inequality": 3472,
      "scr": 3473,
      "Data": 3474,
      "Pr": 3475,
      "coefficients": 3476,
      "liation": 3477,
      "radius": 3478,
      ")^{-": 3479,
      "several": 3480,
      "}/": 3481,
      "applied": 3482,
      "integer": 3483,
      "next": 3484,
      "SO": 3485,
      "link": 3486,
      "dou": 3487,
      "mcite": 3488,
      "When": 3489,
      "int_0": 3490,
      "ault": 3491,
      "prod_": 3492,
      "final": 3493,
      "ik": 3494,
      "noop": 3495,
      "inf": 3496,
      "ument": 3497,
      "Rep": 3498,
      "ML": 3499,
      "determined": 3500,
      "hor": 3501,
      "All": 3502,
      "fraction": 3503,
      "thesis": 3504,
      "bitr": 3505,
      "still": 3506,
      "Systems": 3507,
      "vial": 3508,
      "framework": 3509,
      "72": 3510,
      "*{": 3511,
      "1_": 3512,
      "law": 3513,
      "Ser": 3514,
      "teri": 3515,
      "consistent": 3516,
      "stron": 3517,
      "entry": 3518,
      "proposition": 3519,
      "words": 3520,
      "feature": 3521,
      "'}": 3522,
      "differential": 3523,
      "describe": 3524,
      "graphic": 3525,
      "00000000": 3526,
      "summ": 3527,
      "dd": 3528,
      "perp": 3529,
      "compared": 3530,
      "mar": 3531,
      "bur": 3532,
      "cognition": 3533,
      "princi": 3534,
      "ale": 3535,
      "Omega_": 3536,
      "Mul": 3537,
      "scheme": 3538,
      "matr": 3539,
      "tag": 3540,
      "Fir": 3541,
      "dataset": 3542,
      "CV": 3543,
      "arbitr": 3544,
      "just": 3545,
      "curve": 3546,
      "texttt": 3547,
      "beta_": 3548,
      "break": 3549,
      "a_1": 3550,
      "central": 3551,
      "usu": 3552,
      "\\!\\!": 3553,
      ")^{\\": 3554,
      "uk": 3555,
      "interes": 3556,
      "BC": 3557,
      "force": 3558,
      "algorithms": 3559,
      ")}{\\": 3560,
      "Lin": 3561,
      "MC": 3562,
      "itz": 3563,
      "whose": 3564,
      "best": 3565,
      "experiments": 3566,
      "arization": 3567,
      "Gaussian": 3568,
      "vac": 3569,
      "Lee": 3570,
      "during": 3571,
      "allel": 3572,
      "necess": 3573,
      "stellar": 3574,
      ".:": 3575,
      "infinite": 3576,
      "eta_": 3577,
      "First": 3578,
      "neigh": 3579,
      "place": 3580,
      "zing": 3581,
      "Ob": 3582,
      "stro": 3583,
      "Vert": 3584,
      "sup": 3585,
      "forall": 3586,
      "vertices": 3587,
      "profi": 3588,
      "ana": 3589,
      "kip": 3590,
      "RR": 3591,
      "lec": 3592,
      "ressed": 3593,
      "centering": 3594,
      "affi": 3595,
      "stack": 3596,
      "matrices": 3597,
      "chi_": 3598,
      "pi_": 3599,
      ")/": 3600,
      "specific": 3601,
      "eno": 3602,
      "cl": 3603,
      "chastic": 3604,
      "],": 3605,
      "stitu": 3606,
      "71": 3607,
      "JH": 3608,
      "za": 3609,
      "smaller": 3610,
      "gg": 3611,
      "orbi": 3612,
      "sho": 3613,
      "Or": 3614,
      "Her": 3615,
      "``{": 3616,
      "Hamiltonian": 3617,
      "1994": 3618,
      "ifx": 3619,
      "semi": 3620,
      "shift": 3621,
      "ection": 3622,
      "Research": 3623,
      "Sec": 3624,
      "invol": 3625,
      "additional": 3626,
      ".~(\\": 3627,
      "vo": 3628,
      "ef": 3629,
      "meq": 3630,
      "interval": 3631,
      "becomes": 3632,
      "good": 3633,
      "racy": 3634,
      "affiliation": 3635,
      "grow": 3636,
      "oto": 3637,
      "$-$": 3638,
      "head": 3639,
      "rang": 3640,
      "DM": 3641,
      "peak": 3642,
      "}.}": 3643,
      "construct": 3644,
      "---": 3645,
      "convergence": 3646,
      "wal": 3647,
      "asympto": 3648,
      "Nuc": 3649,
      "choice": 3650,
      "gies": 3651,
      "assumption": 3652,
      "BIB": 3653,
      "Equ": 3654,
      "pref": 3655,
      "optimization": 3656,
      "osen": 3657,
      "stability": 3658,
      "my": 3659,
      "lated": 3660,
      "cher": 3661,
      "orphic": 3662,
      "pse": 3663,
      "derived": 3664,
      "Du": 3665,
      "Pre": 3666,
      "adap": 3667,
      "simulation": 3668,
      "background": 3669,
      "simeq": 3670,
      "LP": 3671,
      "scattering": 3672,
      "Ka": 3673,
      "spectra": 3674,
      "\\|\\": 3675,
      "cannot": 3676,
      "measurements": 3677,
      "cep": 3678,
      "xx": 3679,
      ")\\\\": 3680,
      "Op": 3681,
      "modes": 3682,
      "mult": 3683,
      "applications": 3684,
      "discussed": 3685,
      "wards": 3686,
      "polynomial": 3687,
      "sof": 3688,
      "limits_": 3689,
      "^{+": 3690,
      "Ji": 3691,
      "objects": 3692,
      "seg": 3693,
      "gap": 3694,
      "modi": 3695,
      "reason": 3696,
      "$^{\\": 3697,
      "comparison": 3698,
      "however": 3699,
      "AN": 3700,
      "ACM": 3701,
      "End": 3702,
      "nit": 3703,
      "zi": 3704,
      "version": 3705,
      "Tech": 3706,
      "ends": 3707,
      "Comm": 3708,
      "constraints": 3709,
      "colon": 3710,
      "contribution": 3711,
      "sci": 3712,
      "sources": 3713,
      "shape": 3714,
      "etal": 3715,
      "charge": 3716,
      "resolution": 3717,
      "require": 3718,
      "gradi": 3719,
      "induced": 3720,
      "approximate": 3721,
      "gene": 3722,
      "expansion": 3723,
      "explo": 3724,
      "optical": 3725,
      "Har": 3726,
      "osci": 3727,
      "win": 3728,
      "JHEP": 3729,
      "tru": 3730,
      "convex": 3731,
      "plus": 3732,
      "yn": 3733,
      "}{{": 3734,
      "lum": 3735,
      "context": 3736,
      "kes": 3737,
      "nu_": 3738,
      "spher": 3739,
      "{#": 3740,
      "experimental": 3741,
      "dro": 3742,
      "cial": 3743,
      "tree": 3744,
      "}}{{": 3745,
      "reson": 3746,
      "categ": 3747,
      "distributions": 3748,
      "Cont": 3749,
      "x_0": 3750,
      "120": 3751,
      "cost": 3752,
      "ering": 3753,
      "forms": 3754,
      "scen": 3755,
      "Gre": 3756,
      "ina": 3757,
      "generate": 3758,
      "pul": 3759,
      "Ba": 3760,
      "jective": 3761,
      "counter": 3762,
      "dynamic": 3763,
      "transi": 3764,
      "hl": 3765,
      "astro": 3766,
      "vanish": 3767,
      "target": 3768,
      "vey": 3769,
      "corresponds": 3770,
      "axy": 3771,
      "parallel": 3772,
      "400": 3773,
      "RL": 3774,
      "better": 3775,
      "propa": 3776,
      "classification": 3777,
      "'(": 3778,
      "measured": 3779,
      "quasi": 3780,
      "pmatrix": 3781,
      "ody": 3782,
      "stre": 3783,
      "compute": 3784,
      "various": 3785,
      "photon": 3786,
      "angular": 3787,
      "nn": 3788,
      "sl": 3789,
      "zh": 3790,
      "demon": 3791,
      "processes": 3792,
      "eli": 3793,
      ",\\,": 3794,
      "short": 3795,
      "Inter": 3796,
      "SE": 3797,
      "expla": 3798,
      "tun": 3799,
      "{$\\": 3800,
      "research": 3801,
      "valid": 3802,
      "regions": 3803,
      "relev": 3804,
      "vectors": 3805,
      "AB": 3806,
      "isms": 3807,
      "including": 3808,
      "design": 3809,
      "1993": 3810,
      "far": 3811,
      "kernel": 3812,
      "ctu": 3813,
      "achie": 3814,
      "few": 3815,
      "reach": 3816,
      "occur": 3817,
      "review": 3818,
      "viron": 3819,
      "}}},": 3820,
      "structures": 3821,
      "interpre": 3822,
      "libri": 3823,
      "beam": 3824,
      "$).": 3825,
      "FT": 3826,
      "{[": 3827,
      "Cla": 3828,
      "--(": 3829,
      "choose": 3830,
      "lations": 3831,
      "conven": 3832,
      "available": 3833,
      "\\'{": 3834,
      "estimation": 3835,
      "accuracy": 3836,
      "before": 3837,
      "diagram": 3838,
      "Intro": 3839,
      "Gro": 3840,
      "script": 3841,
      "adsabs": 3842,
      "epsilon_": 3843,
      "written": 3844,
      "fr": 3845,
      "faces": 3846,
      "increasing": 3847,
      "fla": 3848,
      "leads": 3849,
      "mathscr": 3850,
      "MNR": 3851,
      "start": 3852,
      "gine": 3853,
      "sible": 3854,
      "numbers": 3855,
      "subsubsection": 3856,
      "MNRAS": 3857,
      "bfseries": 3858,
      "CP": 3859,
      "mach": 3860,
      "minim": 3861,
      "mediate": 3862,
      "x_2": 3863,
      "works": 3864,
      "Suppose": 3865,
      "pc": 3866,
      "ford": 3867,
      "fine": 3868,
      "event": 3869,
      "ier": 3870,
      "popu": 3871,
      "coll": 3872,
      "Press": 3873,
      "perturb": 3874,
      "lue": 3875,
      "sures": 3876,
      "rich": 3877,
      "photo": 3878,
      "han": 3879,
      "perform": 3880,
      "nucle": 3881,
      "[-": 3882,
      "ridge": 3883,
      "interactions": 3884,
      "arbitrary": 3885,
      "existence": 3886,
      "vor": 3887,
      "Quantum": 3888,
      "output": 3889,
      "$^": 3890,
      "transform": 3891,
      "directly": 3892,
      "indivi": 3893,
      "samples": 3894,
      "$^{-": 3895,
      "instance": 3896,
      "reduced": 3897,
      ")-\\": 3898,
      "Set": 3899,
      "support": 3900,
      "Bra": 3901,
      "ung": 3902,
      "fully": 3903,
      "beli": 3904,
      "denotes": 3905,
      "prefix": 3906,
      "variance": 3907,
      ")$-": 3908,
      "uro": 3909,
      "ged": 3910,
      "IN": 3911,
      "Information": 3912,
      "loy": 3913,
      "equilibri": 3914,
      "chain": 3915,
      "neg": 3916,
      "mc": 3917,
      "tz": 3918,
      "hao": 3919,
      "according": 3920,
      "1016": 3921,
      ")+\\": 3922,
      "PP": 3923,
      "lor": 3924,
      "scenari": 3925,
      "500": 3926,
      "plot": 3927,
      "hole": 3928,
      "calculated": 3929,
      "nodes": 3930,
      "resulting": 3931,
      "IS": 3932,
      "ether": 3933,
      "curves": 3934,
      "$;": 3935,
      "{+": 3936,
      "GC": 3937,
      "Mor": 3938,
      "allows": 3939,
      "isting": 3940,
      "forma": 3941,
      "Ben": 3942,
      "thermal": 3943,
      "ready": 3944,
      "laboration": 3945,
      "$|\\": 3946,
      "inner": 3947,
      "dam": 3948,
      "module": 3949,
      "sian": 3950,
      "gether": 3951,
      "original": 3952,
      "mapsto": 3953,
      "trivial": 3954,
      "had": 3955,
      "transfer": 3956,
      "computation": 3957,
      "enco": 3958,
      "},''": 3959,
      "phen": 3960,
      "}'": 3961,
      "cedure": 3962,
      "Inte": 3963,
      "notation": 3964,
      "lim_": 3965,
      "embedding": 3966,
      "understand": 3967,
      "1992": 3968,
      "cut": 3969,
      "Proces": 3970,
      "Sa": 3971,
      "Phi_": 3972,
      "Ja": 3973,
      "transp": 3974,
      "nonlinear": 3975,
      "atten": 3976,
      "reference": 3977,
      "BB": 3978,
      "fermi": 3979,
      "studied": 3980,
      "isot": 3981,
      "default": 3982,
      "textsc": 3983,
      "Mach": 3984,
      "Furthermore": 3985,
      "ben": 3986,
      "correct": 3987,
      "=-": 3988,
      "wo": 3989,
      "AG": 3990,
      "yields": 3991,
      "almost": 3992,
      "ham": 3993,
      "uture": 3994,
      "ming": 3995,
      "Consider": 3996,
      "Lie": 3997,
      "magnit": 3998,
      "required": 3999,
      "Mark": 4000,
      "tiv": 4001,
      "taken": 4002,
      "flat": 4003,
      "materi": 4004,
      "singular": 4005,
      "ental": 4006,
      "scaling": 4007,
      "introduced": 4008,
      "always": 4009,
      "easi": 4010,
      "atta": 4011,
      "Gener": 4012,
      "edges": 4013,
      "Na": 4014,
      "}&": 4015,
      "apply": 4016,
      "tionary": 4017,
      "late": 4018,
      "GeV": 4019,
      "ormal": 4020,
      "fmf": 4021,
      "gation": 4022,
      "Wu": 4023,
      "para": 4024,
      "discrete": 4025,
      "cong": 4026,
      "Mart": 4027,
      "double": 4028,
      "minimum": 4029,
      "rig": 4030,
      "hbar": 4031,
      "say": 4032,
      "lications": 4033,
      "_p": 4034,
      "root": 4035,
      "entropy": 4036,
      "sensi": 4037,
      "ky": 4038,
      "exci": 4039,
      "forward": 4040,
      "disk": 4041,
      "account": 4042,
      "Meth": 4043,
      "Proc": 4044,
      ",~": 4045,
      "rosco": 4046,
      "Gi": 4047,
      "description": 4048,
      "ird": 4049,
      "beq": 4050,
      "dark": 4051,
      "improve": 4052,
      "pas": 4053,
      "minimal": 4054,
      "CM": 4055,
      "depends": 4056,
      "environ": 4057,
      "enough": 4058,
      "Sto": 4059,
      "hood": 4060,
      "$\\\\": 4061,
      "details": 4062,
      "galaxy": 4063,
      "Ru": 4064,
      "cker": 4065,
      "precise": 4066,
      "Cal": 4067,
      "procedure": 4068,
      "instead": 4069,
      "Assu": 4070,
      "IM": 4071,
      "reds": 4072,
      "}{(": 4073,
      "core": 4074,
      "remo": 4075,
      "semb": 4076,
      "stochastic": 4077,
      "hu": 4078,
      "uman": 4079,
      "ara": 4080,
      "rel": 4081,
      "pm0": 4082,
      "Man": 4083,
      "bl": 4084,
      "robu": 4085,
      "user": 4086,
      "[(": 4087,
      "\\;\\;": 4088,
      "examples": 4089,
      "who": 4090,
      "OS": 4091,
      "limi": 4092,
      "\\)": 4093,
      "anced": 4094,
      "measurement": 4095,
      "publish": 4096,
      "Giv": 4097,
      "suc": 4098,
      "Similar": 4099,
      "relevant": 4100,
      "introduce": 4101,
      "CA": 4102,
      "cry": 4103,
      "robust": 4104,
      "hift": 4105,
      "300": 4106,
      "sters": 4107,
      "Review": 4108,
      "phan": 4109,
      "xy": 4110,
      "j_": 4111,
      "equilibrium": 4112,
      "category": 4113,
      "active": 4114,
      "sal": 4115,
      "jor": 4116,
      "geometry": 4117,
      "}}(\\": 4118,
      "pur": 4119,
      "expandafter": 4120,
      "py": 4121,
      "Introduction": 4122,
      "estimates": 4123,
      "flo": 4124,
      "1007": 4125,
      "ow": 4126,
      "mention": 4127,
      "inten": 4128,
      "}$-": 4129,
      "met": 4130,
      "arc": 4131,
      "curv": 4132,
      "Inde": 4133,
      "represent": 4134,
      "studies": 4135,
      "prediction": 4136,
      "www": 4137,
      "provided": 4138,
      "')": 4139,
      "ji": 4140,
      "together": 4141,
      "bounds": 4142,
      "manifold": 4143,
      "fluctu": 4144,
      "illu": 4145,
      "gradient": 4146,
      "string": 4147,
      "resi": 4148,
      "chosen": 4149,
      "Multi": 4150,
      "ased": 4151,
      "boson": 4152,
      "bullet": 4153,
      "rather": 4154,
      "panel": 4155,
      "body": 4156,
      "provides": 4157,
      "Given": 4158,
      "representations": 4159,
      "Lag": 4160,
      "amplitude": 4161,
      "coher": 4162,
      "Bu": 4163,
      "convolu": 4164,
      "archi": 4165,
      "cies": 4166,
      "leading": 4167,
      "John": 4168,
      "phys": 4169,
      "another": 4170,
      "ng": 4171,
      "thres": 4172,
      "binary": 4173,
      "dim": 4174,
      "horiz": 4175,
      "computed": 4176,
      "kine": 4177,
      "again": 4178,
      "topological": 4179,
      "calculations": 4180,
      "algebras": 4181,
      ":}": 4182,
      "gravity": 4183,
      "onic": 4184,
      "half": 4185,
      "made": 4186,
      "ually": 4187,
      "olic": 4188,
      "masses": 4189,
      "Processing": 4190,
      "address": 4191,
      "transformation": 4192,
      "3D": 4193,
      "performed": 4194,
      "Astron": 4195,
      "exponential": 4196,
      "Proof": 4197,
      "extension": 4198,
      "cr": 4199,
      "presence": 4200,
      "aap": 4201,
      "2k": 4202,
      "spac": 4203,
      "classes": 4204,
      "quote": 4205,
      "atch": 4206,
      "~$\\": 4207,
      "whether": 4208,
      "Hig": 4209,
      "p_1": 4210,
      "partition": 4211,
      "Min": 4212,
      "Non": 4213,
      "Astro": 4214,
      "~(": 4215,
      "already": 4216,
      "pairs": 4217,
      "bund": 4218,
      "NS": 4219,
      "agre": 4220,
      "}{|": 4221,
      "t_0": 4222,
      "lection": 4223,
      "yer": 4224,
      "Sun": 4225,
      "udo": 4226,
      "Xu": 4227,
      "blue": 4228,
      "Bur": 4229,
      "oid": 4230,
      "aneous": 4231,
      "pole": 4232,
      "SL": 4233,
      "packages": 4234,
      "gel": 4235,
      "-$": 4236,
      "maximal": 4237,
      "itch": 4238,
      "aries": 4239,
      "efficient": 4240,
      "mas": 4241,
      "dev": 4242,
      "Ni": 4243,
      "O_": 4244,
      "grams": 4245,
      "triangle": 4246,
      "{(\\": 4247,
      "types": 4248,
      "inty": 4249,
      "coordinates": 4250,
      "vised": 4251,
      "events": 4252,
      "ctive": 4253,
      "bilities": 4254,
      "Kim": 4255,
      "reduction": 4256,
      "application": 4257,
      "redshift": 4258,
      "termine": 4259,
      "sense": 4260,
      "prac": 4261,
      "istics": 4262,
      "1991": 4263,
      "xi_": 4264,
      "\\}$.": 4265,
      "extended": 4266,
      "celer": 4267,
      "samp": 4268,
      "circle": 4269,
      "{}.": 4270,
      "changes": 4271,
      "stri": 4272,
      "increases": 4273,
      "cccc": 4274,
      "homogene": 4275,
      "question": 4276,
      "certa": 4277,
      "Ab": 4278,
      "iner": 4279,
      "interword": 4280,
      "BIBentry": 4281,
      "Computational": 4282,
      "latter": 4283,
      "enh": 4284,
      "constraint": 4285,
      "cyc": 4286,
      "Nat": 4287,
      "inverse": 4288,
      "electro": 4289,
      "zes": 4290,
      "certainty": 4291,
      "future": 4292,
      "||": 4293,
      ".$": 4294,
      "determine": 4295,
      "Mathematics": 4296,
      "Physical": 4297,
      "periodic": 4298,
      "cf": 4299,
      "clusters": 4300,
      "location": 4301,
      "site": 4302,
      "metri": 4303,
      "communic": 4304,
      "pure": 4305,
      "Spe": 4306,
      "$),": 4307,
      "spacing": 4308,
      "ration": 4309,
      "}^*": 4310,
      "diagonal": 4311,
      "buil": 4312,
      "{./": 4313,
      "endcsname": 4314,
      "phantom": 4315,
      "decomposition": 4316,
      "por": 4317,
      "calculation": 4318,
      "USA": 4319,
      "DB": 4320,
      "useful": 4321,
      "sup_": 4322,
      "generalized": 4323,
      "Ale": 4324,
      "mathsf": 4325,
      "Statis": 4326,
      "$~": 4327,
      "identity": 4328,
      "ellip": 4329,
      "absor": 4330,
      "Nature": 4331,
      "tage": 4332,
      "CS": 4333,
      "duces": 4334,
      "&$": 4335,
      "ams": 4336,
      "Wal": 4337,
      "factors": 4338,
      "dimensions": 4339,
      "))$": 4340,
      "dash": 4341,
      "approaches": 4342,
      "visual": 4343,
      "might": 4344,
      "Spa": 4345,
      "diver": 4346,
      "}}^{": 4347,
      "spath": 4348,
      "CR": 4349,
      "rates": 4350,
      "collision": 4351,
      "LL": 4352,
      "Transactions": 4353,
      "graphicspath": 4354,
      "$\\,": 4355,
      "eeq": 4356,
      "GR": 4357,
      "production": 4358,
      "112": 4359,
      "entation": 4360,
      "interesting": 4361,
      "importpackages": 4362,
      "role": 4363,
      "observe": 4364,
      "versal": 4365,
      "dynamical": 4366,
      "\\,,": 4367,
      "$:": 4368,
      "articletitle": 4369,
      "showarticletitle": 4370,
      "fundam": 4371,
      "})$.": 4372,
      "theoretical": 4373,
      "vision": 4374,
      "estab": 4375,
      "complexity": 4376,
      "establish": 4377,
      "desi": 4378,
      "decrease": 4379,
      "Appendix": 4380,
      "dr": 4381,
      "Institu": 4382,
      "arily": 4383,
      "common": 4384,
      "Amer": 4385,
      "Nucl": 4386,
      "nabla_": 4387,
      "det": 4388,
      "Sub": 4389,
      "regime": 4390,
      "icul": 4391,
      "necessary": 4392,
      "electric": 4393,
      "authors": 4394,
      "supported": 4395,
      "preser": 4396,
      "branch": 4397,
      "conclude": 4398,
      "extre": 4399,
      "Gr": 4400,
      "easily": 4401,
      "discuss": 4402,
      "gravi": 4403,
      "morphism": 4404,
      "vid": 4405,
      "Neural": 4406,
      "Vision": 4407,
      "iral": 4408,
      "functional": 4409,
      "ÿÿÿÿÿÿÿÿ": 4410,
      "situ": 4411,
      "machine": 4412,
      "errors": 4413,
      "DF": 4414,
      "andi": 4415,
      "hypo": 4416,
      "Huang": 4417,
      "}}].": 4418,
      "varphi_": 4419,
      "compar": 4420,
      "generation": 4421,
      "&=\\": 4422,
      "odd": 4423,
      "San": 4424,
      "mem": 4425,
      "iled": 4426,
      "Sol": 4427,
      "shar": 4428,
      "2D": 4429,
      "El": 4430,
      "lov": 4431,
      "tfrac": 4432,
      "entangle": 4433,
      "1990": 4434,
      "ink": 4435,
      "attention": 4436,
      "textwidth": 4437,
      "Lar": 4438,
      "Sigma_": 4439,
      "nes": 4440,
      "analog": 4441,
      "sphere": 4442,
      "Camb": 4443,
      "area": 4444,
      "exactly": 4445,
      "Fa": 4446,
      "among": 4447,
      "lier": 4448,
      "ffer": 4449,
      "GL": 4450,
      "formed": 4451,
      "canon": 4452,
      "hskip": 4453,
      "taking": 4454,
      "chen": 4455,
      "knowledge": 4456,
      "Indeed": 4457,
      "While": 4458,
      "Hil": 4459,
      "**": 4460,
      "thick": 4461,
      "magnitude": 4462,
      "}})": 4463,
      "argument": 4464,
      "orbit": 4465,
      "constructed": 4466,
      "devi": 4467,
      "t_1": 4468,
      "DO": 4469,
      "observation": 4470,
      "Tak": 4471,
      "Plan": 4472,
      "Bal": 4473,
      "mail": 4474,
      "arized": 4475,
      "strength": 4476,
      "AI": 4477,
      "simply": 4478,
      "Vol": 4479,
      "fast": 4480,
      "she": 4481,
      "ave": 4482,
      "Algori": 4483,
      "displaystyle": 4484,
      "oral": 4485,
      "...,": 4486,
      "difficul": 4487,
      "}.\\": 4488,
      "parts": 4489,
      "curvature": 4490,
      "bey": 4491,
      "bottom": 4492,
      "configuration": 4493,
      "^*$": 4494,
      "denoted": 4495,
      "anni": 4496,
      "sys": 4497,
      "c_1": 4498,
      "satisfying": 4499,
      "Ju": 4500,
      "eri": 4501,
      "multiplic": 4502,
      "statistical": 4503,
      "))\\": 4504,
      "Hz": 4505,
      "PT": 4506,
      "cycle": 4507,
      "Analysis": 4508,
      "ible": 4509,
      "atory": 4510,
      "individual": 4511,
      "Dy": 4512,
      "mith": 4513,
      "cosmo": 4514,
      "Higgs": 4515,
      "strongly": 4516,
      "EC": 4517,
      "Mod": 4518,
      "sities": 4519,
      "Soc": 4520,
      "State": 4521,
      "ken": 4522,
      "sui": 4523,
      "meds": 4524,
      "sampling": 4525,
      "Tra": 4526,
      "contributions": 4527,
      "pseudo": 4528,
      "diffusion": 4529,
      "Af": 4530,
      "York": 4531,
      "shall": 4532,
      "coefficient": 4533,
      "enquote": 4534,
      "rotation": 4535,
      "techniques": 4536,
      "ey": 4537,
      "ourier": 4538,
      "prim": 4539,
      "assumed": 4540,
      "track": 4541,
      "Cambridge": 4542,
      "1088": 4543,
      "ement": 4544,
      "medskip": 4545,
      "But": 4546,
      "selection": 4547,
      "processing": 4548,
      "hash": 4549,
      "llig": 4550,
      "filter": 4551,
      "sw": 4552,
      "requires": 4553,
      "Kar": 4554,
      "Sal": 4555,
      "estimated": 4556,
      "pped": 4557,
      "significantly": 4558,
      "fundamental": 4559,
      "Fu": 4560,
      "crit": 4561,
      "1989": 4562,
      ")}}": 4563,
      "210": 4564,
      "claim": 4565,
      "asymptotic": 4566,
      "}\\,\\": 4567,
      "picture": 4568,
      "essential": 4569,
      "}$)": 4570,
      "discussion": 4571,
      "quadra": 4572,
      "uncertainty": 4573,
      "SD": 4574,
      "ante": 4575,
      "sus": 4576,
      "population": 4577,
      "lumino": 4578,
      "gineering": 4579,
      "homogeneous": 4580,
      "bigr": 4581,
      "MA": 4582,
      "+(": 4583,
      "scales": 4584,
      "bias": 4585,
      "]{#": 4586,
      "coordinate": 4587,
      "bigl": 4588,
      "Cho": 4589,
      "kh": 4590,
      "odot": 4591,
      "\\(\\": 4592,
      "Soci": 4593,
      "neighbor": 4594,
      "{|": 4595,
      "combination": 4596,
      "</": 4597,
      "produce": 4598,
      "\\}\\": 4599,
      "chall": 4600,
      "energies": 4601,
      "ighted": 4602,
      "ttfamily": 4603,
      "else": 4604,
      "rece": 4605,
      "tool": 4606,
      "survey": 4607,
      "Sim": 4608,
      "accurate": 4609,
      "proto": 4610,
      "geometric": 4611,
      "sections": 4612,
      "ander": 4613,
      "adop": 4614,
      "depth": 4615,
      "PhysRevLett": 4616,
      "coupled": 4617,
      "Shi": 4618,
      "ato": 4619,
      "sequences": 4620,
      "traject": 4621,
      "identify": 4622,
      "computing": 4623,
      "]$.": 4624,
      "connection": 4625,
      "rest": 4626,
      "Fi": 4627,
      "speed": 4628,
      "dfrac": 4629,
      "profile": 4630,
      "analytic": 4631,
      "supervised": 4632,
      "quality": 4633,
      "uli": 4634,
      "ids": 4635,
      "steps": 4636,
      ",\\\\": 4637,
      "done": 4638,
      "floor": 4639,
      "ns": 4640,
      "mechanism": 4641,
      "ects": 4642,
      "look": 4643,
      "}\\|": 4644,
      "come": 4645,
      "takes": 4646,
      "tin": 4647,
      "issu": 4648,
      "algebraic": 4649,
      "Institute": 4650,
      "derivative": 4651,
      "Ger": 4652,
      "partment": 4653,
      "contrast": 4654,
      "focus": 4655,
      "Zhou": 4656,
      "ideal": 4657,
      "SC": 4658,
      "}{}": 4659,
      "EM": 4660,
      "1em": 4661,
      "tle": 4662,
      "mcitedefault": 4663,
      "quer": 4664,
      "sect": 4665,
      "lesssim": 4666,
      "(-\\": 4667,
      "evaluation": 4668,
      "architect": 4669,
      "yr": 4670,
      "conduct": 4671,
      "disper": 4672,
      "threshold": 4673,
      "nology": 4674,
      "distributed": 4675,
      "vide": 4676,
      "&-": 4677,
      "010": 4678,
      "Mathematical": 4679,
      "a_i": 4680,
      "})$,": 4681,
      "amoun": 4682,
      "5em": 4683,
      "III": 4684,
      "\\\"{": 4685,
      "strategy": 4686,
      "Fermi": 4687,
      "remains": 4688,
      "later": 4689,
      "statem": 4690,
      "phenom": 4691,
      "):\\": 4692,
      "nature": 4693,
      "organ": 4694,
      "Tho": 4695,
      "hydro": 4696,
      "rint": 4697,
      "canonical": 4698,
      "equivalence": 4699,
      "projection": 4700,
      ",$": 4701,
      "BH": 4702,
      "massi": 4703,
      "third": 4704,
      "dense": 4705,
      "Collaboration": 4706,
      "condu": 4707,
      "Han": 4708,
      "Associ": 4709,
      "{-\\": 4710,
      "Ga": 4711,
      "Eprint": 4712,
      "alg": 4713,
      "ably": 4714,
      "layers": 4715,
      "Department": 4716,
      "mission": 4717,
      "})}": 4718,
      "distin": 4719,
      "vee": 4720,
      "Val": 4721,
      "Society": 4722,
      "oulo": 4723,
      ",\\,\\": 4724,
      "ght": 4725,
      "vary": 4726,
      "&&\\": 4727,
      "oni": 4728,
      "Zhu": 4729,
      "maketitle": 4730,
      ",}": 4731,
      "vances": 4732,
      "environment": 4733,
      "Ku": 4734,
      "mentioned": 4735,
      "acting": 4736,
      "height": 4737,
      "massive": 4738,
      "wski": 4739,
      "proved": 4740,
      "ior": 4741,
      "lecular": 4742,
      "~~~~": 4743,
      "bits": 4744,
      "2m": 4745,
      "Bel": 4746,
      "Machine": 4747,
      "osi": 4748,
      "basic": 4749,
      "consists": 4750,
      "ES": 4751,
      "]$,": 4752,
      "recognition": 4753,
      "arse": 4754,
      "across": 4755,
      "trained": 4756,
      "IT": 4757,
      "ert": 4758,
      "IP": 4759,
      "terna": 4760,
      "((": 4761,
      "Xi": 4762,
      "represents": 4763,
      "QCD": 4764,
      "conf": 4765,
      "cryst": 4766,
      "They": 4767,
      "bsnm": 4768,
      "easy": 4769,
      "ternal": 4770,
      "often": 4771,
      "LO": 4772,
      "ena": 4773,
      "Er": 4774,
      "binits": 4775,
      "Also": 4776,
      ":=\\": 4777,
      "High": 4778,
      "calculate": 4779,
      "radiation": 4780,
      "ero": 4781,
      "ightarrow": 4782,
      "v_1": 4783,
      "pressure": 4784,
      "broad": 4785,
      "_m": 4786,
      "response": 4787,
      "urlprefix": 4788,
      "adi": 4789,
      "\\}$,": 4790,
      "ology": 4791,
      "orthog": 4792,
      "computational": 4793,
      "_4": 4794,
      "propor": 4795,
      "hol": 4796,
      "isomorphism": 4797,
      "belong": 4798,
      "){\\": 4799,
      "newcommand": 4800,
      "ried": 4801,
      "ID": 4802,
      "orphisms": 4803,
      "ised": 4804,
      "ira": 4805,
      "vacu": 4806,
      "characteristic": 4807,
      "xel": 4808,
      "ET": 4809,
      "Fourier": 4810,
      "slight": 4811,
      "gravitational": 4812,
      "list": 4813,
      "1987": 4814,
      "major": 4815,
      "surfaces": 4816,
      "k_1": 4817,
      "agreement": 4818,
      "impact": 4819,
      "theories": 4820,
      "paragraph": 4821,
      "URL": 4822,
      "simplic": 4823,
      "cref": 4824,
      "soft": 4825,
      "solid": 4826,
      "booktitle": 4827,
      "vidence": 4828,
      "reduci": 4829,
      "udes": 4830,
      "MP": 4831,
      "Pol": 4832,
      "emical": 4833,
      "Of": 4834,
      "ending": 4835,
      "uses": 4836,
      "interwordspacing": 4837,
      "encies": 4838,
      "Br": 4839,
      "&=&\\": 4840,
      "Sur": 4841,
      "a_2": 4842,
      "sufficient": 4843,
      "science": 4844,
      "1988": 4845,
      "efficiency": 4846,
      "CH": 4847,
      "cd": 4848,
      "jecture": 4849,
      "tif": 4850,
      "sson": 4851,
      "strated": 4852,
      "mented": 4853,
      "lling": 4854,
      "mono": 4855,
      "having": 4856,
      "bon": 4857,
      "600": 4858,
      "acceler": 4859,
      "Sing": 4860,
      "memb": 4861,
      "corollary": 4862,
      "Deep": 4863,
      "likely": 4864,
      "Tor": 4865,
      "kar": 4866,
      "growth": 4867,
      "adj": 4868,
      "grid": 4869,
      "employ": 4870,
      "candi": 4871,
      "homology": 4872,
      "Mu": 4873,
      "bmatrix": 4874,
      "literature": 4875,
      "era": 4876,
      "Gar": 4877,
      "eprint": 4878,
      "gets": 4879,
      "Lambda_": 4880,
      "regul": 4881,
      "omal": 4882,
      "emptyset": 4883,
      "Smith": 4884,
      "integration": 4885,
      "unity": 4886,
      "gain": 4887,
      "project": 4888,
      "namely": 4889,
      "fre": 4890,
      "day": 4891,
      "sequently": 4892,
      "ada": 4893,
      "measures": 4894,
      "mapping": 4895,
      "datasets": 4896,
      "treat": 4897,
      "Work": 4898,
      "jet": 4899,
      "PhysRevD": 4900,
      ".)": 4901,
      "interest": 4902,
      "ared": 4903,
      "|}": 4904,
      "constants": 4905,
      "bes": 4906,
      "Ta": 4907,
      "instein": 4908,
      "minimi": 4909,
      "trace": 4910,
      "formations": 4911,
      "accre": 4912,
      "izing": 4913,
      ".}},": 4914,
      "pminus": 4915,
      "simpli": 4916,
      "Kra": 4917,
      "radio": 4918,
      "${": 4919,
      "sufficiently": 4920,
      "n_1": 4921,
      "conta": 4922,
      "Ki": 4923,
      "DD": 4924,
      "ush": 4925,
      "finding": 4926,
      "neutrino": 4927,
      "Rem": 4928,
      "Brow": 4929,
      "Exp": 4930,
      "help": 4931,
      "Computing": 4932,
      "MM": 4933,
      "Van": 4934,
      "GP": 4935,
      "game": 4936,
      "fluid": 4937,
      "Eff": 4938,
      "sla": 4939,
      "modules": 4940,
      "ez": 4941,
      "subgroup": 4942,
      "harmon": 4943,
      "symbol": 4944,
      "Assume": 4945,
      "become": 4946,
      "online": 4947,
      "weights": 4948,
      "uments": 4949,
      "ropic": 4950,
      "derive": 4951,
      "Sha": 4952,
      "101": 4953,
      "Mag": 4954,
      "ately": 4955,
      "correspond": 4956,
      "nee": 4957,
      "confi": 4958,
      "metries": 4959,
      "brace": 4960,
      "}}^": 4961,
      "solve": 4962,
      "Ima": 4963,
      "human": 4964,
      "LS": 4965,
      "][]{": 4966,
      "LR": 4967,
      "principle": 4968,
      "avy": 4969,
      "fluctuations": 4970,
      "FR": 4971,
      "locally": 4972,
      "tware": 4973,
      "considering": 4974,
      "ries": 4975,
      "nowledge": 4976,
      "external": 4977,
      "prior": 4978,
      "Astronom": 4979,
      "tric": 4980,
      "Mas": 4981,
      "limited": 4982,
      "typical": 4983,
      "temporal": 4984,
      "Alex": 4985,
      "cour": 4986,
      "appropri": 4987,
      "Cent": 4988,
      "Hy": 4989,
      "iss": 4990,
      "signed": 4991,
      "Similarly": 4992,
      "appears": 4993,
      "conformal": 4994,
      "success": 4995,
      "1986": 4996,
      "agent": 4997,
      "strict": 4998,
      "125": 4999,
      "A_1": 5000,
      "reducible": 5001,
      "ternative": 5002,
      "produced": 5003,
      "tan": 5004,
      "\\,.": 5005,
      "bauthor": 5006,
      ")}.": 5007,
      "Mac": 5008,
      "thin": 5009,
      "radial": 5010,
      "Corollary": 5011,
      "memory": 5012,
      "recall": 5013,
      "polarization": 5014,
      "consequence": 5015,
      "seem": 5016,
      "gated": 5017,
      "})=": 5018,
      "anomal": 5019,
      "influ": 5020,
      "sep": 5021,
      "eigenvalues": 5022,
      "Bro": 5023,
      "icial": 5024,
      "isted": 5025,
      "ja": 5026,
      "ibra": 5027,
      "b_1": 5028,
      "Ca": 5029,
      "usual": 5030,
      "makes": 5031,
      "gl": 5032,
      "vs": 5033,
      "tik": 5034,
      "variation": 5035,
      "multirow": 5036,
      "repla": 5037,
      "})^": 5038,
      "modeling": 5039,
      "tian": 5040,
      "luminosity": 5041,
      "Char": 5042,
      "Green": 5043,
      "criter": 5044,
      "{.}": 5045,
      "translation": 5046,
      "rees": 5047,
      "reported": 5048,
      ".\\\\": 5049,
      "f_1": 5050,
      "Ed": 5051,
      "^{(\\": 5052,
      "yan": 5053,
      "105": 5054,
      "gather": 5055,
      "bulk": 5056,
      "weighted": 5057,
      "Ty": 5058,
      "hr": 5059,
      "Ti": 5060,
      "rangle_": 5061,
      "try": 5062,
      "Mill": 5063,
      "$\\{\\": 5064,
      "bly": 5065,
      "Pri": 5066,
      "003": 5067,
      "towards": 5068,
      "m_1": 5069,
      "/(": 5070,
      "detailed": 5071,
      "cul": 5072,
      "scenario": 5073,
      "UV": 5074,
      "otherwise": 5075,
      "gest": 5076,
      "ller": 5077,
      "notag": 5078,
      "holo": 5079,
      "Although": 5080,
      "mathema": 5081,
      "Advances": 5082,
      "straight": 5083,
      "entire": 5084,
      "Cur": 5085,
      "lastic": 5086,
      "pixel": 5087,
      "National": 5088,
      "moto": 5089,
      "}|\\": 5090,
      "olute": 5091,
      "Pattern": 5092,
      "mixing": 5093,
      "coinci": 5094,
      "his": 5095,
      "Geo": 5096,
      "selected": 5097,
      ")^\\": 5098,
      "Fun": 5099,
      "ball": 5100,
      "cting": 5101,
      "atoms": 5102,
      "identified": 5103,
      "concept": 5104,
      ")&": 5105,
      "tension": 5106,
      "Such": 5107,
      "1985": 5108,
      "developed": 5109,
      "rota": 5110,
      "princip": 5111,
      "alpha_1": 5112,
      "lik": 5113,
      "After": 5114,
      "Wo": 5115,
      "}$}": 5116,
      "syste": 5117,
      "HC": 5118,
      "4em": 5119,
      "abund": 5120,
      "lap": 5121,
      "Bay": 5122,
      "onto": 5123,
      "relatively": 5124,
      "hier": 5125,
      "len": 5126,
      "seman": 5127,
      "micro": 5128,
      "span": 5129,
      "wt": 5130,
      "bundle": 5131,
      "Opti": 5132,
      "Xia": 5133,
      "}}$,": 5134,
      "lie": 5135,
      "}^{+": 5136,
      "orial": 5137,
      "u_1": 5138,
      "Euro": 5139,
      "ware": 5140,
      "appendix": 5141,
      "isson": 5142,
      "Zhao": 5143,
      "ctivity": 5144,
      "ek": 5145,
      "itor": 5146,
      "i_1": 5147,
      "static": 5148,
      ")}(\\": 5149,
      "ED": 5150,
      "polynomials": 5151,
      "|}{": 5152,
      "C_1": 5153,
      "Imp": 5154,
      "belian": 5155,
      "Tan": 5156,
      "needed": 5157,
      "|^{": 5158,
      "universal": 5159,
      "vich": 5160,
      "cade": 5161,
      "assumptions": 5162,
      "Association": 5163,
      "cli": 5164,
      "topology": 5165,
      "Comb": 5166,
      "exhi": 5167,
      "generic": 5168,
      "expressed": 5169,
      "predictions": 5170,
      "1984": 5171,
      "-(": 5172,
      "perturbation": 5173,
      "iota": 5174,
      "advers": 5175,
      "publisher": 5176,
      "spi": 5177,
      "concent": 5178,
      "bold": 5179,
      "Next": 5180,
      "distinct": 5181,
      "rational": 5182,
      "alog": 5183,
      "123": 5184,
      "glu": 5185,
      "depending": 5186,
      "clearly": 5187,
      "tasks": 5188,
      "Elect": 5189,
      "^*\\": 5190,
      "}[\\": 5191,
      "vacuum": 5192,
      "quadratic": 5193,
      "Mal": 5194,
      "transport": 5195,
      "aki": 5196,
      "corrections": 5197,
      "ables": 5198,
      "Resul": 5199,
      "^{*": 5200,
      "pl": 5201,
      "containing": 5202,
      "communication": 5203,
      "guar": 5204,
      "orthogonal": 5205,
      "oscil": 5206,
      "operation": 5207,
      "resol": 5208,
      "115": 5209,
      "Sil": 5210,
      "feed": 5211,
      "applying": 5212,
      "actic": 5213,
      "fect": 5214,
      "Recall": 5215,
      "0pt": 5216,
      "irical": 5217,
      "emer": 5218,
      "detected": 5219,
      "technique": 5220,
      "Am": 5221,
      "cks": 5222,
      "vent": 5223,
      "Cha": 5224,
      "Fra": 5225,
      "optimi": 5226,
      "estimat": 5227,
      "molecular": 5228,
      "Reg": 5229,
      "Equation": 5230,
      "km": 5231,
      "material": 5232,
      "punct": 5233,
      "Graph": 5234,
      "lected": 5235,
      "Tj": 5236,
      "computer": 5237,
      "sma": 5238,
      "propose": 5239,
      "s_1": 5240,
      "conju": 5241,
      "halo": 5242,
      "Bern": 5243,
      "differences": 5244,
      "tingu": 5245,
      "2d": 5246,
      "velength": 5247,
      "EN": 5248,
      "puts": 5249,
      "Long": 5250,
      "}}$.": 5251,
      "Ya": 5252,
      "levels": 5253,
      "contradic": 5254,
      "See": 5255,
      "Jan": 5256,
      "ender": 5257,
      "\\`": 5258,
      "Bon": 5259,
      "vio": 5260,
      "rem": 5261,
      "reduce": 5262,
      "manifolds": 5263,
      "arial": 5264,
      "Can": 5265,
      "lag": 5266,
      "contained": 5267,
      "SN": 5268,
      "111": 5269,
      "understanding": 5270,
      "Fr": 5271,
      "1983": 5272,
      "slow": 5273,
      "alities": 5274,
      "asp": 5275,
      "variety": 5276,
      "inside": 5277,
      "isation": 5278,
      "z_1": 5279,
      "correction": 5280,
      "expect": 5281,
      "metrics": 5282,
      "bibinit": 5283,
      "uri": 5284,
      "stage": 5285,
      "kappa_": 5286,
      "Str": 5287,
      "Appl": 5288,
      "recei": 5289,
      "({": 5290,
      "Des": 5291,
      "p_i": 5292,
      "x_n": 5293,
      "green": 5294,
      "beyond": 5295,
      "asym": 5296,
      "too": 5297,
      "001": 5298,
      "Hen": 5299,
      "0000000000000000": 5300,
      "linewidth": 5301,
      "Auto": 5302,
      "tivis": 5303,
      "calibra": 5304,
      "correlations": 5305,
      "driven": 5306,
      "fically": 5307,
      "APAC": 5308,
      "yu": 5309,
      "Bor": 5310,
      "absolute": 5311,
      "explicitly": 5312,
      "statistics": 5313,
      "Chris": 5314,
      "roscopic": 5315,
      "Hilbert": 5316,
      "Rec": 5317,
      "Engineering": 5318,
      "Lor": 5319,
      "automa": 5320,
      "104": 5321,
      "matching": 5322,
      "Up": 5323,
      "detector": 5324,
      "lambda_1": 5325,
      "world": 5326,
      "Lagrang": 5327,
      "wall": 5328,
      "operatorname": 5329,
      "wavelength": 5330,
      "elliptic": 5331,
      "Super": 5332,
      "Each": 5333,
      "X_1": 5334,
      "AD": 5335,
      "atz": 5336,
      "FC": 5337,
      "220": 5338,
      "fel": 5339,
      "itself": 5340,
      "Is": 5341,
      "distingu": 5342,
      "Experi": 5343,
      "Sep": 5344,
      "overall": 5345,
      "0004": 5346,
      "LT": 5347,
      "precisely": 5348,
      "Methods": 5349,
      "slightly": 5350,
      "iii": 5351,
      "ott": 5352,
      "uncertain": 5353,
      "icity": 5354,
      "guarante": 5355,
      "\\#": 5356,
      "appropriate": 5357,
      "Hol": 5358,
      "generally": 5359,
      "roup": 5360,
      "0_": 5361,
      "Cas": 5362,
      "Ener": 5363,
      "channels": 5364,
      "comes": 5365,
      "103": 5366,
      "whole": 5367,
      "decision": 5368,
      "Fran": 5369,
      "Hor": 5370,
      "whereas": 5371,
      "cz": 5372,
      "bing": 5373,
      "heavy": 5374,
      "Ren": 5375,
      "Chi": 5376,
      "^*(": 5377,
      "meta": 5378,
      "Algorithm": 5379,
      "represented": 5380,
      "goal": 5381,
      "Im": 5382,
      "ah": 5383,
      "CVPR": 5384,
      "wang": 5385,
      "quantities": 5386,
      "expec": 5387,
      "Andre": 5388,
      "sess": 5389,
      "Ban": 5390,
      "tivistic": 5391,
      "Med": 5392,
      "bio": 5393,
      "Fre": 5394,
      "128": 5395,
      "SR": 5396,
      "electrons": 5397,
      "entanglement": 5398,
      "irreducible": 5399,
      "ensemb": 5400,
      "ensure": 5401,
      "post": 5402,
      "gramm": 5403,
      "statement": 5404,
      "Case": 5405,
      "although": 5406,
      "}{*": 5407,
      "p_2": 5408,
      "DR": 5409,
      "shell": 5410,
      "Den": 5411,
      "ising": 5412,
      "Kr": 5413,
      "formulation": 5414,
      ")})": 5415,
      "}}}\\": 5416,
      "ducing": 5417,
      "aus": 5418,
      ">\\": 5419,
      "internal": 5420,
      "modified": 5421,
      "satisfied": 5422,
      "Pan": 5423,
      "dispersion": 5424,
      "immediate": 5425,
      "amount": 5426,
      "oung": 5427,
      "Jaco": 5428,
      "cir": 5429,
      "tang": 5430,
      "})},\\": 5431,
      "chemical": 5432,
      "starting": 5433,
      "predicted": 5434,
      "Symp": 5435,
      "Cu": 5436,
      "hypothesis": 5437,
      "Ling": 5438,
      "uti": 5439,
      "Dynam": 5440,
      "orbital": 5441,
      "1000": 5442,
      "brack": 5443,
      "num": 5444,
      "hierarch": 5445,
      "alt": 5446,
      "atomic": 5447,
      "trin": 5448,
      "-{": 5449,
      "distinguish": 5450,
      "resonance": 5451,
      "\\/}": 5452,
      "indeed": 5453,
      "Fo": 5454,
      "waves": 5455,
      "phases": 5456,
      "evaluate": 5457,
      "Av": 5458,
      "objective": 5459,
      "]}}.": 5460,
      "uniformly": 5461,
      "ell_": 5462,
      "users": 5463,
      "situation": 5464,
      "\\},": 5465,
      "repe": 5466,
      "isotropic": 5467,
      "Intellig": 5468,
      "smallskip": 5469,
      "ny": 5470,
      "+$": 5471,
      "fitting": 5472,
      "Recognition": 5473,
      "subspace": 5474,
      "transitions": 5475,
      "binom": 5476,
      "indicates": 5477,
      "commutative": 5478,
      "exclu": 5479,
      "Wei": 5480,
      "variant": 5481,
      "~(\\": 5482,
      "Bec": 5483,
      "ange": 5484,
      "covery": 5485,
      "segmentation": 5486,
      "disc": 5487,
      "polar": 5488,
      "ban": 5489,
      "1982": 5490,
      "ALT": 5491,
      "proton": 5492,
      "BF": 5493,
      "}}=": 5494,
      "PC": 5495,
      "mixed": 5496,
      "continuum": 5497,
      "Lap": 5498,
      "General": 5499,
      "Tay": 5500,
      "BS": 5501,
      "conjecture": 5502,
      "positions": 5503,
      "hbox": 5504,
      "achieve": 5505,
      "degrees": 5506,
      "quite": 5507,
      "Theore": 5508,
      "x_j": 5509,
      "}}^{\\": 5510,
      "remaining": 5511,
      "assuming": 5512,
      "early": 5513,
      "Einstein": 5514,
      "monot": 5515,
      "completely": 5516,
      "ource": 5517,
      "solar": 5518,
      "investigate": 5519,
      "Bst": 5520,
      "ause": 5521,
      "rad": 5522,
      "....": 5523,
      "rd": 5524,
      "(+": 5525,
      "slo": 5526,
      "nei": 5527,
      "tch": 5528,
      "compati": 5529,
      "Under": 5530,
      "Riem": 5531,
      "video": 5532,
      "ines": 5533,
      "Applied": 5534,
      "subsec": 5535,
      ")(\\": 5536,
      "nuclear": 5537,
      "020": 5538,
      "Definition": 5539,
      "desired": 5540,
      "flows": 5541,
      "Remark": 5542,
      ".$$": 5543,
      "Psi_": 5544,
      "extreme": 5545,
      "cast": 5546,
      "'',": 5547,
      "v1": 5548,
      "dates": 5549,
      "{.}}{": 5550,
      "achieved": 5551,
      "heat": 5552,
      ".}}": 5553,
      "vskip": 5554,
      "intensity": 5555,
      "longrightarrow": 5556,
      "ros": 5557,
      "y_1": 5558,
      "fiber": 5559,
      "Applications": 5560,
      "Lagrangian": 5561,
      "cup_": 5562,
      "advan": 5563,
      "Results": 5564,
      "108": 5565,
      "circu": 5566,
      "relationshi": 5567,
      "BIBentryALT": 5568,
      "MD": 5569,
      "host": 5570,
      "bic": 5571,
      "occurs": 5572,
      "included": 5573,
      "107": 5574,
      "ders": 5575,
      "Example": 5576,
      "existing": 5577,
      "Stu": 5578,
      "Second": 5579,
      "Vo": 5580,
      "regression": 5581,
      "transverse": 5582,
      "harmonic": 5583,
      "lle": 5584,
      "program": 5585,
      "impo": 5586,
      "usually": 5587,
      "gories": 5588,
      "convolutional": 5589,
      "eder": 5590,
      "]^": 5591,
      "pers": 5592,
      "Martin": 5593,
      "pid": 5594,
      "gan": 5595,
      "bibinitperiod": 5596,
      "influence": 5597,
      "idea": 5598,
      "Max": 5599,
      "propto": 5600,
      "|$": 5601,
      "106": 5602,
      "Pi_": 5603,
      "absorption": 5604,
      "sides": 5605,
      "midrule": 5606,
      "cC": 5607,
      "content": 5608,
      "MO": 5609,
      "tificial": 5610,
      "difficult": 5611,
      "turbul": 5612,
      "Ke": 5613,
      "Ano": 5614,
      "Line": 5615,
      "Differ": 5616,
      "Dan": 5617,
      "catcode": 5618,
      "119": 5619,
      "osium": 5620,
      "102": 5621,
      "inference": 5622,
      "lings": 5623,
      "}~": 5624,
      "subject": 5625,
      "accretion": 5626,
      "recently": 5627,
      "margin": 5628,
      "move": 5629,
      "Two": 5630,
      "sun": 5631,
      "newline": 5632,
      "mental": 5633,
      "\\}.": 5634,
      "averag": 5635,
      "covered": 5636,
      "arities": 5637,
      "against": 5638,
      "c_2": 5639,
      "1980": 5640,
      "Sciences": 5641,
      "learn": 5642,
      "slash": 5643,
      "Park": 5644,
      "underlying": 5645,
      "Eqs": 5646,
      "valued": 5647,
      "oli": 5648,
      "atives": 5649,
      "deca": 5650,
      "solving": 5651,
      "oftwo": 5652,
      "\\[\\": 5653,
      "architecture": 5654,
      "117": 5655,
      "infer": 5656,
      "normalized": 5657,
      "downarrow": 5658,
      "jk": 5659,
      "OP": 5660,
      "\\|^": 5661,
      "Pub": 5662,
      "Poisson": 5663,
      "$&$": 5664,
      "DA": 5665,
      "multaneous": 5666,
      "Bou": 5667,
      "CT": 5668,
      "chiral": 5669,
      "Americ": 5670,
      "Ci": 5671,
      "Vi": 5672,
      "coming": 5673,
      "metall": 5674,
      "vartheta": 5675,
      "implementation": 5676,
      "013": 5677,
      "Technology": 5678,
      "113": 5679,
      "uler": 5680,
      "Ann": 5681,
      "aves": 5682,
      "dens": 5683,
      "expressions": 5684,
      "Punct": 5685,
      "cru": 5686,
      "ild": 5687,
      "reve": 5688,
      "icy": 5689,
      "challen": 5690,
      "coherent": 5691,
      "course": 5692,
      "motiv": 5693,
      "highly": 5694,
      "load": 5695,
      "eness": 5696,
      "dent": 5697,
      "protocol": 5698,
      "dust": 5699,
      "making": 5700,
      "2023": 5701,
      "ars": 5702,
      "evidence": 5703,
      "ney": 5704,
      "permu": 5705,
      "stream": 5706,
      "C_2": 5707,
      "Communic": 5708,
      "aka": 5709,
      "stationary": 5710,
      "Letters": 5711,
      "diagrams": 5712,
      "_x": 5713,
      "conveni": 5714,
      "capture": 5715,
      "ify": 5716,
      "exchange": 5717,
      "combined": 5718,
      "cosmological": 5719,
      "explain": 5720,
      "thermo": 5721,
      "Energy": 5722,
      "meter": 5723,
      "109": 5724,
      "max_": 5725,
      "q_1": 5726,
      "except": 5727,
      "temper": 5728,
      "multline": 5729,
      "*}[": 5730,
      "schemes": 5731,
      "MeV": 5732,
      "esian": 5733,
      "\u0001\u0000": 5734,
      "ml": 5735,
      "obvious": 5736,
      "alternative": 5737,
      "extend": 5738,
      "sharp": 5739,
      "relativistic": 5740,
      "lept": 5741,
      "rules": 5742,
      "\\%$": 5743,
      "ordered": 5744,
      "002": 5745,
      "proportional": 5746,
      "}\\;": 5747,
      "setup": 5748,
      "tives": 5749,
      "CL": 5750,
      "chmark": 5751,
      "virt": 5752,
      "HD": 5753,
      "Roy": 5754,
      "densities": 5755,
      "114": 5756,
      "five": 5757,
      "Bigg": 5758,
      "generalization": 5759,
      "entific": 5760,
      "indices": 5761,
      "Nor": 5762,
      "shot": 5763,
      "Kle": 5764,
      "conserv": 5765,
      "behaviour": 5766,
      "ecu": 5767,
      "ich": 5768,
      "sight": 5769,
      ")\\|": 5770,
      "exam": 5771,
      "outer": 5772,
      "unitary": 5773,
      "k_2": 5774,
      "once": 5775,
      "conference": 5776,
      "concer": 5777,
      "years": 5778,
      "approximately": 5779,
      "subf": 5780,
      "turns": 5781,
      "precision": 5782,
      "achi": 5783,
      "propagation": 5784,
      "Lab": 5785,
      "cially": 5786,
      "aug": 5787,
      "v2": 5788,
      "BL": 5789,
      "r_1": 5790,
      "v_2": 5791,
      "Scal": 5792,
      "Dec": 5793,
      "generating": 5794,
      "occ": 5795,
      "!\\": 5796,
      "perfect": 5797,
      "150": 5798,
      "RG": 5799,
      "derivatives": 5800,
      "tel": 5801,
      "gent": 5802,
      "sparse": 5803,
      "Sem": 5804,
      "restriction": 5805,
      "Taylor": 5806,
      "parrow": 5807,
      "tikz": 5808,
      "That": 5809,
      "colo": 5810,
      "kl": 5811,
      "crimin": 5812,
      "detail": 5813,
      "isten": 5814,
      "/},": 5815,
      "cone": 5816,
      "cells": 5817,
      "affine": 5818,
      "typically": 5819,
      "bolic": 5820,
      "suitable": 5821,
      ",...,": 5822,
      "nowled": 5823,
      "David": 5824,
      "worth": 5825,
      "Vari": 5826,
      "sat": 5827,
      "reconstruction": 5828,
      "tient": 5829,
      "select": 5830,
      "dow": 5831,
      "\\\\[": 5832,
      "Yan": 5833,
      "=\\{": 5834,
      "keep": 5835,
      "Rus": 5836,
      "scriptsize": 5837,
      "Hall": 5838,
      "Control": 5839,
      "bc": 5840,
      "orts": 5841,
      "014": 5842,
      "qubit": 5843,
      "varepsilon_": 5844,
      "neutron": 5845,
      "\\:": 5846,
      "lide": 5847,
      "oling": 5848,
      "nical": 5849,
      "Bre": 5850,
      "categories": 5851,
      "contact": 5852,
      "coding": 5853,
      "Ve": 5854,
      "moving": 5855,
      "answer": 5856,
      "Tur": 5857,
      "train": 5858,
      "identification": 5859,
      "configurations": 5860,
      "lecu": 5861,
      "NI": 5862,
      "vin": 5863,
      "photons": 5864,
      "smic": 5865,
      "Fiel": 5866,
      "lig": 5867,
      "freed": 5868,
      "5cm": 5869,
      "Numer": 5870,
      "enko": 5871,
      "chron": 5872,
      "greater": 5873,
      "Tran": 5874,
      "brid": 5875,
      "Observ": 5876,
      "policy": 5877,
      "Europe": 5878,
      "Schmid": 5879,
      "transmission": 5880,
      "Algebra": 5881,
      "Lau": 5882,
      "berger": 5883,
      "evol": 5884,
      "cum": 5885,
      "degenerate": 5886,
      "Pal": 5887,
      "1981": 5888,
      "FFFFFFFFFFFFFFFFFFFFFFFFFFFFFFFF": 5889,
      "ico": 5890,
      "adaptive": 5891,
      ",,": 5892,
      "eigenvalue": 5893,
      "Mil": 5894,
      "Vis": 5895,
      "g_1": 5896,
      "Because": 5897,
      "Wol": 5898,
      "enz": 5899,
      "nan": 5900,
      "gramming": 5901,
      "prob": 5902,
      "jun": 5903,
      "oscill": 5904,
      "tot": 5905,
      "improved": 5906,
      "holes": 5907,
      "collection": 5908,
      "adversarial": 5909,
      "cip": 5910,
      "thanks": 5911,
      "don": 5912,
      "meson": 5913,
      "Lev": 5914,
      "simultaneous": 5915,
      "!!": 5916,
      "trig": 5917,
      "units": 5918,
      "B_1": 5919,
      "116": 5920,
      "slant": 5921,
      "})^{": 5922,
      "tiny": 5923,
      "a_0": 5924,
      "Comput": 5925,
      "*\\": 5926,
      "bright": 5927,
      "rapid": 5928,
      "Image": 5929,
      "renormal": 5930,
      "uparrow": 5931,
      "limin": 5932,
      "sensitive": 5933,
      "3d": 5934,
      "entz": 5935,
      "times10": 5936,
      "Land": 5937,
      "IG": 5938,
      "Ander": 5939,
      "v_i": 5940,
      "f_i": 5941,
      "Dirac": 5942,
      "isomorphic": 5943,
      "Universi": 5944,
      "OR": 5945,
      "Found": 5946,
      "IV": 5947,
      "1979": 5948,
      "freedom": 5949,
      "kowski": 5950,
      "_a": 5951,
      "thing": 5952,
      "drop": 5953,
      "neighb": 5954,
      "elihood": 5955,
      "Planck": 5956,
      "constrained": 5957,
      "products": 5958,
      "ashi": 5959,
      "Some": 5960,
      "=-\\": 5961,
      "paths": 5962,
      "Sum": 5963,
      "Sof": 5964,
      "functor": 5965,
      "jection": 5966,
      "/.": 5967,
      "sube": 5968,
      "\\!\\": 5969,
      "breaking": 5970,
      "$'": 5971,
      "Chang": 5972,
      "suppose": 5973,
      "temperatures": 5974,
      "intermediate": 5975,
      "etti": 5976,
      "conclusion": 5977,
      "operations": 5978,
      "activity": 5979,
      "fying": 5980,
      "\",": 5981,
      "cav": 5982,
      "couplings": 5983,
      "fu": 5984,
      "conditional": 5985,
      "Ly": 5986,
      "erg": 5987,
      "sensitivity": 5988,
      "lication": 5989,
      "inc": 5990,
      "According": 5991,
      "Conclu": 5992,
      "CF": 5993,
      "bands": 5994,
      "longer": 5995,
      "dominant": 5996,
      "utili": 5997,
      "cloud": 5998,
      "tour": 5999,
      "rise": 6000,
      "differenti": 6001,
      "social": 6002,
      "profiles": 6003,
      "NGC": 6004,
      "Symposium": 6005,
      "yl": 6006,
      "cous": 6007,
      "ever": 6008,
      "AGN": 6009,
      "footnotesize": 6010,
      "dal": 6011,
      "ccc": 6012,
      "t_2": 6013,
      "1pt": 6014,
      "frac12": 6015,
      "undefined": 6016,
      "vertical": 6017,
      "BM": 6018,
      "white": 6019,
      "water": 6020,
      "bea": 6021,
      "logies": 6022,
      "@{": 6023,
      "directions": 6024,
      "colhead": 6025,
      "amplitudes": 6026,
      "b_2": 6027,
      "spherical": 6028,
      "cia": 6029,
      "HH": 6030,
      "hist": 6031,
      "reli": 6032,
      "Mer": 6033,
      "molecu": 6034,
      "assign": 6035,
      "Time": 6036,
      "quantity": 6037,
      "bary": 6038,
      "vanishing": 6039,
      "AF": 6040,
      "}/\\": 6041,
      "Adv": 6042,
      "fits": 6043,
      "frequencies": 6044,
      "tization": 6045,
      "indicate": 6046,
      ")=(": 6047,
      "Micha": 6048,
      "kinetic": 6049,
      "IF": 6050,
      "978": 6051,
      "showed": 6052,
      "Other": 6053,
      "attribu": 6054,
      "Gon": 6055,
      "allowed": 6056,
      "unc": 6057,
      "separation": 6058,
      "Willi": 6059,
      "auer": 6060,
      "propag": 6061,
      "kawa": 6062,
      "S_1": 6063,
      "projective": 6064,
      "M_1": 6065,
      "novel": 6066,
      "Based": 6067,
      "Rand": 6068,
      "Cap": 6069,
      "aba": 6070,
      "notion": 6071,
      "introduction": 6072,
      "une": 6073,
      "cities": 6074,
      "uncertainties": 6075,
      "isen": 6076,
      "mate": 6077,
      "}({\\": 6078,
      "Sc": 6079,
      "clustering": 6080,
      "quations": 6081,
      "Chem": 6082,
      "medium": 6083,
      "ital": 6084,
      "straightforward": 6085,
      "signals": 6086,
      "_c": 6087,
      "interface": 6088,
      "NP": 6089,
      "Yo": 6090,
      "Online": 6091,
      "eller": 6092,
      "DBLP": 6093,
      "morphic": 6094,
      "query": 6095,
      "ctic": 6096,
      "horizon": 6097,
      "transformations": 6098,
      "118": 6099,
      "expectation": 6100,
      "intersection": 6101,
      "Space": 6102,
      "posed": 6103,
      "European": 6104,
      "^+$": 6105,
      "demonstrate": 6106,
      "ification": 6107,
      "Lingu": 6108,
      "DC": 6109,
      "trinsic": 6110,
      "X_i": 6111,
      "dominated": 6112,
      "<$": 6113,
      "asser": 6114,
      "u_0": 6115,
      "fier": 6116,
      "null": 6117,
      "Fol": 6118,
      "e_1": 6119,
      "correlated": 6120,
      "includes": 6121,
      "hyperbolic": 6122,
      "2i": 6123,
      "verb": 6124,
      "delay": 6125,
      "r_0": 6126,
      "arri": 6127,
      "cel": 6128,
      "bx": 6129,
      "TJ": 6130,
      "1093": 6131,
      "Berlin": 6132,
      "reduces": 6133,
      "covering": 6134,
      "Notice": 6135,
      "umar": 6136,
      "acts": 6137,
      "laser": 6138,
      "hadron": 6139,
      "Ker": 6140,
      "fold": 6141,
      "Spect": 6142,
      "proxi": 6143,
      "Large": 6144,
      "195": 6145,
      "systematic": 6146,
      "splitting": 6147,
      "dodoi": 6148,
      "elastic": 6149,
      "nual": 6150,
      "\\\\\\": 6151,
      "vier": 6152,
      "American": 6153,
      "HS": 6154,
      "labels": 6155,
      "dashed": 6156,
      "mu_1": 6157,
      "identical": 6158,
      "email": 6159,
      "evaluated": 6160,
      "bd": 6161,
      "previously": 6162,
      "DOI": 6163,
      "needs": 6164,
      "NA": 6165,
      "largest": 6166,
      "Kal": 6167,
      "p_0": 6168,
      "robot": 6169,
      "iro": 6170,
      "izations": 6171,
      "empirical": 6172,
      "Thomas": 6173,
      "attra": 6174,
      "inv": 6175,
      "Statistical": 6176,
      "HE": 6177,
      "score": 6178,
      "Wilson": 6179,
      "ultra": 6180,
      "forming": 6181,
      "ova": 6182,
      "Flu": 6183,
      "converges": 6184,
      "]].": 6185,
      "logari": 6186,
      "primary": 6187,
      "iteration": 6188,
      "aud": 6189,
      "sent": 6190,
      "May": 6191,
      "White": 6192,
      "decreases": 6193,
      "subequations": 6194,
      "likelihood": 6195,
      "012": 6196,
      "feedback": 6197,
      "ening": 6198,
      "ZZ": 6199,
      "hot": 6200,
      "hfill": 6201,
      "former": 6202,
      "Jones": 6203,
      "eV": 6204,
      "regar": 6205,
      "avoid": 6206,
      "Series": 6207,
      "abelian": 6208,
      "collisions": 6209,
      "espe": 6210,
      "switch": 6211,
      "varying": 6212,
      "deviation": 6213,
      "dissi": 6214,
      "tail": 6215,
      "web": 6216,
      ")>": 6217,
      "ona": 6218,
      "induction": 6219,
      "thank": 6220,
      "eea": 6221,
      "codes": 6222,
      "rect": 6223,
      "interpretation": 6224,
      "BP": 6225,
      "hic": 6226,
      "GW": 6227,
      "Peter": 6228,
      "crete": 6229,
      "charged": 6230,
      "meaning": 6231,
      "dz": 6232,
      "similarity": 6233,
      "CNN": 6234,
      "domains": 6235,
      "Wit": 6236,
      "PhysRevB": 6237,
      "modular": 6238,
      "Linguistics": 6239,
      "six": 6240,
      "actually": 6241,
      "duality": 6242,
      "elli": 6243,
      "Chap": 6244,
      "yield": 6245,
      "Jiang": 6246,
      "patterns": 6247,
      "zzi": 6248,
      "divis": 6249,
      "aps": 6250,
      "residual": 6251,
      "SIAM": 6252,
      "discrimin": 6253,
      "fair": 6254,
      "Pas": 6255,
      "n_2": 6256,
      "lef": 6257,
      "achiev": 6258,
      "update": 6259,
      "consisten": 6260,
      "Group": 6261,
      "2p": 6262,
      "KK": 6263,
      "iting": 6264,
      "l_1": 6265,
      "inver": 6266,
      "Carlo": 6267,
      "}>": 6268,
      "especially": 6269,
      "TT": 6270,
      "equalities": 6271,
      "Bigl": 6272,
      "semantic": 6273,
      "az": 6274,
      "stit": 6275,
      "pie": 6276,
      "benchmark": 6277,
      "Monte": 6278,
      "adjoint": 6279,
      "SV": 6280,
      "decreasing": 6281,
      "variations": 6282,
      "acy": 6283,
      "1977": 6284,
      "theless": 6285,
      "mits": 6286,
      "Gen": 6287,
      "mess": 6288,
      "m_2": 6289,
      "von": 6290,
      "dio": 6291,
      "port": 6292,
      "gers": 6293,
      "Box": 6294,
      "BE": 6295,
      "finitions": 6296,
      "Bigr": 6297,
      "Sen": 6298,
      "Hel": 6299,
      "sector": 6300,
      "Mur": 6301,
      "lam": 6302,
      "RE": 6303,
      "ontal": 6304,
      "stan": 6305,
      "126": 6306,
      "Guo": 6307,
      "Tu": 6308,
      "until": 6309,
      "issue": 6310,
      "Log": 6311,
      "report": 6312,
      "possibility": 6313,
      "cavity": 6314,
      "textcolor": 6315,
      "s_i": 6316,
      "stress": 6317,
      "Brown": 6318,
      "away": 6319,
      "arguments": 6320,
      "overset": 6321,
      "electronic": 6322,
      "Far": 6323,
      "_r": 6324,
      "calcul": 6325,
      "015": 6326,
      "desc": 6327,
      "restricted": 6328,
      "Sz": 6329,
      "qc": 6330,
      "located": 6331,
      "124": 6332,
      "reads": 6333,
      "integrated": 6334,
      "happ": 6335,
      "bative": 6336,
      "rable": 6337,
      "orders": 6338,
      "022": 6339,
      "unknown": 6340,
      ")}$.": 6341,
      "}})\\": 6342,
      "Michael": 6343,
      "TeV": 6344,
      "plasma": 6345,
      "explained": 6346,
      "RS": 6347,
      "127": 6348,
      "Stru": 6349,
      "ensemble": 6350,
      "cline": 6351,
      "added": 6352,
      "imply": 6353,
      "integrals": 6354,
      "Ag": 6355,
      "stretch": 6356,
      "strictly": 6357,
      "&+": 6358,
      "notice": 6359,
      "H_0": 6360,
      "Ram": 6361,
      "itter": 6362,
      "treatment": 6363,
      "lr": 6364,
      "Hal": 6365,
      "Bri": 6366,
      "t_i": 6367,
      "stabili": 6368,
      "crystal": 6369,
      "parent": 6370,
      "ux": 6371,
      "T_1": 6372,
      "_N": 6373,
      "1978": 6374,
      "renew": 6375,
      "orbits": 6376,
      "Cher": 6377,
      "trees": 6378,
      "corpor": 6379,
      "predict": 6380,
      "beled": 6381,
      "testing": 6382,
      "icz": 6383,
      "_q": 6384,
      "idden": 6385,
      "forcement": 6386,
      "([": 6387,
      "development": 6388,
      "sively": 6389,
      "Ric": 6390,
      "f_2": 6391,
      "consistency": 6392,
      "d_1": 6393,
      "CE": 6394,
      "ceil": 6395,
      "decays": 6396,
      "heter": 6397,
      "cohomology": 6398,
      "inal": 6399,
      "labor": 6400,
      "{|\\": 6401,
      "y_i": 6402,
      "Euc": 6403,
      "suggests": 6404,
      "1cm": 6405,
      "ech": 6406,
      "shop": 6407,
      "mand": 6408,
      "u_2": 6409,
      "going": 6410,
      "ferro": 6411,
      "references": 6412,
      "chro": 6413,
      "necessarily": 6414,
      "PA": 6415,
      "ratios": 6416,
      "relaxation": 6417,
      "L_1": 6418,
      "highest": 6419,
      "Shen": 6420,
      "cA": 6421,
      "ions": 6422,
      "essentially": 6423,
      "defn": 6424,
      "lift": 6425,
      "LHC": 6426,
      "sizes": 6427,
      "weakly": 6428,
      "finitely": 6429,
      "ston": 6430,
      "baseline": 6431,
      "Classi": 6432,
      "Stra": 6433,
      "Var": 6434,
      "tuning": 6435,
      "materials": 6436,
      "mption": 6437,
      "Speci": 6438,
      "dig": 6439,
      "Ack": 6440,
      "wers": 6441,
      "synthe": 6442,
      "citealt": 6443,
      "analogous": 6444,
      "135": 6445,
      "recur": 6446,
      "x_k": 6447,
      "rays": 6448,
      "spacetime": 6449,
      "1D": 6450,
      "keV": 6451,
      "covariance": 6452,
      ")}$,": 6453,
      "pulse": 6454,
      "blocks": 6455,
      "}{*}{": 6456,
      "trajectory": 6457,
      "generators": 6458,
      "estimator": 6459,
      "hed": 6460,
      "burst": 6461,
      "Gao": 6462,
      "MT": 6463,
      "Bol": 6464,
      "prog": 6465,
      "planet": 6466,
      "potentials": 6467,
      "TJm": 6468,
      "mentary": 6469,
      "seems": 6470,
      "urally": 6471,
      "referred": 6472,
      "ret": 6473,
      "{-}": 6474,
      "b_i": 6475,
      "solved": 6476,
      "zeta_": 6477,
      "Red": 6478,
      "1976": 6479,
      "kins": 6480,
      "Blo": 6481,
      "brief": 6482,
      "labeled": 6483,
      "h_1": 6484,
      "shock": 6485,
      "H_1": 6486,
      "outside": 6487,
      "lidean": 6488,
      "004": 6489,
      "aj": 6490,
      "BA": 6491,
      "yet": 6492,
      "neutral": 6493,
      "acity": 6494,
      "roun": 6495,
      "scenarios": 6496,
      "holomorphic": 6497,
      "integers": 6498,
      "Hop": 6499,
      "Markov": 6500,
      "vv": 6501,
      "016": 6502,
      "Lang": 6503,
      "inforcement": 6504,
      "SF": 6505,
      "upon": 6506,
      "replace": 6507,
      "tens": 6508,
      "Sel": 6509,
      "inclusion": 6510,
      "universe": 6511,
      "aum": 6512,
      "ville": 6513,
      "serve": 6514,
      "perturbative": 6515,
      "005": 6516,
      "invariance": 6517,
      "principal": 6518,
      "cid": 6519,
      "variational": 6520,
      "earlier": 6521,
      "feasi": 6522,
      "perturbations": 6523,
      "HT": 6524,
      "compatible": 6525,
      "kel": 6526,
      "]=": 6527,
      "alpha_2": 6528,
      "Lect": 6529,
      "Another": 6530,
      "Lond": 6531,
      "quid": 6532,
      "autom": 6533,
      "121": 6534,
      "defines": 6535,
      "|=": 6536,
      "stackrel": 6537,
      "Rich": 6538,
      "Proble": 6539,
      "mir": 6540,
      "verify": 6541,
      "angles": 6542,
      "lowest": 6543,
      "Language": 6544,
      "inser": 6545,
      "transmit": 6546,
      "Both": 6547,
      "256": 6548,
      "did": 6549,
      "front": 6550,
      "enhance": 6551,
      "Lorentz": 6552,
      "bach": 6553,
      "excitation": 6554,
      "ade": 6555,
      "bigskip": 6556,
      "kind": 6557,
      "addi": 6558,
      "aim": 6559,
      "Intelligence": 6560,
      "Bru": 6561,
      "notdef": 6562,
      "Cat": 6563,
      "PL": 6564,
      "ditional": 6565,
      "----": 6566,
      "BN": 6567,
      "129": 6568,
      "'}\\": 6569,
      "jan": 6570,
      "2cm": 6571,
      "u_i": 6572,
      "fall": 6573,
      "spec": 6574,
      "inos": 6575,
      "g_2": 6576,
      "cas": 6577,
      "PI": 6578,
      "_T": 6579,
      "wind": 6580,
      "interacting": 6581,
      "HI": 6582,
      "assess": 6583,
      "investigated": 6584,
      "z_2": 6585,
      "agents": 6586,
      "tempurl": 6587,
      "showing": 6588,
      "aux": 6589,
      "execu": 6590,
      "localization": 6591,
      "nodata": 6592,
      "_A": 6593,
      "Gri": 6594,
      "Comple": 6595,
      "generator": 6596,
      "133": 6597,
      "parametric": 6598,
      "n_0": 6599,
      "diam": 6600,
      ".\\,": 6601,
      "prod": 6602,
      "ched": 6603,
      "Statistics": 6604,
      "ask": 6605,
      "definitions": 6606,
      "Ze": 6607,
      "purpose": 6608,
      "Fix": 6609,
      "Mad": 6610,
      "odo": 6611,
      "occup": 6612,
      "polation": 6613,
      "simplicity": 6614,
      "Newton": 6615,
      "warf": 6616,
      "ON": 6617,
      "Commun": 6618,
      "access": 6619,
      "importance": 6620,
      "1086": 6621,
      "lm": 6622,
      "mathematical": 6623,
      "counting": 6624,
      "vanishes": 6625,
      "mmer": 6626,
      "deformation": 6627,
      "orientation": 6628,
      "dif": 6629,
      "122": 6630,
      "Over": 6631,
      "Sm": 6632,
      "life": 6633,
      "Mechan": 6634,
      "trunc": 6635,
      "affect": 6636,
      "_L": 6637,
      "quali": 6638,
      "topy": 6639,
      "infin": 6640,
      "=(\\": 6641,
      "'$.": 6642,
      "disjoint": 6643,
      "uchi": 6644,
      "logarithm": 6645,
      "eg": 6646,
      "tible": 6647,
      "}~\\": 6648,
      "Rod": 6649,
      "ica": 6650,
      "2s": 6651,
      "vacy": 6652,
      "recor": 6653,
      "})=\\": 6654,
      "ls": 6655,
      "normalization": 6656,
      "Repres": 6657,
      "reaction": 6658,
      "chy": 6659,
      "trightarrow": 6660,
      "~{\\": 6661,
      "Sou": 6662,
      "poch": 6663,
      "inflation": 6664,
      "distances": 6665,
      "describes": 6666,
      "window": 6667,
      "infra": 6668,
      "Gil": 6669,
      "GG": 6670,
      "mesh": 6671,
      "analyze": 6672,
      "union": 6673,
      "Cheng": 6674,
      "zen": 6675,
      "idel": 6676,
      "Ray": 6677,
      "ku": 6678,
      "atmo": 6679,
      "KL": 6680,
      "simulated": 6681,
      "involving": 6682,
      "characterized": 6683,
      "Communications": 6684,
      "Johnson": 6685,
      "software": 6686,
      ")|\\": 6687,
      "candidate": 6688,
      "Struct": 6689,
      "Astronomy": 6690,
      "lice": 6691,
      "ameter": 6692,
      "yama": 6693,
      "varrho": 6694,
      "notin": 6695,
      "lots": 6696,
      "$[\\": 6697,
      "Due": 6698,
      "Xiao": 6699,
      "Bio": 6700,
      "{\\{": 6701,
      "prote": 6702,
      "F_1": 6703,
      "2r": 6704,
      "Che": 6705,
      "etc": 6706,
      "Simon": 6707,
      "pes": 6708,
      "condens": 6709,
      "China": 6710,
      "Rad": 6711,
      "sites": 6712,
      "Je": 6713,
      "deal": 6714,
      "STD": 6715,
      "moments": 6716,
      "imaging": 6717,
      "Sym": 6718,
      "Ter": 6719,
      "ule": 6720,
      "wire": 6721,
      "similarly": 6722,
      "parity": 6723,
      "_b": 6724,
      "je": 6725,
      "continuity": 6726,
      "145": 6727,
      "fermion": 6728,
      "contradiction": 6729,
      "Sco": 6730,
      "Wat": 6731,
      "graded": 6732,
      "pin": 6733,
      "edi": 6734,
      "posite": 6735,
      "lowing": 6736,
      "Network": 6737,
      "Type": 6738,
      "ign": 6739,
      "entries": 6740,
      "derivation": 6741,
      "lates": 6742,
      "plays": 6743,
      "metal": 6744,
      "fermions": 6745,
      "Euler": 6746,
      "Song": 6747,
      "wan": 6748,
      "]^{": 6749,
      "suring": 6750,
      "relationship": 6751,
      "zu": 6752,
      "Acade": 6753,
      "fractional": 6754,
      "Networks": 6755,
      "opposite": 6756,
      "\\;\\": 6757,
      "proceed": 6758,
      "mig": 6759,
      "intrinsic": 6760,
      "enn": 6761,
      "div": 6762,
      "advantage": 6763,
      "cosmic": 6764,
      "fal": 6765,
      "psch": 6766,
      "infinity": 6767,
      "hidden": 6768,
      "FP": 6769,
      "King": 6770,
      "155": 6771,
      "e_i": 6772,
      "bk": 6773,
      "minipage": 6774,
      "189": 6775,
      "Kon": 6776,
      ",{\\": 6777,
      "running": 6778,
      "Signal": 6779,
      "practice": 6780,
      "symmetries": 6781,
      "PO": 6782,
      "cycles": 6783,
      "ches": 6784,
      "practical": 6785,
      "adjac": 6786,
      "secondoftwo": 6787,
      "want": 6788,
      "gments": 6789,
      "bble": 6790,
      "leftarrow": 6791,
      "implemented": 6792,
      "adding": 6793,
      "]{\\@": 6794,
      "nd": 6795,
      "Ev": 6796,
      "chel": 6797,
      "established": 6798,
      "dle": 6799,
      "MI": 6800,
      "pg": 6801,
      "probabilities": 6802,
      "(|": 6803,
      "_R": 6804,
      "inequalities": 6805,
      "quotient": 6806,
      "adv": 6807,
      "capacity": 6808,
      "[->": 6809,
      "Consequently": 6810,
      "Ear": 6811,
      ")}=": 6812,
      "gov": 6813,
      "neighborhood": 6814,
      "immediately": 6815,
      "mac": 6816,
      "024": 6817,
      "FE": 6818,
      "zo": 6819,
      "performs": 6820,
      "coherence": 6821,
      "bp": 6822,
      "CN": 6823,
      "FL": 6824,
      "retri": 6825,
      "mel": 6826,
      "k_0": 6827,
      "vdots": 6828,
      "$=": 6829,
      "Cy": 6830,
      "Der": 6831,
      "s_0": 6832,
      "kk": 6833,
      "Annual": 6834,
      "criterion": 6835,
      "Mel": 6836,
      "ship": 6837,
      "horizontal": 6838,
      "1038": 6839,
      "tests": 6840,
      "Lapla": 6841,
      "virtual": 6842,
      "{\\'{": 6843,
      "_h": 6844,
      "A_2": 6845,
      "particularly": 6846,
      "produces": 6847,
      "patch": 6848,
      "mainly": 6849,
      "eech": 6850,
      "catalog": 6851,
      "j_1": 6852,
      "jump": 6853,
      "pschitz": 6854,
      "cke": 6855,
      "taf": 6856,
      "cam": 6857,
      "linearly": 6858,
      "Conf": 6859,
      "epoch": 6860,
      "shor": 6861,
      "deduce": 6862,
      "Define": 6863,
      "calibration": 6864,
      "omi": 6865,
      "zhang": 6866,
      "exponent": 6867,
      "136": 6868,
      "alpha_i": 6869,
      ".(\\": 6870,
      "moder": 6871,
      "nov": 6872,
      "rent": 6873,
      "risk": 6874,
      "dom": 6875,
      "V_1": 6876,
      "w_1": 6877,
      "Bell": 6878,
      "round": 6879,
      "AdS": 6880,
      "AE": 6881,
      "BR": 6882,
      "analytical": 6883,
      "bene": 6884,
      "Kol": 6885,
      "torus": 6886,
      "wen": 6887,
      "Add": 6888,
      "dwarf": 6889,
      "pop": 6890,
      "pos": 6891,
      "Kor": 6892,
      "}<": 6893,
      "counts": 6894,
      "v_0": 6895,
      "nl": 6896,
      "147": 6897,
      "composed": 6898,
      "backslash": 6899,
      "conom": 6900,
      "]{}": 6901,
      "1974": 6902,
      "liquid": 6903,
      "Lei": 6904,
      "}&\\": 6905,
      "DP": 6906,
      "1975": 6907,
      "Bayesian": 6908,
      "DS": 6909,
      "ames": 6910,
      "summary": 6911,
      "Cref": 6912,
      "conductivity": 6913,
      "Numerical": 6914,
      "moduli": 6915,
      "qualitative": 6916,
      "formulas": 6917,
      "subsets": 6918,
      "quarks": 6919,
      "stor": 6920,
      "sn": 6921,
      "RO": 6922,
      "geode": 6923,
      "subfig": 6924,
      "L_2": 6925,
      "Pra": 6926,
      "ISS": 6927,
      "Local": 6928,
      "Gold": 6929,
      "Tang": 6930,
      "\\}}": 6931,
      "mask": 6932,
      "Euclidean": 6933,
      "Upsilon": 6934,
      "Dav": 6935,
      "Don": 6936,
      "min_": 6937,
      "comparable": 6938,
      "Cau": 6939,
      "r_i": 6940,
      "gue": 6941,
      "180": 6942,
      "ym": 6943,
      "phon": 6944,
      "_S": 6945,
      "directed": 6946,
      "ial": 6947,
      "Schmidt": 6948,
      "duals": 6949,
      "tracking": 6950,
      "spread": 6951,
      "implicit": 6952,
      "suggest": 6953,
      "P_1": 6954,
      "a_n": 6955,
      "ago": 6956,
      "'$,": 6957,
      "lest": 6958,
      "database": 6959,
      "sigma_1": 6960,
      "trajectories": 6961,
      "rup": 6962,
      "increased": 6963,
      "realistic": 6964,
      "Hart": 6965,
      "speech": 6966,
      "cyclic": 6967,
      "tangent": 6968,
      "Qi": 6969,
      "poster": 6970,
      "enote": 6971,
      "atorial": 6972,
      "scope": 6973,
      "London": 6974,
      "ire": 6975,
      "renewcommand": 6976,
      "vehic": 6977,
      "replaced": 6978,
      "ped": 6979,
      "strng": 6980,
      "veri": 6981,
      "Bla": 6982,
      "Clar": 6983,
      "Scientific": 6984,
      "questions": 6985,
      "indu": 6986,
      "urity": 6987,
      "doc": 6988,
      "parametri": 6989,
      "neglig": 6990,
      "q_2": 6991,
      "intervals": 6992,
      "rror": 6993,
      "naturally": 6994,
      "interested": 6995,
      "Star": 6996,
      "nois": 6997,
      "s_2": 6998,
      "205": 6999,
      "637": 7000,
      "ado": 7001,
      "entations": 7002,
      "pher": 7003,
      "ases": 7004,
      "BIBentryALTinterwordspacing": 7005,
      "randomly": 7006,
      "1973": 7007,
      "BIBentrySTD": 7008,
      "BIBentrySTDinterwordspacing": 7009,
      "defining": 7010,
      "z_0": 7011,
      "bigcup_": 7012,
      "Part": 7013,
      "},}\\": 7014,
      "')$": 7015,
      "formalism": 7016,
      "Specifically": 7017,
      "substack": 7018,
      "contro": 7019,
      "instant": 7020,
      "poles": 7021,
      "extracted": 7022,
      "contour": 7023,
      "Center": 7024,
      "_X": 7025,
      "ources": 7026,
      "Step": 7027,
      "structural": 7028,
      "$\\|": 7029,
      "Scho": 7030,
      "ours": 7031,
      "acti": 7032,
      "isotropy": 7033,
      "modal": 7034,
      "ath": 7035,
      "consisting": 7036,
      "fications": 7037,
      "changing": 7038,
      "APACref": 7039,
      "zy": 7040,
      "alth": 7041,
      "357": 7042,
      "reflect": 7043,
      "SY": 7044,
      "crucial": 7045,
      "Tf": 7046,
      "Mid": 7047,
      "ularities": 7048,
      "137": 7049,
      "mechanical": 7050,
      "ister": 7051,
      "156": 7052,
      "possibly": 7053,
      "Aut": 7054,
      "superconduct": 7055,
      "nonzero": 7056,
      "interior": 7057,
      "wr": 7058,
      "Sw": 7059,
      "}}=\\": 7060,
      "tron": 7061,
      "characteristics": 7062,
      "changed": 7063,
      "GS": 7064,
      "closure": 7065,
      "iton": 7066,
      "regularization": 7067,
      "y_2": 7068,
      "incorpor": 7069,
      "636": 7070,
      "^{[": 7071,
      "interference": 7072,
      "Poly": 7073,
      "explore": 7074,
      "AU": 7075,
      "Tri": 7076,
      "species": 7077,
      "n_i": 7078,
      "osing": 7079,
      "Fan": 7080,
      "carried": 7081,
      "obs": 7082,
      "displaymath": 7083,
      "Tre": 7084,
      "hybrid": 7085,
      "$--": 7086,
      "A_i": 7087,
      "morph": 7088,
      "atelli": 7089,
      "$.}": 7090,
      "suffices": 7091,
      "narrow": 7092,
      "Zheng": 7093,
      "Kir": 7094,
      "lambda_2": 7095,
      "Gonz": 7096,
      "hit": 7097,
      "decor": 7098,
      "><": 7099,
      "comparing": 7100,
      "tend": 7101,
      "MF": 7102,
      "planar": 7103,
      "strategies": 7104,
      "conventional": 7105,
      "fg": 7106,
      "eting": 7107,
      "Following": 7108,
      "slope": 7109,
      "correspondence": 7110,
      "LE": 7111,
      "absence": 7112,
      "andra": 7113,
      "geodesic": 7114,
      "rev": 7115,
      "ardi": 7116,
      "activ": 7117,
      "bilistic": 7118,
      "dies": 7119,
      "constitu": 7120,
      "{\\`": 7121,
      "numerically": 7122,
      "Electron": 7123,
      "Verlag": 7124,
      "great": 7125,
      "x_3": 7126,
      ")|^": 7127,
      "vertheless": 7128,
      "KS": 7129,
      "Astrophys": 7130,
      "lambda_i": 7131,
      "Py": 7132,
      "1109": 7133,
      "Young": 7134,
      "Back": 7135,
      "figures": 7136,
      "nuclei": 7137,
      "Dev": 7138,
      "forces": 7139,
      "card": 7140,
      "steady": 7141,
      "C_0": 7142,
      "runs": 7143,
      "Om": 7144,
      "@{}": 7145,
      "lou": 7146,
      "resolved": 7147,
      "eh": 7148,
      "175": 7149,
      "shear": 7150,
      "}$\\": 7151,
      "specified": 7152,
      "Mea": 7153,
      ")\\,\\": 7154,
      "Eng": 7155,
      "^+\\": 7156,
      "BT": 7157,
      "^{*}": 7158,
      "Physi": 7159,
      "tier": 7160,
      "oulos": 7161,
      "partial_t": 7162,
      "Field": 7163,
      "035": 7164,
      "isi": 7165,
      "others": 7166,
      "embedded": 7167,
      "+}": 7168,
      "designed": 7169,
      "Wor": 7170,
      "respective": 7171,
      "ske": 7172,
      "lective": 7173,
      "strates": 7174,
      "tility": 7175,
      "f_0": 7176,
      "papers": 7177,
      "anno": 7178,
      "Ur": 7179,
      "reveal": 7180,
      "noted": 7181,
      "tio": 7182,
      "enable": 7183,
      "rows": 7184,
      "Name": 7185,
      "tight": 7186,
      "][": 7187,
      "otic": 7188,
      "extract": 7189,
      "mplectic": 7190,
      "nano": 7191,
      "mechanics": 7192,
      "Notes": 7193,
      "fail": 7194,
      "smal": 7195,
      "Anderson": 7196,
      "goes": 7197,
      "devices": 7198,
      "visible": 7199,
      "nol": 7200,
      "T_0": 7201,
      "mov": 7202,
      "Top": 7203,
      "explan": 7204,
      "driving": 7205,
      "058": 7206,
      "otimes_": 7207,
      "upta": 7208,
      "actual": 7209,
      "abundance": 7210,
      "averaged": 7211,
      "Cra": 7212,
      "lla": 7213,
      "cn": 7214,
      "fle": 7215,
      "demonstrated": 7216,
      "attemp": 7217,
      "139": 7218,
      "Linear": 7219,
      "XX": 7220,
      "Out": 7221,
      "tup": 7222,
      "rin": 7223,
      "ching": 7224,
      "fl": 7225,
      "deterministic": 7226,
      "divergence": 7227,
      "partially": 7228,
      "cript": 7229,
      "cht": 7230,
      "pi_1": 7231,
      "Models": 7232,
      "$};": 7233,
      "din": 7234,
      "Distribu": 7235,
      "brane": 7236,
      "velocities": 7237,
      "vp": 7238,
      "nova": 7239,
      "BER": 7240,
      "pass": 7241,
      "apjl": 7242,
      "Glo": 7243,
      "Universit": 7244,
      "Workshop": 7245,
      "causal": 7246,
      ")).": 7247,
      "Low": 7248,
      "Wen": 7249,
      "ille": 7250,
      "Available": 7251,
      "Rightarrow": 7252,
      "Bas": 7253,
      "gamma_1": 7254,
      "file": 7255,
      "154": 7256,
      "Bul": 7257,
      "'(\\": 7258,
      "Oper": 7259,
      "oting": 7260,
      "140": 7261,
      "Lipschitz": 7262,
      "warz": 7263,
      "electromagnetic": 7264,
      "5pt": 7265,
      "Ran": 7266,
      "negligible": 7267,
      "quantitative": 7268,
      "nearly": 7269,
      "keywords": 7270,
      "induces": 7271,
      "opt": 7272,
      "Mass": 7273,
      "satura": 7274,
      "subfigure": 7275,
      "convolution": 7276,
      "_l": 7277,
      "017": 7278,
      "'}$": 7279,
      "complic": 7280,
      "})-": 7281,
      "m_0": 7282,
      "Artificial": 7283,
      "R_1": 7284,
      "arise": 7285,
      "165": 7286,
      "underset": 7287,
      "tikzpicture": 7288,
      "Esti": 7289,
      "published": 7290,
      "circular": 7291,
      "maximi": 7292,
      "simultaneously": 7293,
      "offer": 7294,
      "144": 7295,
      "007": 7296,
      "separated": 7297,
      "oscillations": 7298,
      "Bin": 7299,
      "Cohen": 7300,
      "idal": 7301,
      "006": 7302,
      "topic": 7303,
      "Fis": 7304,
      "conservation": 7305,
      "cra": 7306,
      "Nak": 7307,
      "Jun": 7308,
      "{.}(": 7309,
      "Black": 7310,
      "025": 7311,
      "\\/": 7312,
      "preserving": 7313,
      "involved": 7314,
      "reasonable": 7315,
      "Clear": 7316,
      "lfloor": 7317,
      "}))": 7318,
      "etz": 7319,
      "aro": 7320,
      "026": 7321,
      "illustrated": 7322,
      "batch": 7323,
      "ea": 7324,
      "knot": 7325,
      "Stein": 7326,
      "Sand": 7327,
      "LM": 7328,
      "synthesis": 7329,
      "alignment": 7330,
      "chains": 7331,
      "ws": 7332,
      "instability": 7333,
      "discretionary": 7334,
      "stood": 7335,
      "spective": 7336,
      "Ox": 7337,
      "Jen": 7338,
      "bile": 7339,
      "fnm": 7340,
      "138": 7341,
      "aly": 7342,
      "oriented": 7343,
      "mechanisms": 7344,
      "puls": 7345,
      "jee": 7346,
      "iterative": 7347,
      "Dong": 7348,
      "izes": 7349,
      "leqslant": 7350,
      "Camp": 7351,
      "png": 7352,
      "invariants": 7353,
      "_d": 7354,
      "M_2": 7355,
      "rfloor": 7356,
      "observables": 7357,
      "theta_1": 7358,
      "lapse": 7359,
      "Real": 7360,
      ")}^": 7361,
      "roots": 7362,
      "enon": 7363,
      "reflection": 7364,
      "2a": 7365,
      "crossing": 7366,
      "uv": 7367,
      "pf": 7368,
      "Dou": 7369,
      "Mic": 7370,
      "ordering": 7371,
      "eds": 7372,
      "Fel": 7373,
      "homotopy": 7374,
      "probe": 7375,
      "definite": 7376,
      "cancel": 7377,
      "smallest": 7378,
      "depic": 7379,
      "why": 7380,
      "ATE": 7381,
      "understood": 7382,
      "member": 7383,
      "r_2": 7384,
      "=&": 7385,
      "Mol": 7386,
      "separate": 7387,
      "\\@@": 7388,
      "circuit": 7389,
      "Bir": 7390,
      "acknowled": 7391,
      "annian": 7392,
      "Refs": 7393,
      "FW": 7394,
      "130": 7395,
      "Pap": 7396,
      "roscopy": 7397,
      "LAS": 7398,
      "')\\": 7399,
      "Jacobi": 7400,
      "integrable": 7401,
      "Yuan": 7402,
      "confidence": 7403,
      "Stan": 7404,
      "EW": 7405,
      ".,}{{": 7406,
      "Shap": 7407,
      "encoder": 7408,
      "800": 7409,
      "Va": 7410,
      "'=": 7411,
      "singularities": 7412,
      "}}},\\": 7413,
      "Theoretical": 7414,
      "acceleration": 7415,
      "subtra": 7416,
      "followed": 7417,
      "{**": 7418,
      "eve": 7419,
      "attack": 7420,
      "umann": 7421,
      "instr": 7422,
      "rec": 7423,
      "reader": 7424,
      "E_1": 7425,
      "Oh": 7426,
      "teness": 7427,
      "admits": 7428,
      "gates": 7429,
      "Labor": 7430,
      "prints": 7431,
      "metallicity": 7432,
      "ues": 7433,
      "sg": 7434,
      "discussions": 7435,
      "fan": 7436,
      "}),\\": 7437,
      "localized": 7438,
      "}|^": 7439,
      "unstable": 7440,
      "parab": 7441,
      "embeddings": 7442,
      "whenever": 7443,
      "little": 7444,
      "prece": 7445,
      "xrightarrow": 7446,
      "xs": 7447,
      "reinforcement": 7448,
      "Hill": 7449,
      "m_i": 7450,
      "trip": 7451,
      "semic": 7452,
      "stronger": 7453,
      "demand": 7454,
      "emit": 7455,
      "said": 7456,
      "controlled": 7457,
      "027": 7458,
      "enhanced": 7459,
      "ordan": 7460,
      "):=\\": 7461,
      "z_i": 7462,
      "kpc": 7463,
      "faster": 7464,
      "occurr": 7465,
      "))$.": 7466,
      "234": 7467,
      "generality": 7468,
      "$-\\": 7469,
      "383": 7470,
      "dipole": 7471,
      "loops": 7472,
      "substitu": 7473,
      "regularity": 7474,
      "HM": 7475,
      "lass": 7476,
      "programming": 7477,
      "153": 7478,
      "iff": 7479,
      "stat": 7480,
      "Clearly": 7481,
      "OT": 7482,
      "203": 7483,
      "sov": 7484,
      "icient": 7485,
      "columns": 7486,
      "Oli": 7487,
      "eda": 7488,
      "Good": 7489,
      "eman": 7490,
      "Equations": 7491,
      "tos": 7492,
      "{\\'\\": 7493,
      "cooling": 7494,
      "RI": 7495,
      "ÿÿÿÿÿÿÿÿÿÿÿÿÿÿÿÿ": 7496,
      "bn": 7497,
      "rez": 7498,
      "LA": 7499,
      "c_0": 7500,
      "G_1": 7501,
      "Spin": 7502,
      "grant": 7503,
      "multiplication": 7504,
      "Dep": 7505,
      "belongs": 7506,
      "erts": 7507,
      "elimin": 7508,
      "143": 7509,
      "volution": 7510,
      "concentration": 7511,
      "finally": 7512,
      "149": 7513,
      "usti": 7514,
      "Pat": 7515,
      "improvement": 7516,
      "beging": 7517,
      "adopted": 7518,
      "begingroup": 7519,
      "device": 7520,
      "011": 7521,
      "Wa": 7522,
      "variate": 7523,
      "latent": 7524,
      "suggested": 7525,
      "Has": 7526,
      "_v": 7527,
      "logic": 7528,
      "past": 7529,
      "excited": 7530,
      "feasible": 7531,
      "c_i": 7532,
      "2pt": 7533,
      "nikov": 7534,
      "AV": 7535,
      "community": 7536,
      "Matter": 7537,
      "spheric": 7538,
      "Bbb": 7539,
      "stated": 7540,
      "mura": 7541,
      "morphisms": 7542,
      "burg": 7543,
      "instances": 7544,
      "manner": 7545,
      "altaf": 7546,
      "beta_1": 7547,
      "employed": 7548,
      "deco": 7549,
      "ordinary": 7550,
      "War": 7551,
      "liu": 7552,
      "pies": 7553,
      "additive": 7554,
      "links": 7555,
      "conclusions": 7556,
      "eties": 7557,
      "Miller": 7558,
      "CG": 7559,
      "ost": 7560,
      "elementary": 7561,
      "ison": 7562,
      "fusion": 7563,
      "2N": 7564,
      "CB": 7565,
      "Chu": 7566,
      "plat": 7567,
      "Natural": 7568,
      "134": 7569,
      "truth": 7570,
      "damp": 7571,
      "RF": 7572,
      "recomm": 7573,
      "roughly": 7574,
      "synchron": 7575,
      "',\\": 7576,
      "sequent": 7577,
      "choices": 7578,
      "wart": 7579,
      "inson": 7580,
      "Hay": 7581,
      "itt": 7582,
      "131": 7583,
      "jec": 7584,
      "plots": 7585,
      "jets": 7586,
      "Feng": 7587,
      "rever": 7588,
      "locations": 7589,
      "_B": 7590,
      "candidates": 7591,
      "ishi": 7592,
      "Schwarz": 7593,
      "eti": 7594,
      "Class": 7595,
      "rg": 7596,
      "inputs": 7597,
      "imagin": 7598,
      "Bai": 7599,
      "homomorphism": 7600,
      "217": 7601,
      "bv": 7602,
      "dated": 7603,
      "216": 7604,
      "Williams": 7605,
      "UT": 7606,
      "Galactic": 7607,
      "overlap": 7608,
      "S_2": 7609,
      "cale": 7610,
      "extensions": 7611,
      "symplectic": 7612,
      "_F": 7613,
      "Eur": 7614,
      "Liang": 7615,
      "K_1": 7616,
      "X_0": 7617,
      "giving": 7618,
      "contribute": 7619,
      "involves": 7620,
      "Chan": 7621,
      "ditionally": 7622,
      "infrared": 7623,
      "lad": 7624,
      "Weyl": 7625,
      "torsion": 7626,
      "SNR": 7627,
      "veys": 7628,
      "exhibit": 7629,
      "}(-": 7630,
      "Annal": 7631,
      "omorphism": 7632,
      "Dun": 7633,
      "validation": 7634,
      "false": 7635,
      "Coulo": 7636,
      ")/\\": 7637,
      "}\\/},": 7638,
      "a_j": 7639,
      "pel": 7640,
      "ISSN": 7641,
      "tures": 7642,
      "pd": 7643,
      "255": 7644,
      "Even": 7645,
      "}}+\\": 7646,
      "satelli": 7647,
      "ogene": 7648,
      "Klein": 7649,
      "gray": 7650,
      "2mm": 7651,
      "}{}{": 7652,
      "146": 7653,
      "Tar": 7654,
      "]}\\": 7655,
      "neider": 7656,
      "oi": 7657,
      "Peng": 7658,
      "Jin": 7659,
      "\\-": 7660,
      "rho_0": 7661,
      "bubble": 7662,
      "N_1": 7663,
      "deci": 7664,
      "cylin": 7665,
      ")!": 7666,
      "molecules": 7667,
      "lia": 7668,
      "Ry": 7669,
      "\\!\\!\\!\\!": 7670,
      "convenient": 7671,
      "y_0": 7672,
      "cold": 7673,
      "SIG": 7674,
      "sum_i": 7675,
      "independently": 7676,
      "charges": 7677,
      "galactic": 7678,
      "sequential": 7679,
      "Def": 7680,
      "peaks": 7681,
      "Lat": 7682,
      "throughout": 7683,
      "Vert_": 7684,
      "Alexander": 7685,
      "Fro": 7686,
      "^-$": 7687,
      "agement": 7688,
      "Random": 7689,
      "technical": 7690,
      "public": 7691,
      "A_0": 7692,
      "157": 7693,
      "proofs": 7694,
      "stin": 7695,
      "Function": 7696,
      "cumu": 7697,
      "issues": 7698,
      "207": 7699,
      "own": 7700,
      "BD": 7701,
      "q_i": 7702,
      "boundaries": 7703,
      "E_0": 7704,
      "Proba": 7705,
      "acces": 7706,
      "GAN": 7707,
      "X_2": 7708,
      "iterations": 7709,
      "}=(": 7710,
      "particip": 7711,
      "visco": 7712,
      "AJ": 7713,
      "conjugate": 7714,
      "F1": 7715,
      "sinh": 7716,
      "share": 7717,
      "2M": 7718,
      "tools": 7719,
      "159": 7720,
      "valuation": 7721,
      "Hermi": 7722,
      "1972": 7723,
      "maintain": 7724,
      "Figs": 7725,
      "speak": 7726,
      "effectively": 7727,
      "nik": 7728,
      "singularity": 7729,
      "ute": 7730,
      "stantial": 7731,
      "characterization": 7732,
      "PM": 7733,
      "rey": 7734,
      "Adam": 7735,
      "Kumar": 7736,
      "ecti": 7737,
      "Io": 7738,
      "rf": 7739,
      "affected": 7740,
      "_f": 7741,
      "altaffil": 7742,
      "dor": 7743,
      "confirm": 7744,
      "ception": 7745,
      "approximations": 7746,
      "phi_1": 7747,
      "yen": 7748,
      "complicated": 7749,
      "ales": 7750,
      "describing": 7751,
      "D_1": 7752,
      "middle": 7753,
      "2e": 7754,
      "}$$": 7755,
      "160": 7756,
      "IJ": 7757,
      "Sam": 7758,
      "intersect": 7759,
      "Wein": 7760,
      "SG": 7761,
      "pn": 7762,
      "cubic": 7763,
      "broken": 7764,
      "equals": 7765,
      "implement": 7766,
      "Foundation": 7767,
      "Sk": 7768,
      "settings": 7769,
      "segment": 7770,
      "turbulence": 7771,
      "ole": 7772,
      "return": 7773,
      "robustness": 7774,
      "vortex": 7775,
      "*$": 7776,
      "arest": 7777,
      "NC": 7778,
      "collaboration": 7779,
      "rotating": 7780,
      "permutation": 7781,
      "Shar": 7782,
      "Pet": 7783,
      "mut": 7784,
      "determines": 7785,
      "R_0": 7786,
      "menta": 7787,
      "Coulomb": 7788,
      "aya": 7789,
      "uu": 7790,
      "longit": 7791,
      "})(": 7792,
      "Pau": 7793,
      "ium": 7794,
      "synthetic": 7795,
      "missing": 7796,
      "iser": 7797,
      "substantial": 7798,
      "interpreted": 7799,
      "303": 7800,
      "rho_1": 7801,
      "sens": 7802,
      "US": 7803,
      "astron": 7804,
      "Thm": 7805,
      "gluon": 7806,
      "poor": 7807,
      "istance": 7808,
      "sampled": 7809,
      "created": 7810,
      "dial": 7811,
      "bt": 7812,
      "mez": 7813,
      "Hom": 7814,
      "aspects": 7815,
      "chez": 7816,
      "cellcolor": 7817,
      "building": 7818,
      "anov": 7819,
      "Beng": 7820,
      "i_2": 7821,
      "cen": 7822,
      "learned": 7823,
      "veness": 7824,
      "];": 7825,
      "accep": 7826,
      "Materi": 7827,
      "hierarchical": 7828,
      "Vir": 7829,
      "insight": 7830,
      "ansen": 7831,
      "build": 7832,
      "secur": 7833,
      "eb": 7834,
      "lepton": 7835,
      "regard": 7836,
      "148": 7837,
      "medical": 7838,
      "fm": 7839,
      "tl": 7840,
      "typeout": 7841,
      "Daniel": 7842,
      "167": 7843,
      "akov": 7844,
      "[->]": 7845,
      "adopt": 7846,
      "nont": 7847,
      "caused": 7848,
      "focu": 7849,
      "xili": 7850,
      "conv": 7851,
      "Hong": 7852,
      "providing": 7853,
      "183": 7854,
      "summari": 7855,
      "degener": 7856,
      "performing": 7857,
      "privacy": 7858,
      "ip": 7859,
      "create": 7860,
      "Lam": 7861,
      "Hub": 7862,
      "Lew": 7863,
      "varieties": 7864,
      "faci": 7865,
      "squares": 7866,
      "Mechanics": 7867,
      "home": 7868,
      "1145": 7869,
      "frames": 7870,
      "158": 7871,
      "observable": 7872,
      "2g": 7873,
      "fluxes": 7874,
      "{*": 7875,
      "dson": 7876,
      "algorithmic": 7877,
      "trigger": 7878,
      "4pt": 7879,
      "132": 7880,
      "brary": 7881,
      "_g": 7882,
      "arises": 7883,
      "dh": 7884,
      "}}\\,": 7885,
      "Ye": 7886,
      "250": 7887,
      "foreground": 7888,
      "imaginary": 7889,
      "cv": 7890,
      "Schr": 7891,
      "Germany": 7892,
      "Temp": 7893,
      "qed": 7894,
      "isolated": 7895,
      "mciteSet": 7896,
      "mciteSetBst": 7897,
      "annihi": 7898,
      "combining": 7899,
      "centered": 7900,
      "209": 7901,
      "DG": 7902,
      "nell": 7903,
      "arity": 7904,
      "SW": 7905,
      "187": 7906,
      "e_2": 7907,
      "Number": 7908,
      "028": 7909,
      "Its": 7910,
      "Pen": 7911,
      "\\,{\\": 7912,
      "scre": 7913,
      "Jia": 7914,
      "GHz": 7915,
      "struction": 7916,
      "P_0": 7917,
      "193": 7918,
      "nil": 7919,
      "t_k": 7920,
      "inted": 7921,
      "gui": 7922,
      "inen": 7923,
      "ulus": 7924,
      "fontdimen": 7925,
      "xiliary": 7926,
      ")),": 7927,
      "proves": 7928,
      "Oxford": 7929,
      "illustrate": 7930,
      "measu": 7931,
      "Riemannian": 7932,
      "1111": 7933,
      "Denote": 7934,
      "cosh": 7935,
      "generative": 7936,
      "balance": 7937,
      "lambda_0": 7938,
      "representing": 7939,
      "listed": 7940,
      "centric": 7941,
      "quantization": 7942,
      "parabolic": 7943,
      "tability": 7944,
      "computations": 7945,
      "ionization": 7946,
      "shifts": 7947,
      "h_2": 7948,
      "Tele": 7949,
      "scan": 7950,
      "245": 7951,
      "radiative": 7952,
      "Abb": 7953,
      "Gor": 7954,
      "air": 7955,
      "Topo": 7956,
      "What": 7957,
      "spot": 7958,
      "tration": 7959,
      "connections": 7960,
      "median": 7961,
      "+|": 7962,
      "indicated": 7963,
      "F_2": 7964,
      "Kri": 7965,
      "quet": 7966,
      "gend": 7967,
      "collapse": 7968,
      "isher": 7969,
      "S_n": 7970,
      "177": 7971,
      "023": 7972,
      "adiaba": 7973,
      "versus": 7974,
      "posterior": 7975,
      "sey": 7976,
      "milli": 7977,
      "333": 7978,
      "nand": 7979,
      "pts": 7980,
      "^*}": 7981,
      "stic": 7982,
      "Dra": 7983,
      "journals": 7984,
      "Software": 7985,
      "ska": 7986,
      "CI": 7987,
      "frac1": 7988,
      "ayan": 7989,
      "nontri": 7990,
      "momenta": 7991,
      "Lecture": 7992,
      "Not": 7993,
      "}^{(\\": 7994,
      "Main": 7995,
      "mixture": 7996,
      "oz": 7997,
      "confir": 7998,
      "kra": 7999,
      "Sti": 8000,
      "anomalous": 8001,
      "ressive": 8002,
      "chap": 8003,
      "Stand": 8004,
      "presents": 8005,
      "thal": 8006,
      "Sect": 8007,
      "Ce": 8008,
      "perspective": 8009,
      "walk": 8010,
      "security": 8011,
      "criteria": 8012,
      "conser": 8013,
      "NL": 8014,
      "Fast": 8015,
      "partite": 8016,
      "adjacent": 8017,
      "hou": 8018,
      "ffic": 8019,
      "omit": 8020,
      "d_i": 8021,
      "heating": 8022,
      "poses": 8023,
      "ME": 8024,
      "How": 8025,
      "Prop": 8026,
      "403": 8027,
      "Nevertheless": 8028,
      "aware": 8029,
      "yang": 8030,
      "addle": 8031,
      "Yama": 8032,
      "Ol": 8033,
      "queness": 8034,
      "Rela": 8035,
      "Differential": 8036,
      "Clu": 8037,
      "Fal": 8038,
      "lattices": 8039,
      "):=": 8040,
      "VI": 8041,
      "binding": 8042,
      "vic": 8043,
      "Hard": 8044,
      "Das": 8045,
      "mu_2": 8046,
      "225": 8047,
      "agg": 8048,
      "spins": 8049,
      "converge": 8050,
      "analyzed": 8051,
      "composite": 8052,
      "}}-": 8053,
      "nian": 8054,
      "flavor": 8055,
      "208": 8056,
      "}):": 8057,
      "cian": 8058,
      "surname": 8059,
      "1mm": 8060,
      "eq_": 8061,
      "rehen": 8062,
      "neutrinos": 8063,
      "drift": 8064,
      "Fried": 8065,
      "gover": 8066,
      "TS": 8067,
      "f_n": 8068,
      "185": 8069,
      "Paris": 8070,
      "phy": 8071,
      "interpolation": 8072,
      "minor": 8073,
      "Yi": 8074,
      "008": 8075,
      "triple": 8076,
      "hler": 8077,
      "}\\!": 8078,
      "extraction": 8079,
      "days": 8080,
      "3847": 8081,
      "Cs": 8082,
      "biased": 8083,
      "orel": 8084,
      "factorization": 8085,
      "xxx": 8086,
      "CMS": 8087,
      "Web": 8088,
      "intui": 8089,
      "Kap": 8090,
      "ust": 8091,
      "}$&": 8092,
      ".]": 8093,
      "plotted": 8094,
      "Neumann": 8095,
      "Gir": 8096,
      "163": 8097,
      "]^{\\": 8098,
      "plain": 8099,
      "nothing": 8100,
      "db": 8101,
      "fur": 8102,
      "suming": 8103,
      "ought": 8104,
      "NO": 8105,
      "edit": 8106,
      "polarized": 8107,
      "tell": 8108,
      "|}{\\": 8109,
      ")$$": 8110,
      "mber": 8111,
      "H_2": 8112,
      "Clo": 8113,
      "_M": 8114,
      "345": 8115,
      "facts": 8116,
      "piece": 8117,
      "singlet": 8118,
      "challenge": 8119,
      "009": 8120,
      "sha": 8121,
      "Schneider": 8122,
      "Cam": 8123,
      "pert": 8124,
      "HO": 8125,
      "cation": 8126,
      "received": 8127,
      "newpage": 8128,
      "history": 8129,
      "Cao": 8130,
      "extends": 8131,
      "--\\": 8132,
      "Taking": 8133,
      "leftrightarrow": 8134,
      "Die": 8135,
      "168": 8136,
      "}}\\\\": 8137,
      "cM": 8138,
      "Berg": 8139,
      "Pop": 8140,
      "anomaly": 8141,
      "$&$-": 8142,
      "matically": 8143,
      "combinations": 8144,
      "Haw": 8145,
      "NY": 8146,
      "March": 8147,
      "omega_1": 8148,
      "Pic": 8149,
      "l_2": 8150,
      "cki": 8151,
      "variability": 8152,
      "Mak": 8153,
      "bracket": 8154,
      "press": 8155,
      "JC": 8156,
      "tize": 8157,
      "323": 8158,
      "Jordan": 8159,
      ")<": 8160,
      "\\>": 8161,
      "((\\": 8162,
      "Would": 8163,
      "covariant": 8164,
      "EndOf": 8165,
      "lesco": 8166,
      "colour": 8167,
      "TR": 8168,
      "STATE": 8169,
      "auxiliary": 8170,
      "requirements": 8171,
      "hydrogen": 8172,
      "purely": 8173,
      "EndOfBibitem": 8174,
      "Cou": 8175,
      "}}}{": 8176,
      "sensor": 8177,
      "204": 8178,
      "carry": 8179,
      "panels": 8180,
      "I_1": 8181,
      "Inc": 8182,
      "twisted": 8183,
      "X_t": 8184,
      "gtr": 8185,
      "cms": 8186,
      "you": 8187,
      "Men": 8188,
      "marginal": 8189,
      "Lan": 8190,
      "^*(\\": 8191,
      "Bus": 8192,
      "@{}}": 8193,
      "magneto": 8194,
      "cutoff": 8195,
      "omega_0": 8196,
      "Landau": 8197,
      "marked": 8198,
      "Dem": 8199,
      "probabilistic": 8200,
      "lb": 8201,
      "018": 8202,
      "esh": 8203,
      "detectors": 8204,
      "Vin": 8205,
      "tably": 8206,
      "ping": 8207,
      "}\\,,": 8208,
      "Problem": 8209,
      "measurable": 8210,
      "019": 8211,
      "Z_2": 8212,
      "3cm": 8213,
      "Ten": 8214,
      "bins": 8215,
      "reward": 8216,
      "telesco": 8217,
      "primi": 8218,
      "ading": 8219,
      "choosing": 8220,
      "bundles": 8221,
      "noisy": 8222,
      "}}+": 8223,
      "ifted": 8224,
      "secondary": 8225,
      "Additionally": 8226,
      "aring": 8227,
      ")}=\\": 8228,
      "rick": 8229,
      "vities": 8230,
      "nontrivial": 8231,
      "encoding": 8232,
      "Tru": 8233,
      "229": 8234,
      "d_2": 8235,
      "tors": 8236,
      "Chern": 8237,
      "Nonlinear": 8238,
      "twist": 8239,
      "attacks": 8240,
      "Singh": 8241,
      "mciteBst": 8242,
      "EndPunct": 8243,
      "AddEndPunct": 8244,
      "WouldAddEndPunct": 8245,
      "mciteBstWouldAddEndPunct": 8246,
      "1970": 8247,
      "bis": 8248,
      "Phase": 8249,
      "phenomena": 8250,
      "Complex": 8251,
      "resource": 8252,
      "::": 8253,
      "cF": 8254,
      "Had": 8255,
      "$<": 8256,
      "mr": 8257,
      "t_n": 8258,
      "Q_1": 8259,
      "Las": 8260,
      "qubits": 8261,
      "ticle": 8262,
      "nucleon": 8263,
      "allowing": 8264,
      "Anton": 8265,
      "Prob": 8266,
      "EL": 8267,
      "ariant": 8268,
      "169": 8269,
      "Experimental": 8270,
      "letter": 8271,
      "Hou": 8272,
      "q_0": 8273,
      "Jap": 8274,
      "ously": 8275,
      "theorems": 8276,
      "Kel": 8277,
      "collective": 8278,
      "adaptation": 8279,
      "Earth": 8280,
      "zar": 8281,
      "152": 8282,
      "effor": 8283,
      "k_i": 8284,
      "subsequent": 8285,
      "305": 8286,
      "mpson": 8287,
      "requirement": 8288,
      "rele": 8289,
      "Human": 8290,
      "logarithmic": 8291,
      "completeness": 8292,
      "asymmetry": 8293,
      "radii": 8294,
      "heterogene": 8295,
      "vas": 8296,
      "thy": 8297,
      "disorder": 8298,
      "inski": 8299,
      "}\\}$": 8300,
      "neur": 8301,
      "Instead": 8302,
      "nett": 8303,
      "mor": 8304,
      "S_i": 8305,
      "decomp": 8306,
      "1971": 8307,
      "ala": 8308,
      "bid": 8309,
      "leave": 8310,
      "sepp": 8311,
      "scores": 8312,
      "adjust": 8313,
      "introducing": 8314,
      "briefly": 8315,
      "biggr": 8316,
      "separately": 8317,
      "_K": 8318,
      "-{\\": 8319,
      "EndSep": 8320,
      "MidEndSep": 8321,
      "MidEndSepPunct": 8322,
      "mciteSetBstMidEndSepPunct": 8323,
      "nearest": 8324,
      "applies": 8325,
      "removed": 8326,
      "5mm": 8327,
      "{}\\": 8328,
      "equivalently": 8329,
      "environments": 8330,
      "placement": 8331,
      "Optimization": 8332,
      "Dar": 8333,
      "ae": 8334,
      "deli": 8335,
      "exponentially": 8336,
      "extremely": 8337,
      "filled": 8338,
      "179": 8339,
      "nucleus": 8340,
      "refine": 8341,
      "192": 8342,
      "405": 8343,
      "unov": 8344,
      "173": 8345,
      "cepts": 8346,
      "corr": 8347,
      "Pere": 8348,
      "''.": 8349,
      "Prog": 8350,
      "dissip": 8351,
      "Bes": 8352,
      "excitations": 8353,
      "151": 8354,
      "1051": 8355,
      "treated": 8356,
      "rigid": 8357,
      "sums": 8358,
      "Again": 8359,
      "Pu": 8360,
      "coincides": 8361,
      "unsupervised": 8362,
      "resonant": 8363,
      "xymatrix": 8364,
      "coverage": 8365,
      "diffe": 8366,
      ".}}]{": 8367,
      "exceed": 8368,
      "174": 8369,
      "NE": 8370,
      "tau_1": 8371,
      "structured": 8372,
      "w_i": 8373,
      "onom": 8374,
      "June": 8375,
      "selves": 8376,
      "RT": 8377,
      "push": 8378,
      "Universe": 8379,
      "national": 8380,
      "Combining": 8381,
      "hierarchy": 8382,
      "dez": 8383,
      "pairing": 8384,
      "Bengio": 8385,
      "Sear": 8386,
      "Hi": 8387,
      "bell": 8388,
      "sigma_2": 8389,
      "currents": 8390,
      "Sar": 8391,
      "142": 8392,
      "hara": 8393,
      "asymptotically": 8394,
      "B_2": 8395,
      "T_i": 8396,
      "voltage": 8397,
      "families": 8398,
      "g_i": 8399,
      "rk": 8400,
      "incar": 8401,
      "oplus_": 8402,
      "commuta": 8403,
      "midpunct": 8404,
      "mcitedefaultsepp": 8405,
      "mcitedefaultmidpunct": 8406,
      "mcitedefaultseppunct": 8407,
      "renormalization": 8408,
      "Cali": 8409,
      "mu_0": 8410,
      "signature": 8411,
      "sensing": 8412,
      "Xie": 8413,
      "anisotropy": 8414,
      "udinal": 8415,
      "investigation": 8416,
      "alpha_0": 8417,
      "mciteBstWouldAddEndPuncttrue": 8418,
      "Chat": 8419,
      "Choi": 8420,
      "admis": 8421,
      "genus": 8422,
      "Diff": 8423,
      "A_n": 8424,
      "powers": 8425,
      "sound": 8426,
      "^{}": 8427,
      "309": 8428,
      "Dai": 8429,
      "Kh": 8430,
      "grad": 8431,
      "ATLAS": 8432,
      "186": 8433,
      "pixels": 8434,
      "pay": 8435,
      "bq": 8436,
      "determinant": 8437,
      "Laboratory": 8438,
      ").$$": 8439,
      "FFFFFF": 8440,
      "challeng": 8441,
      "rix": 8442,
      "Bak": 8443,
      "},\\\\": 8444,
      "suppressed": 8445,
      "Volu": 8446,
      "}\\}": 8447,
      "baum": 8448,
      "France": 8449,
      "anguages": 8450,
      "327": 8451,
      "Davis": 8452,
      "Bs": 8453,
      "T_2": 8454,
      "gor": 8455,
      "prule": 8456,
      "fract": 8457,
      "phonon": 8458,
      "OO": 8459,
      "V_i": 8460,
      "Zi": 8461,
      "message": 8462,
      "+{\\": 8463,
      ",(": 8464,
      "1969": 8465,
      "Comparison": 8466,
      "opa": 8467,
      "hm": 8468,
      "restrict": 8469,
      "widely": 8470,
      "divided": 8471,
      "tb": 8472,
      "bration": 8473,
      "repeated": 8474,
      "00000000000000000000000000000000": 8475,
      "Luo": 8476,
      "BG": 8477,
      "standing": 8478,
      "Discrete": 8479,
      "TP": 8480,
      "cube": 8481,
      ").}": 8482,
      "bosons": 8483,
      "Cr": 8484,
      "yy": 8485,
      "justi": 8486,
      "stituting": 8487,
      "representative": 8488,
      "N_c": 8489,
      "Method": 8490,
      "enter": 8491,
      "adiabatic": 8492,
      "{,": 8493,
      "colli": 8494,
      "overview": 8495,
      "307": 8496,
      "}$).": 8497,
      "guyen": 8498,
      "photometric": 8499,
      "))=": 8500,
      "mostly": 8501,
      "Brun": 8502,
      "gar": 8503,
      "compression": 8504,
      "laws": 8505,
      "endpunct": 8506,
      "mcitedefaultendpunct": 8507,
      "reliable": 8508,
      "replacing": 8509,
      "media": 8510,
      "Cl": 8511,
      "James": 8512,
      "Ros": 8513,
      "classifier": 8514,
      "212": 8515,
      "projected": 8516,
      "DL": 8517,
      "gamma_2": 8518,
      "discovery": 8519,
      "Ell": 8520,
      "subgroups": 8521,
      "WW": 8522,
      "generates": 8523,
      "collected": 8524,
      "Instr": 8525,
      "Riemann": 8526,
      "Visual": 8527,
      "Harris": 8528,
      "{\\\"{": 8529,
      ",\\;": 8530,
      "observational": 8531,
      "Through": 8532,
      "V_0": 8533,
      "los": 8534,
      "Publish": 8535,
      "Ir": 8536,
      "Mean": 8537,
      "375": 8538,
      "priori": 8539,
      "304": 8540,
      "Ferr": 8541,
      "188": 8542,
      "PDF": 8543,
      "X_n": 8544,
      "184": 8545,
      "Moh": 8546,
      "challenges": 8547,
      "fitted": 8548,
      "329": 8549,
      "ASS": 8550,
      "sani": 8551,
      "toprule": 8552,
      "u_n": 8553,
      "none": 8554,
      "squared": 8555,
      "Nar": 8556,
      "\\,$": 8557,
      "p_j": 8558,
      "\\,\\,": 8559,
      "Borel": 8560,
      "]\\\\": 8561,
      "thon": 8562,
      "Davi": 8563,
      "phenomenon": 8564,
      "Annals": 8565,
      "Kas": 8566,
      "](": 8567,
      "empha": 8568,
      "Dynamics": 8569,
      "141": 8570,
      "235": 8571,
      "A1": 8572,
      "B_0": 8573,
      "Brand": 8574,
      "theta_0": 8575,
      "Mg": 8576,
      "Ts": 8577,
      "cp": 8578,
      "scaled": 8579,
      "Roberts": 8580,
      "w_2": 8581,
      "Dur": 8582,
      "injective": 8583,
      "resources": 8584,
      "Design": 8585,
      ")[": 8586,
      "odic": 8587,
      "igno": 8588,
      "1063": 8589,
      "spheres": 8590,
      "TM": 8591,
      "tively": 8592,
      "Tw": 8593,
      "limiting": 8594,
      "xp": 8595,
      "rings": 8596,
      "covers": 8597,
      "tx": 8598,
      "Measure": 8599,
      "inite": 8600,
      "tou": 8601,
      "quas": 8602,
      "eqq": 8603,
      "Kau": 8604,
      "formance": 8605,
      "Moore": 8606,
      "gtrsim": 8607,
      "Dark": 8608,
      "esting": 8609,
      "editor": 8610,
      "built": 8611,
      "Wiley": 8612,
      "insul": 8613,
      "duration": 8614,
      "Applying": 8615,
      "clou": 8616,
      "oidal": 8617,
      "Algorithms": 8618,
      "modulation": 8619,
      "eu": 8620,
      "CMB": 8621,
      "ities": 8622,
      "ucci": 8623,
      "pump": 8624,
      "outputs": 8625,
      "somewhat": 8626,
      "superconducting": 8627,
      "Key": 8628,
      "recover": 8629,
      "Ricci": 8630,
      "Les": 8631,
      "aving": 8632,
      "passing": 8633,
      "Banach": 8634,
      "={\\": 8635,
      "178": 8636,
      "pto": 8637,
      "hook": 8638,
      "approximated": 8639,
      ">$": 8640,
      "actor": 8641,
      "P_2": 8642,
      "express": 8643,
      "RA": 8644,
      "ddot": 8645,
      "Predic": 8646,
      "challenging": 8647,
      "202": 8648,
      "symbols": 8649,
      "shu": 8650,
      "diameter": 8651,
      "ranges": 8652,
      "copy": 8653,
      "MSE": 8654,
      "Coun": 8655,
      "SDSS": 8656,
      "mos": 8657,
      "comprehen": 8658,
      "pdfxs": 8659,
      "Magne": 8660,
      "remove": 8661,
      "G_2": 8662,
      "kr": 8663,
      "traffic": 8664,
      "textnormal": 8665,
      "stration": 8666,
      "dp": 8667,
      "experimentally": 8668,
      "groun": 8669,
      "DI": 8670,
      "+(\\": 8671,
      ",$$": 8672,
      "075": 8673,
      "realized": 8674,
      "sz": 8675,
      "Ent": 8676,
      "dissipation": 8677,
      "areas": 8678,
      "*(": 8679,
      "Mari": 8680,
      "uniqueness": 8681,
      "scripts": 8682,
      "excess": 8683,
      "glob": 8684,
      "PH": 8685,
      "`\\": 8686,
      "outcome": 8687,
      "_5": 8688,
      "strings": 8689,
      "2t": 8690,
      "branching": 8691,
      "abundances": 8692,
      "familyi": 8693,
      "V_2": 8694,
      "closely": 8695,
      "thme": 8696,
      "Hod": 8697,
      "FA": 8698,
      "Stochastic": 8699,
      "turbulent": 8700,
      "arrange": 8701,
      "Once": 8702,
      "Ul": 8703,
      "Combin": 8704,
      "Flo": 8705,
      "dl": 8706,
      "incident": 8707,
      "164": 8708,
      "complement": 8709,
      "massless": 8710,
      "roll": 8711,
      "deviations": 8712,
      "Figures": 8713,
      "MW": 8714,
      "Inf": 8715,
      "initially": 8716,
      ")},\\": 8717,
      "2b": 8718,
      "determination": 8719,
      "pointed": 8720,
      "FS": 8721,
      ")~\\": 8722,
      "significance": 8723,
      "visi": 8724,
      "Computation": 8725,
      "enhancement": 8726,
      "rely": 8727,
      "package": 8728,
      "}}^{(": 8729,
      "S_0": 8730,
      "currently": 8731,
      "excit": 8732,
      "barrier": 8733,
      "\\).": 8734,
      "Mn": 8735,
      "axial": 8736,
      "storage": 8737,
      "Ms": 8738,
      "267": 8739,
      "uss": 8740,
      "rot": 8741,
      "Kur": 8742,
      "Evans": 8743,
      "Syn": 8744,
      "indicating": 8745,
      "Observe": 8746,
      "disks": 8747,
      "itzer": 8748,
      "flexi": 8749,
      "FO": 8750,
      "potentially": 8751,
      "'}(": 8752,
      "Bl": 8753,
      "overla": 8754,
      "working": 8755,
      "Schul": 8756,
      "nowledgements": 8757,
      "Emp": 8758,
      "}]$": 8759,
      "aspect": 8760,
      "Por": 8761,
      "server": 8762,
      "Proper": 8763,
      "rn": 8764,
      "biggl": 8765,
      "unskip": 8766,
      "My": 8767,
      "Optimal": 8768,
      "Jose": 8769,
      "cb": 8770,
      "Gab": 8771,
      "a_k": 8772,
      "eva": 8773,
      "reasoning": 8774,
      "pick": 8775,
      "competi": 8776,
      "tested": 8777,
      "yi": 8778,
      "semig": 8779,
      "feld": 8780,
      "phi_i": 8781,
      "161": 8782,
      "surpr": 8783,
      "forecast": 8784,
      "tends": 8785,
      "phenomeno": 8786,
      "Bis": 8787,
      "cH": 8788,
      "apparent": 8789,
      "Cauchy": 8790,
      "prescri": 8791,
      "Theta_": 8792,
      "happens": 8793,
      "Deng": 8794,
      "Their": 8795,
      "ampli": 8796,
      "simplified": 8797,
      "pq": 8798,
      "206": 8799,
      "pmb": 8800,
      "obo": 8801,
      "Schi": 8802,
      "illa": 8803,
      "227": 8804,
      ".\\]": 8805,
      "nice": 8806,
      "giveni": 8807,
      "Performance": 8808,
      "suscep": 8809,
      "rs": 8810,
      "})^{-": 8811,
      "Power": 8812,
      "Efficient": 8813,
      "$\\|\\": 8814,
      "ople": 8815,
      "1967": 8816,
      "}--\\": 8817,
      "interfer": 8818,
      "GE": 8819,
      "-$\\": 8820,
      "bay": 8821,
      "Astrophysics": 8822,
      "Volume": 8823,
      "tzmann": 8824,
      "confirmed": 8825,
      "inton": 8826,
      "ois": 8827,
      "Mis": 8828,
      "thub": 8829,
      "equivariant": 8830,
      "Paul": 8831,
      "simplicial": 8832,
      "}$;": 8833,
      "comments": 8834,
      "Grant": 8835,
      "popular": 8836,
      "assigned": 8837,
      "3_": 8838,
      "Knowledge": 8839,
      "ell_1": 8840,
      "Cai": 8841,
      "gam": 8842,
      "Representations": 8843,
      "Most": 8844,
      "Astronomical": 8845,
      "examine": 8846,
      "404": 8847,
      "Assumption": 8848,
      "market": 8849,
      "lens": 8850,
      "Conclusion": 8851,
      "richlet": 8852,
      "ava": 8853,
      "Ken": 8854,
      "ambig": 8855,
      "intellig": 8856,
      "North": 8857,
      "tabl": 8858,
      "Ak": 8859,
      "viscosity": 8860,
      "KM": 8861,
      "measuring": 8862,
      "Nov": 8863,
      "Pot": 8864,
      "quen": 8865,
      "organized": 8866,
      "differentiable": 8867,
      "sort": 8868,
      "matics": 8869,
      "nia": 8870,
      "TH": 8871,
      "adic": 8872,
      "traditional": 8873,
      "Joint": 8874,
      "akis": 8875,
      "Mir": 8876,
      "starts": 8877,
      "anisotropic": 8878,
      "335": 8879,
      "semigroup": 8880,
      "endgroup": 8881,
      "uez": 8882,
      "specifically": 8883,
      "ressing": 8884,
      "Bog": 8885,
      "PE": 8886,
      "iring": 8887,
      "appearance": 8888,
      "171": 8889,
      "consideration": 8890,
      "Cer": 8891,
      "shared": 8892,
      "Jul": 8893,
      "multiplicity": 8894,
      "populations": 8895,
      "minima": 8896,
      "distor": 8897,
      "longitudinal": 8898,
      "theo": 8899,
      "Bose": 8900,
      "today": 8901,
      "},{\\": 8902,
      "rik": 8903,
      "Fab": 8904,
      "Mand": 8905,
      "wood": 8906,
      "frag": 8907,
      "Tian": 8908,
      "compan": 8909,
      "fp": 8910,
      "ontaneous": 8911,
      "@#": 8912,
      "thermodynamic": 8913,
      "camera": 8914,
      "brightness": 8915,
      "epsilon_1": 8916,
      "ordon": 8917,
      "sched": 8918,
      "Stokes": 8919,
      "tn": 8920,
      "guarantee": 8921,
      "hardt": 8922,
      "Nuclear": 8923,
      "odology": 8924,
      "automatic": 8925,
      "writing": 8926,
      "2j": 8927,
      "jected": 8928,
      "xi_1": 8929,
      "\\},\\": 8930,
      "Summ": 8931,
      "*}\\": 8932,
      "ury": 8933,
      "};\\": 8934,
      "}]\\": 8935,
      "sheaf": 8936,
      "modelling": 8937,
      "agree": 8938,
      "confin": 8939,
      "166": 8940,
      "Mun": 8941,
      "dar": 8942,
      "esis": 8943,
      "Geometry": 8944,
      "sanitize": 8945,
      "\\,(": 8946,
      "bus": 8947,
      "176": 8948,
      "Thompson": 8949,
      "invertible": 8950,
      "thi": 8951,
      "arising": 8952,
      "junction": 8953,
      "900": 8954,
      "Fisher": 8955,
      "wireless": 8956,
      "denti": 8957,
      "Ds": 8958,
      "Bound": 8959,
      "branes": 8960,
      "rell": 8961,
      "capa": 8962,
      "summation": 8963,
      "clock": 8964,
      "enberg": 8965,
      "clouds": 8966,
      "Opt": 8967,
      "queries": 8968,
      "Garcia": 8969,
      "-}": 8970,
      "loration": 8971,
      "regarding": 8972,
      "CFT": 8973,
      "ferromagnetic": 8974,
      "trade": 8975,
      "reasons": 8976,
      "}=-": 8977,
      "Standard": 8978,
      "Schu": 8979,
      "Global": 8980,
      "nologies": 8981,
      "reached": 8982,
      "sigma_i": 8983,
      "magnetization": 8984,
      "dele": 8985,
      "descent": 8986,
      "N_0": 8987,
      "altern": 8988,
      "TO": 8989,
      "qq": 8990,
      "graphene": 8991,
      "summarized": 8992,
      "roid": 8993,
      "sell": 8994,
      "BERT": 8995,
      "dc": 8996,
      "rotational": 8997,
      "237": 8998,
      "inversion": 8999,
      "GA": 9000,
      "utter": 9001,
      "admissible": 9002,
      "IE": 9003,
      "Poincar": 9004,
      "Approxi": 9005,
      "Cour": 9006,
      "tein": 9007,
      "She": 9008,
      "emistry": 9009,
      "mathtt": 9010,
      "ological": 9011,
      "vate": 9012,
      "324": 9013,
      "expo": 9014,
      "bz": 9015,
      "strain": 9016,
      "realization": 9017,
      "g_0": 9018,
      "Discus": 9019,
      "ijk": 9020,
      "fourth": 9021,
      "care": 9022,
      "Cosmo": 9023,
      "rmi": 9024,
      "reful": 9025,
      "'-": 9026,
      "Ara": 9027,
      "Dr": 9028,
      "obtains": 9029,
      "308": 9030,
      "Matsu": 9031,
      "415": 9032,
      "Shan": 9033,
      "coloneqq": 9034,
      "automorphism": 9035,
      "onald": 9036,
      "paration": 9037,
      "toward": 9038,
      "geometr": 9039,
      "Hermitian": 9040,
      "TE": 9041,
      "),\\\\": 9042,
      "Kam": 9043,
      "oft": 9044,
      "}.$$": 9045,
      "trend": 9046,
      "extent": 9047,
      "tas": 9048,
      "github": 9049,
      "games": 9050,
      ")~": 9051,
      "tov": 9052,
      "beginning": 9053,
      "Minkowski": 9054,
      "bad": 9055,
      "196": 9056,
      "cogn": 9057,
      "dex": 9058,
      "mobile": 9059,
      "technology": 9060,
      "uniquely": 9061,
      "monitor": 9062,
      "minimization": 9063,
      "Cir": 9064,
      "0002": 9065,
      "lanl": 9066,
      "409": 9067,
      "arcsec": 9068,
      "Yao": 9069,
      "inn": 9070,
      "appearing": 9071,
      "quick": 9072,
      "gri": 9073,
      "handle": 9074,
      "Particle": 9075,
      "scene": 9076,
      "K_0": 9077,
      "jj": 9078,
      "Constra": 9079,
      "Em": 9080,
      "Hand": 9081,
      "\\),": 9082,
      "neighbour": 9083,
      "Bat": 9084,
      "ett": 9085,
      "Impro": 9086,
      "dg": 9087,
      "separable": 9088,
      "timate": 9089,
      "entangled": 9090,
      "Royal": 9091,
      "uel": 9092,
      "characterize": 9093,
      "html": 9094,
      "estimating": 9095,
      "barticle": 9096,
      "harvardyear": 9097,
      "Ali": 9098,
      "Bian": 9099,
      "partial_x": 9100,
      "hai": 9101,
      "efficiently": 9102,
      "&$\\": 9103,
      "v3": 9104,
      "tile": 9105,
      "Spec": 9106,
      "9e": 9107,
      "explanation": 9108,
      "VV": 9109,
      "excep": 9110,
      "Tab": 9111,
      "decoder": 9112,
      "Fil": 9113,
      "citename": 9114,
      "Arn": 9115,
      "Ding": 9116,
      "complexes": 9117,
      "PN": 9118,
      "formally": 9119,
      "&\\\\": 9120,
      "&$-$": 9121,
      "Inst": 9122,
      "periods": 9123,
      "LC": 9124,
      "qi": 9125,
      "Ross": 9126,
      "ECC": 9127,
      "Shu": 9128,
      "306": 9129,
      "Rou": 9130,
      "265": 9131,
      "endic": 9132,
      "World": 9133,
      "cusp": 9134,
      "coincide": 9135,
      "'.": 9136,
      "sitions": 9137,
      "namehash": 9138,
      "careful": 9139,
      "tages": 9140,
      ")\\;": 9141,
      "mans": 9142,
      "Gross": 9143,
      "fiers": 9144,
      "tsch": 9145,
      "circum": 9146,
      "}^+": 9147,
      "vali": 9148,
      "Before": 9149,
      "Recently": 9150,
      "tau_0": 9151,
      "imer": 9152,
      "Pier": 9153,
      "Hes": 9154,
      "}\\,.": 9155,
      "placed": 9156,
      "Gai": 9157,
      "mathit": 9158,
      "211": 9159,
      "identities": 9160,
      "agi": 9161,
      "bottomrule": 9162,
      "_z": 9163,
      "Mpc": 9164,
      "consu": 9165,
      "calculus": 9166,
      "balanced": 9167,
      "corrected": 9168,
      "td": 9169,
      "1968": 9170,
      "BO": 9171,
      "L1": 9172,
      "637X": 9173,
      "287": 9174,
      "np": 9175,
      "{\\~": 9176,
      "Adap": 9177,
      "primitive": 9178,
      "supersymmetric": 9179,
      "achieves": 9180,
      "UK": 9181,
      "_C": 9182,
      "diamond": 9183,
      "L2": 9184,
      "Italy": 9185,
      "Matrix": 9186,
      "Japan": 9187,
      "TD": 9188,
      "170": 9189,
      "}.$": 9190,
      "Optical": 9191,
      "Fang": 9192,
      "hon": 9193,
      "setlength": 9194,
      "Lou": 9195,
      "cros": 9196,
      "ye": 9197,
      "monotone": 9198,
      "plate": 9199,
      "underbrace": 9200,
      "Mem": 9201,
      "h_i": 9202,
      "R_2": 9203,
      "zone": 9204,
      "AAAI": 9205,
      "concepts": 9206,
      "Ps": 9207,
      "b_0": 9208,
      "viewed": 9209,
      "(|\\": 9210,
      "Sav": 9211,
      "277": 9212,
      "A2": 9213,
      "})}{": 9214,
      "325": 9215,
      "carbon": 9216,
      "divisor": 9217,
      "Chandra": 9218,
      "smallmatrix": 9219,
      "{\\'{\\": 9220,
      "lengths": 9221,
      "Iso": 9222,
      "determining": 9223,
      "guarantees": 9224,
      "baryon": 9225,
      "minimize": 9226,
      "Assuming": 9227,
      "cts": 9228,
      "Structure": 9229,
      "propagator": 9230,
      "reducing": 9231,
      "findings": 9232,
      "279": 9233,
      "Witten": 9234,
      "Y_1": 9235,
      "lf": 9236,
      "Survey": 9237,
      "o_": 9238,
      "Fei": 9239,
      ").$": 9240,
      "potent": 9241,
      "price": 9242,
      "clean": 9243,
      "oscillation": 9244,
      "optimized": 9245,
      "E_2": 9246,
      "parton": 9247,
      "Gupta": 9248,
      "discrepan": 9249,
      "otti": 9250,
      "spar": 9251,
      "&{\\": 9252,
      "292": 9253,
      "045": 9254,
      "endicular": 9255,
      "EOS": 9256,
      "_H": 9257,
      "lich": 9258,
      "$^\\": 9259,
      "shifted": 9260,
      "Richard": 9261,
      "}$\\\\": 9262,
      "P_i": 9263,
      "resses": 9264,
      "finds": 9265,
      "packet": 9266,
      "constructing": 9267,
      "closer": 9268,
      "tunately": 9269,
      "lvert": 9270,
      "verified": 9271,
      "planets": 9272,
      "K_2": 9273,
      "analyses": 9274,
      "gradients": 9275,
      "$~\\": 9276,
      "484": 9277,
      "Grav": 9278,
      "Analy": 9279,
      "textup": 9280,
      "Jeff": 9281,
      "modulo": 9282,
      "classified": 9283,
      "setcounter": 9284,
      ")--(": 9285,
      "pus": 9286,
      "members": 9287,
      "Allen": 9288,
      "STM": 9289,
      "ynman": 9290,
      "},~\\": 9291,
      "}$),": 9292,
      "N_2": 9293,
      "clic": 9294,
      "motions": 9295,
      "Boy": 9296,
      "_e": 9297,
      "ith": 9298,
      "wei": 9299,
      "FM": 9300,
      "studying": 9301,
      "fermionic": 9302,
      "224": 9303,
      "{};": 9304,
      "tia": 9305,
      "coustic": 9306,
      "document": 9307,
      "Normal": 9308,
      "apjs": 9309,
      "ansatz": 9310,
      "formulated": 9311,
      "jam": 9312,
      "6361": 9313,
      "dv": 9314,
      "tum": 9315,
      "perpendicular": 9316,
      "bases": 9317,
      "stone": 9318,
      "tate": 9319,
      "degeneracy": 9320,
      "bandwidth": 9321,
      "shapes": 9322,
      "ArXiv": 9323,
      "gon": 9324,
      "2c": 9325,
      "228": 9326,
      "))$,": 9327,
      "Rub": 9328,
      "isenberg": 9329,
      "297": 9330,
      "Cle": 9331,
      "Nguyen": 9332,
      "355": 9333,
      "2q": 9334,
      "ola": 9335,
      "reproduce": 9336,
      "bosonic": 9337,
      "$+$": 9338,
      "Any": 9339,
      "275": 9340,
      "School": 9341,
      "Dal": 9342,
      "automatically": 9343,
      "!}": 9344,
      "rapidly": 9345,
      "simplest": 9346,
      "249": 9347,
      "halos": 9348,
      "331": 9349,
      "liers": 9350,
      "theta_2": 9351,
      "observer": 9352,
      "ager": 9353,
      "u_k": 9354,
      "194": 9355,
      "C_i": 9356,
      "surroun": 9357,
      "survi": 9358,
      "never": 9359,
      "eventually": 9360,
      "Neutr": 9361,
      "Prince": 9362,
      "Es": 9363,
      "Bloch": 9364,
      "SH": 9365,
      "ths": 9366,
      "proven": 9367,
      "varpi": 9368,
      ")$}": 9369,
      "correctly": 9370,
      "surveys": 9371,
      "BBA": 9372,
      "036": 9373,
      "violation": 9374,
      "spite": 9375,
      "mind": 9376,
      "N_f": 9377,
      "pion": 9378,
      "GM": 9379,
      "a_3": 9380,
      "v_j": 9381,
      "360": 9382,
      "PRL": 9383,
      "umin": 9384,
      "planes": 9385,
      "iness": 9386,
      "moves": 9387,
      "vc": 9388,
      "223": 9389,
      "arbitrarily": 9390,
      "international": 9391,
      "pull": 9392,
      "cS": 9393,
      "hop": 9394,
      "Wer": 9395,
      "ensures": 9396,
      "Major": 9397,
      "Id": 9398,
      "U_1": 9399,
      "drawn": 9400,
      "tuple": 9401,
      "3pt": 9402,
      "),(": 9403,
      "execution": 9404,
      "safe": 9405,
      "E_i": 9406,
      "leaves": 9407,
      "cil": 9408,
      "ival": 9409,
      "activation": 9410,
      "enna": 9411,
      "247": 9412,
      "Rosen": 9413,
      "I_2": 9414,
      "Wig": 9415,
      "p_k": 9416,
      "baselines": 9417,
      "planning": 9418,
      "uer": 9419,
      "}{$": 9420,
      "experience": 9421,
      "seq": 9422,
      "1002": 9423,
      "depicted": 9424,
      "completion": 9425,
      "FD": 9426,
      "b_n": 9427,
      "232": 9428,
      "Materials": 9429,
      "sized": 9430,
      "Maxi": 9431,
      "087": 9432,
      "cD": 9433,
      "master": 9434,
      "CVF": 9435,
      "ands": 9436,
      "Cox": 9437,
      "theses": 9438,
      "B_i": 9439,
      "Conclusions": 9440,
      "ners": 9441,
      "t_j": 9442,
      "inf_": 9443,
      "spatially": 9444,
      "modification": 9445,
      "Down": 9446,
      "combinatorial": 9447,
      "~~~~~~~~": 9448,
      "reser": 9449,
[...]
