{
  "version": "1.0",
  "truncation": {
    "direction": "Right",
    "max_length": 4800,
    "strategy": "LongestFirst",
    "stride": 0
  },
  "padding": {
    "strategy": {
      "Fixed": 4800
    },
    "direction": "Right",
    "pad_to_multiple_of": null,
    "pad_id": 1,
    "pad_type_id": 0,
    "pad_token": "<pad>"
  },
  "added_tokens": [
    {
      "id": 0,
      "content": "<s>",
      "single_word": false,
      "lstrip": false,
      "rstrip": false,
      "normalized": false,
      "special": true
    },
    {
      "id": 1,
      "content": "<pad>",
      "single_word": false,
      "lstrip": false,
      "rstrip": false,
      "normalized": false,
      "special": true
    },
    {
      "id": 2,
      "content": "</s>",
      "single_word": false,
      "lstrip": false,
      "rstrip": false,
      "normalized": false,
      "special": true
    },
    {
      "id": 3,
      "content": "<unk>",
      "single_word": false,
      "lstrip": false,
      "rstrip": false,
      "normalized": false,
      "special": true
    },
    {
      "id": 4,
      "content": "[START_REF]",
      "single_word": false,
      "lstrip": false,
      "rstrip": false,
      "normalized": false,
      "special": true
    },
    {
      "id": 5,
      "content": "[END_REF]",
      "single_word": false,
      "lstrip": false,
      "rstrip": false,
      "normalized": false,
      "special": true
    },
    {
      "id": 6,
      "content": "[IMAGE]",
      "single_word": false,
      "lstrip": false,
      "rstrip": false,
      "normalized": false,
      "special": true
    },
    {
      "id": 7,
      "content": "<fragments>",
      "single_word": false,
      "lstrip": false,
      "rstrip": false,
      "normalized": false,
      "special": true
    },
    {
      "id": 8,
      "content": "</fragments>",
      "single_word": false,
      "lstrip": false,
      "rstrip": false,
      "normalized": false,
      "special": true
    },
    {
      "id": 9,
      "content": "<work>",
      "single_word": false,
      "lstrip": false,
      "rstrip": false,
      "normalized": false,
      "special": true
    },
    {
      "id": 10,
      "content": "</work>",
      "single_word": false,
      "lstrip": false,
      "rstrip": false,
      "normalized": false,
      "special": true
    },
    {
      "id": 11,
      "content": "[START_SUP]",
      "single_word": false,
      "lstrip": false,
      "rstrip": false,
      "normalized": false,
      "special": true
    },
    {
      "id": 12,
      "content": "[END_SUP]",
      "single_word": false,
      "lstrip": false,
      "rstrip": false,
      "normalized": false,
      "special": true
    },
    {
      "id": 13,
      "content": "[START_SUB]",
      "single_word": false,
      "lstrip": false,
      "rstrip": false,
      "normalized": false,
      "special": true
    },
    {
      "id": 14,
      "content": "[END_SUB]",
      "single_word": false,
      "lstrip": false,
      "rstrip": false,
      "normalized": false,
      "special": true
    },
    {
      "id": 15,
      "content": "[START_DNA]",
      "single_word": false,
      "lstrip": false,
      "rstrip": false,
      "normalized": false,
      "special": true
    },
    {
      "id": 16,
      "content": "[END_DNA]",
      "single_word": false,
      "lstrip": false,
      "rstrip": false,
      "normalized": false,
      "special": true
    },
    {
      "id": 17,
      "content": "[START_AMINO]",
      "single_word": false,
      "lstrip": false,
      "rstrip": false,
      "normalized": false,
      "special": true
    },
    {
      "id": 18,
      "content": "[END_AMINO]",
      "single_word": false,
      "lstrip": false,
      "rstrip": false,
      "normalized": false,
      "special": true
    },
    {
      "id": 19,
      "content": "[START_SMILES]",
      "single_word": false,
      "lstrip": false,
      "rstrip": false,
      "normalized": false,
      "special": true
    },
    {
      "id": 20,
      "content": "[END_SMILES]",
      "single_word": false,
      "lstrip": false,
      "rstrip": false,
      "normalized": false,
      "special": true
    },
    {
      "id": 21,
      "content": "[START_I_SMILES]",
      "single_word": false,
      "lstrip": false,
      "rstrip": false,
      "normalized": false,
      "special": true
    },
    {
      "id": 22,
      "content": "[END_I_SMILES]",
      "single_word": false,
      "lstrip": false,
      "rstrip": false,
      "normalized": false,
      "special": true
    }
  ],
  "normalizer": {
    "type": "NFKC"
  },
  "pre_tokenizer": {
    "type": "Sequence",
    "pretokenizers": [
      {
        "type": "Split",
        "pattern": {
          "String": "SPL1T-TH1S-Pl3A5E"
        },
        "behavior": "Removed",
        "invert": false
      },
      {
        "type": "Digits",
        "individual_digits": true
      },
      {
        "type": "Split",
        "pattern": {
          "Regex": "[\\(\\)\\[\\]\\{\\}]|([!\"\\#\\$%\\&'\\*\\+,\\-\\./:;<=>\\?\\\\\\^_`\\|\\~])\\1*"
        },
        "behavior": "Isolated",
        "invert": false
      },
      {
        "type": "Split",
        "pattern": {
          "String": "\n"
        },
        "behavior": "Isolated",
        "invert": false
      },
      {
        "type": "ByteLevel",
        "add_prefix_space": false,
        "trim_offsets": true,
        "use_regex": true
      }
    ]
  },
  "post_processor": {
    "type": "TemplateProcessing",
    "single": [
      {
        "SpecialToken": {
          "id": "<s>",
          "type_id": 0
        }
      },
      {
        "Sequence": {
          "id": "A",
          "type_id": 0
        }
      },
      {
        "SpecialToken": {
          "id": "</s>",
          "type_id": 0
        }
      }
    ],
    "pair": [
      {
        "Sequence": {
          "id": "A",
          "type_id": 0
        }
      },
      {
        "Sequence": {
          "id": "B",
          "type_id": 1
        }
      }
    ],
    "special_tokens": {
      "</s>": {
        "id": "</s>",
        "ids": [
          2
        ],
        "tokens": [
          "</s>"
        ]
      },
      "<s>": {
        "id": "<s>",
        "ids": [
          0
        ],
        "tokens": [
          "<s>"
        ]
      }
    }
  },
  "decoder": {
    "type": "ByteLevel",
    "add_prefix_space": true,
    "trim_offsets": true,
    "use_regex": true
  },
  "model": {
    "type": "BPE",
    "dropout": null,
    "unk_token":null,
    "continuing_subword_prefix": null,
    "end_of_word_suffix": null,
    "fuse_unk": false,
    "byte_fallback": false,
    "vocab": {
      "[PAD]": 0,
      "[CLS]": 1,
      "[SEP]": 2,
      "[MASK]": 3,
      "[UNK]": 4,
      "!": 5,
      "\"": 6,
      "#": 7,
      "$": 8,
      "%": 9,
      "&": 10,
      "'": 11,
      "(": 12,
      ")": 13,
      "*": 14,
      "+": 15,
      ",": 16,
      "-": 17,
      ".": 18,
      "/": 19,
      "0": 20,
      "1": 21,
      "2": 22,
      "3": 23,
      "4": 24,
      "5": 25,
      "6": 26,
      "7": 27,
      "8": 28,
      "9": 29,
      ":": 30,
      ";": 31,
      "<": 32,
      "=": 33,
      ">": 34,
      "?": 35,
      "@": 36,
      "A": 37,
      "B": 38,
      "C": 39,
      "D": 40,
      "E": 41,
      "F": 42,
      "G": 43,
      "H": 44,
      "I": 45,
      "J": 46,
      "K": 47,
      "L": 48,
      "M": 49,
      "N": 50,
      "O": 51,
      "P": 52,
      "Q": 53,
      "R": 54,
      "S": 55,
      "T": 56,
      "U": 57,
      "V": 58,
      "W": 59,
      "X": 60,
      "Y": 61,
      "Z": 62,
      "[": 63,
      "\\": 64,
      "]": 65,
      "^": 66,
      "_": 67,
      "`": 68,
      "a": 69,
      "b": 70,
      "c": 71,
      "d": 72,
      "e": 73,
      "f": 74,
      "g": 75,
      "h": 76,
      "i": 77,
      "j": 78,
      "k": 79,
      "l": 80,
      "m": 81,
      "n": 82,
      "o": 83,
      "p": 84,
      "q": 85,
      "r": 86,
      "s": 87,
      "t": 88,
      "u": 89,
      "v": 90,
      "w": 91,
      "x": 92,
      "y": 93,
      "z": 94,
      "{": 95,
      "|": 96,
      "}": 97,
      "~": 98,
      "¡": 99,
      "¢": 100,
      "£": 101,
      "¤": 102,
      "¥": 103,
      "¦": 104,
      "§": 105,
      "¨": 106,
      "©": 107,
      "ª": 108,
      "«": 109,
      "¬": 110,
      "®": 111,
      "¯": 112,
      "°": 113,
      "±": 114,
      "²": 115,
      "³": 116,
      "´": 117,
      "µ": 118,
      "¶": 119,
      "·": 120,
      "¸": 121,
      "¹": 122,
      "º": 123,
      "»": 124,
      "¼": 125,
      "½": 126,
      "¾": 127,
      "¿": 128,
      "Â": 129,
      "Ã": 130,
      "Ä": 131,
      "Å": 132,
      "Æ": 133,
      "Ç": 134,
      "È": 135,
      "É": 136,
      "Ê": 137,
      "Ë": 138,
      "Ì": 139,
      "Í": 140,
      "Î": 141,
      "Ï": 142,
      "Ð": 143,
      "Ñ": 144,
      "Ò": 145,
      "Ó": 146,
      "Ô": 147,
      "Õ": 148,
      "Ö": 149,
      "×": 150,
      "Ø": 151,
      "Ù": 152,
      "Ú": 153,
      "Û": 154,
      "á": 155,
      "â": 156,
      "ã": 157,
      "ä": 158,
      "å": 159,
      "æ": 160,
      "ç": 161,
      "è": 162,
      "é": 163,
      "ê": 164,
      "ë": 165,
      "ì": 166,
      "í": 167,
      "î": 168,
      "ï": 169,
      "ð": 170,
      "ô": 171,
      "Ā": 172,
      "ā": 173,
      "Ă": 174,
      "ă": 175,
      "Ą": 176,
      "ą": 177,
      "Ć": 178,
      "ć": 179,
      "Ĉ": 180,
      "ĉ": 181,
      "Ċ": 182,
      "ċ": 183,
      "Č": 184,
      "Ď": 185,
      "ď": 186,
      "Đ": 187,
      "đ": 188,
      "Ē": 189,
      "ē": 190,
      "Ĕ": 191,
      "ĕ": 192,
      "Ė": 193,
      "ė": 194,
      "Ę": 195,
      "ę": 196,
      "Ě": 197,
      "ě": 198,
      "Ĝ": 199,
      "ĝ": 200,
      "Ğ": 201,
      "ğ": 202,
      "Ġ": 203,
      "ġ": 204,
      "Ģ": 205,
      "ģ": 206,
      "Ĥ": 207,
      "ĥ": 208,
      "Ħ": 209,
      "ħ": 210,
      "Ĩ": 211,
      "ĩ": 212,
      "Ī": 213,
      "ī": 214,
      "Ĭ": 215,
      "ĭ": 216,
      "Į": 217,
      "į": 218,
      "İ": 219,
      "ı": 220,
      "Ĳ": 221,
      "ĳ": 222,
      "Ĵ": 223,
      "ĵ": 224,
      "Ķ": 225,
      "ķ": 226,
      "ĸ": 227,
      "Ĺ": 228,
      "ĺ": 229,
      "Ļ": 230,
      "ļ": 231,
      "Ľ": 232,
      "ľ": 233,
      "Ŀ": 234,
      "ŀ": 235,
      "Ł": 236,
      "ł": 237,
      "Ń": 238,
      "th": 239,
      "in": 240,
      "on": 241,
      "Ġa": 242,
      "Ġ\\": 243,
      "er": 244,
      "ti": 245,
      "Ġth": 246,
      "en": 247,
      "re": 248,
      "Ġthe": 249,
      "al": 250,
      "ĠĠ": 251,
      "te": 252,
      "or": 253,
      "Ġ$": 254,
      "Ġs": 255,
      "ar": 256,
      "Ġ{": 257,
      "an": 258,
      "bi": 259,
      "tion": 260,
      "Ġo": 261,
      "is": 262,
      "le": 263,
      "Ġc": 264,
      "me": 265,
      "Ġf": 266,
      "Ġan": 267,
      "Ġof": 268,
      "ma": 269,
      "ro": 270,
      "{\\": 271,
      "es": 272,
      "Ġp": 273,
      "Ġw": 274,
      "ta": 275,
      "be": 276,
      "Ġin": 277,
      "ra": 278,
      "ing": 279,
      "Ġand": 280,
      "de": 281,
      "},": 282,
      "Ġt": 283,
      "la": 284,
      "ig": 285,
      "ic": 286,
      "ĊĠ": 287,
      "_{": 288,
      "20": 289,
      "it": 290,
      "se": 291,
      "Ġe": 292,
      "at": 293,
      "ĠĠĠĠ": 294,
      "bib": 295,
      "lo": 296,
      "Ġd": 297,
      "Ġ$\\": 298,
      "Ġ(": 299,
      "}\\": 300,
      "si": 301,
      "mp": 302,
      "ve": 303,
      "Ġis": 304,
      "Ġto": 305,
      "ce": 306,
      "qu": 307,
      "Ġ&": 308,
      "ent": 309,
      "ol": 310,
      "Ġb": 311,
      "ch": 312,
      "ation": 313,
      "ame": 314,
      "Ġre": 315,
      "Ġn": 316,
      "st": 317,
      "ou": 318,
      ".~": 319,
      "}{": 320,
      "ct": 321,
      "tem": 322,
      "ont": 323,
      "Th": 324,
      "^{": 325,
      "Ġfor": 326,
      "ly": 327,
      "ed": 328,
      "ci": 329,
      "Ġ{\\": 330,
      "ha": 331,
      "Ġm": 332,
      "el": 333,
      "inf": 334,
      "}$": 335,
      "end": 336,
      "ĠS": 337,
      "su": 338,
      "un": 339,
      "font": 340,
      "201": 341,
      "et": 342,
      "amefont": 343,
      "ref": 344,
      "Ġg": 345,
      "ot": 346,
      "ri": 347,
      "(\\": 348,
      "ver": 349,
      "ction": 350,
      "Ġ1": 351,
      "ĠA": 352,
      "ith": 353,
      "}}": 354,
      "bitem": 355,
      "info": 356,
      "bibinfo": 357,
      "Ġthat": 358,
      "Ġbe": 359,
      "ck": 360,
      "ter": 361,
      "ur": 362,
      "ht": 363,
      "Ġon": 364,
      "au": 365,
      "ge": 366,
      "ne": 367,
      "ĠC": 368,
      "gin": 369,
      "math": 370,
      "ĠM": 371,
      "cal": 372,
      "bibitem": 373,
      "Ġcon": 374,
      "The": 375,
      "begin": 376,
      "um": 377,
      "Ġwe": 378,
      "ho": 379,
      ")$": 380,
      "rac": 381,
      "am": 382,
      "ĠI": 383,
      "ĠP": 384,
      "_{\\": 385,
      "ph": 386,
      "ted": 387,
      "Ġwith": 388,
      "Ġco": 389,
      "Ġde": 390,
      "Ġpro": 391,
      "li": 392,
      "xt": 393,
      "ight": 394,
      "frac": 395,
      "ul": 396,
      "Ġas": 397,
      "cite": 398,
      "namefont": 399,
      "pp": 400,
      "ys": 401,
      "bf": 402,
      "})": 403,
      "Ġi": 404,
      "res": 405,
      "ĠL": 406,
      "Ġal": 407,
      "as": 408,
      "Ġ0": 409,
      "}.": 410,
      "to": 411,
      "ity": 412,
      "10": 413,
      "us": 414,
      "and": 415,
      "ere": 416,
      "per": 417,
      "ĠR": 418,
      "Ġv": 419,
      "Ġma": 420,
      "ine": 421,
      "ble": 422,
      "thor": 423,
      "ĠF": 424,
      "ff": 425,
      "tic": 426,
      "Ġby": 427,
      "di": 428,
      "Ġmo": 429,
      "Ġwh": 430,
      "bel": 431,
      "Ġ=": 432,
      "il": 433,
      "new": 434,
      "ĠĠĠĠĠĠĠĠ": 435,
      "author": 436,
      "200": 437,
      "lock": 438,
      "equ": 439,
      "label": 440,
      "}(": 441,
      "ft": 442,
      ".,": 443,
      "Ġare": 444,
      "right": 445,
      "eq": 446,
      "co": 447,
      ",\\": 448,
      "ĠB": 449,
      "]{": 450,
      "Ġh": 451,
      "text": 452,
      "block": 453,
      "pa": 454,
      "ang": 455,
      "newblock": 456,
      "Ġex": 457,
      "pe": 458,
      "tr": 459,
      "ure": 460,
      "da": 461,
      "iv": 462,
      "del": 463,
      "$,": 464,
      "the": 465,
      "~\\": 466,
      "$.": 467,
      "ĠĠĠ": 468,
      "Ġsu": 469,
      "bibf": 470,
      "der": 471,
      "ĠH": 472,
      "im": 473,
      "ĠD": 474,
      "em": 475,
      "ut": 476,
      "mb": 477,
      "int": 478,
      "ir": 479,
      "19": 480,
      "}},": 481,
      "ad": 482,
      "--": 483,
      "left": 484,
      "ence": 485,
      "ĠThe": 486,
      "Ġl": 487,
      "ĠW": 488,
      "Ġha": 489,
      "ss": 490,
      ")\\": 491,
      "00": 492,
      "ĠT": 493,
      "Ġ2": 494,
      "ĠG": 495,
      "equation": 496,
      "ĠE": 497,
      "low": 498,
      "ĠN": 499,
      "id": 500,
      "time": 501,
      "tive": 502,
      "rom": 503,
      "iz": 504,
      "ga": 505,
      "od": 506,
      "for": 507,
      ".}": 508,
      "Ġme": 509,
      "Ġ-": 510,
      "ĠJ": 511,
      "rm": 512,
      "ich": 513,
      "pro": 514,
      "ĠIn": 515,
      "mu": 516,
      "ist": 517,
      "ant": 518,
      "our": 519,
      "ign": 520,
      "Ġcomp": 521,
      "pha": 522,
      "ep": 523,
      "^{\\": 524,
      "ow": 525,
      "tions": 526,
      "iel": 527,
      "du": 528,
      "lu": 529,
      "sion": 530,
      "om": 531,
      "Ġu": 532,
      "ore": 533,
      "bs": 534,
      "alpha": 535,
      "_\\": 536,
      "emp": 537,
      "}{\\": 538,
      "tial": 539,
      "Ġthis": 540,
      "dot": 541,
      "Ġfrom": 542,
      "ear": 543,
      "ield": 544,
      "Ġcan": 545,
      "ces": 546,
      "bibnamefont": 547,
      "Ġat": 548,
      "ase": 549,
      "Ġor": 550,
      "ome": 551,
      "fig": 552,
      "cit": 553,
      "ate": 554,
      "Ġ\\\\": 555,
      "vi": 556,
      "ment": 557,
      "ener": 558,
      "Ġ(\\": 559,
      "citen": 560,
      "ran": 561,
      "bibfnamefont": 562,
      "citenamefont": 563,
      "$\\": 564,
      "Ġpar": 565,
      "ber": 566,
      "Ġit": 567,
      "emph": 568,
      "Ġdi": 569,
      "ical": 570,
      "Ġ+": 571,
      "ty": 572,
      "=\\": 573,
      "amma": 574,
      "olu": 575,
      ")}": 576,
      "ari": 577,
      "line": 578,
      "-\\": 579,
      "Ġun": 580,
      "Ġse": 581,
      "Ġpo": 582,
      "Ġ[": 583,
      "Ġ3": 584,
      "ĠTh": 585,
      "oun": 586,
      "mathcal": 587,
      "hys": 588,
      ").": 589,
      "gra": 590,
      "ges": 591,
      "Ġle": 592,
      "par": 593,
      "ĠK": 594,
      "ts": 595,
      "}^{": 596,
      "mal": 597,
      "ach": 598,
      "ds": 599,
      "po": 600,
      "),": 601,
      "Ġwhich": 602,
      "igma": 603,
      "ell": 604,
      "how": 605,
      "ther": 606,
      "ĊĠĠĠ": 607,
      "con": 608,
      "phi": 609,
      "nal": 610,
      "12": 611,
      "pi": 612,
      "hi": 613,
      "}_": 614,
      "}^": 615,
      "times": 616,
      "act": 617,
      "Ġst": 618,
      "}_{": 619,
      "til": 620,
      "Ġhave": 621,
      "Ġapp": 622,
      "Ġne": 623,
      "so": 624,
      "lamb": 625,
      "of": 626,
      "lambda": 627,
      "tit": 628,
      "ary": 629,
      "Ġsta": 630,
      "xi": 631,
      "Ġmodel": 632,
      "ev": 633,
      "do": 634,
      "textbf": 635,
      "11": 636,
      "mple": 637,
      "Ġ201": 638,
      "up": 639,
      "lon": 640,
      "ap": 641,
      "Ġqu": 642,
      "unction": 643,
      "ke": 644,
      "ations": 645,
      "sed": 646,
      "ĊĠĠĠĠ": 647,
      "no": 648,
      "Ġ4": 649,
      "sum": 650,
      "ined": 651,
      "ics": 652,
      "+\\": 653,
      "^{-": 654,
      "ork": 655,
      "\\\\": 656,
      "ĠV": 657,
      "Ġno": 658,
      "ms": 659,
      "In": 660,
      "row": 661,
      "ini": 662,
      "Ġr": 663,
      "sigma": 664,
      "tation": 665,
      "ĠO": 666,
      "ournal": 667,
      "ular": 668,
      "alu": 669,
      "align": 670,
      "angle": 671,
      "sub": 672,
      "wo": 673,
      ".}~\\": 674,
      "hat": 675,
      "Ġet": 676,
      "cc": 677,
      "log": 678,
      "year": 679,
      "mo": 680,
      "Ġequ": 681,
      "bar": 682,
      "^\\": 683,
      "beta": 684,
      "Ġnot": 685,
      "ance": 686,
      "section": 687,
      "*}": 688,
      "son": 689,
      "are": 690,
      "ab": 691,
      "tilde": 692,
      "ĠU": 693,
      "umber": 694,
      "Ġk": 695,
      "ding": 696,
      "gamma": 697,
      "Ġch": 698,
      "we": 699,
      "psi": 700,
      "Ġfunction": 701,
      "Ġus": 702,
      "ous": 703,
      "ect": 704,
      "pl": 705,
      "rho": 706,
      "ens": 707,
      "mm": 708,
      "theta": 709,
      "$-": 710,
      "bb": 711,
      "ard": 712,
      "ata": 713,
      "ak": 714,
      "Ġinter": 715,
      "ray": 716,
      "big": 717,
      "sul": 718,
      "bu": 719,
      "ill": 720,
      "pace": 721,
      "13": 722,
      "eta": 723,
      "tes": 724,
      "ollow": 725,
      "ong": 726,
      "ĠWe": 727,
      "tau": 728,
      "Ġra": 729,
      "99": 730,
      "ru": 731,
      "Ġpa": 732,
      "Ġshow": 733,
      "delta": 734,
      "ps": 735,
      "ting": 736,
      "16": 737,
      "15": 738,
      "Ġall": 739,
      "nu": 740,
      "|\\": 741,
      "Ġdiff": 742,
      "leq": 743,
      "Ġper": 744,
      "dots": 745,
      "Ġdis": 746,
      "Ġ5": 747,
      "ystem": 748,
      "ion": 749,
      "os": 750,
      "lation": 751,
      "''": 752,
      ".\\": 753,
      "Ġfollow": 754,
      "clu": 755,
      "tical": 756,
      "ay": 757,
      "Ġresul": 758,
      "tri": 759,
      "Ġset": 760,
      "//": 761,
      "Ġone": 762,
      "href": 763,
      "able": 764,
      "We": 765,
      "set": 766,
      "htt": 767,
      "..": 768,
      "://": 769,
      "Ġdef": 770,
      "Ġ`": 771,
      "Ġgener": 772,
      "pt": 773,
      "fi": 774,
      "14": 775,
      "}$,": 776,
      "Ġcont": 777,
      "Ġar": 778,
      "igh": 779,
      "journal": 780,
      "red": 781,
      "Ġtwo": 782,
      "cri": 783,
      "Ġob": 784,
      "bo": 785,
      "fer": 786,
      "ni": 787,
      "sk": 788,
      "}(\\": 789,
      "eqref": 790,
      "yn": 791,
      "wh": 792,
      "Ġcor": 793,
      "graph": 794,
      "bibfield": 795,
      "[\\": 796,
      "Ġ}\\": 797,
      "over": 798,
      "infty": 799,
      "Ġ\\&": 800,
      "ory": 801,
      "Ġsuch": 802,
      "Ġla": 803,
      "mation": 804,
      "Ġdata": 805,
      "ĠĠĠĠĠĠĠĠĠĠĠĠĠĠĠĠ": 806,
      "ĠY": 807,
      "ors": 808,
      "man": 809,
      "EE": 810,
      "Ġstr": 811,
      "Bi": 812,
      "mathbf": 813,
      "array": 814,
      "ree": 815,
      "Ġhas": 816,
      "ark": 817,
      "rans": 818,
      "omega": 819,
      "21": 820,
      "ec": 821,
      "ers": 822,
      "ide": 823,
      "doi": 824,
      "volu": 825,
      "ex": 826,
      "Ġif": 827,
      "Ġlo": 828,
      "chi": 829,
      "ents": 830,
      "ties": 831,
      "ll": 832,
      "Ġspe": 833,
      "22": 834,
      "ĠPhys": 835,
      "Ġgiv": 836,
      "ated": 837,
      "Ġdist": 838,
      "}$.": 839,
      "ound": 840,
      "},\\": 841,
      "mathbb": 842,
      "all": 843,
      "199": 844,
      "Ġ``": 845,
      "Ġdiffer": 846,
      "pon": 847,
      "partial": 848,
      "Ġconst": 849,
      "les": 850,
      "Ġimp": 851,
      "Del": 852,
      "Ġwhere": 853,
      "org": 854,
      "app": 855,
      "ld": 856,
      "Ġalso": 857,
      "Ġli": 858,
      "pres": 859,
      "03": 860,
      "ort": 861,
      "ded": 862,
      "18": 863,
      "Bibitem": 864,
      "ov": 865,
      "ix": 866,
      "cess": 867,
      "item": 868,
      "figure": 869,
      "tain": 870,
      "ribu": 871,
      "Ġthere": 872,
      "bil": 873,
      "ew": 874,
      "pm": 875,
      "17": 876,
      "Ġx": 877,
      "Ġsystem": 878,
      "04": 879,
      "Ġres": 880,
      "if": 881,
      "quad": 882,
      "}},\\": 883,
      "ample": 884,
      "pen": 885,
      "Delta": 886,
      "Ġour": 887,
      "ĠX": 888,
      "Ġ200": 889,
      "ind": 890,
      "05": 891,
      "Ġnon": 892,
      "gh": 893,
      "ally": 894,
      "}[": 895,
      "Ġte": 896,
      "def": 897,
      "Ġvalu": 898,
      "02": 899,
      "Ġ}": 900,
      "ved": 901,
      "Ġbet": 902,
      "var": 903,
      "min": 904,
      "$$": 905,
      "Ġ6": 906,
      "orem": 907,
      "Ġthen": 908,
      "\\,": 909,
      "Ġen": 910,
      "rt": 911,
      "{{": 912,
      "cdot": 913,
      "bility": 914,
      "ast": 915,
      "ag": 916,
      "ĠZ": 917,
      "bser": 918,
      "ssi": 919,
      "Ġad": 920,
      "arrow": 921,
      "sition": 922,
      "irst": 923,
      "und": 924,
      "07": 925,
      "gy": 926,
      ")$.": 927,
      "ning": 928,
      "ulti": 929,
      "Ġdo": 930,
      "}}\\": 931,
      "ac": 932,
      "Ġcase": 933,
      "cre": 934,
      "sq": 935,
      "pend": 936,
      "Ġeach": 937,
      "eqn": 938,
      "Ġver": 939,
      "mathrm": 940,
      "led": 941,
      "ies": 942,
      "eng": 943,
      "Ġtime": 944,
      "form": 945,
      "ization": 946,
      "ctr": 947,
      "Ġgra": 948,
      "Ġes": 949,
      "title": 950,
      "work": 951,
      "Ġappro": 952,
      "ĊĠĠ": 953,
      "ba": 954,
      "ension": 955,
      "bra": 956,
      "sider": 957,
      "Ġonly": 958,
      "ves": 959,
      "tric": 960,
      "thod": 961,
      "ween": 962,
      "Ġsub": 963,
      "ameter": 964,
      "ould": 965,
      "06": 966,
      "tis": 967,
      "op": 968,
      "Ġwill": 969,
      "Ġ$(": 970,
      "^*": 971,
      "Ġvari": 972,
      "Ġeff": 973,
      "Ġpoint": 974,
      "ici": 975,
      "Ġdes": 976,
      "FF": 977,
      "ĠThis": 978,
      "Ġpre": 979,
      "Ġreg": 980,
      "sqrt": 981,
      "Ġev": 982,
      "Ġfield": 983,
      "Ġgiven": 984,
      "mit": 985,
      "ential": 986,
      "asu": 987,
      "roup": 988,
      "Ġtrans": 989,
      "Ġusing": 990,
      "ĠPro": 991,
      "Xiv": 992,
      "Ġnumber": 993,
      "23": 994,
      "silon": 995,
      "Ġbetween": 996,
      "ince": 997,
      "ze": 998,
      "ature": 999,
      "oth": 1000,
      "dition": 1001,
      "lic": 1002,
      "Ġta": 1003,
      "ger": 1004,
      "epsilon": 1005,
      "^{(": 1006,
      "pr": 1007,
      "where": 1008,
      "name": 1009,
      "25": 1010,
      "duce": 1011,
      "trix": 1012,
      "tex": 1013,
      "Ġele": 1014,
      "cu": 1015,
      ")$,": 1016,
      ".}\\": 1017,
      ")=": 1018,
      "08": 1019,
      "Phys": 1020,
      "Ġpres": 1021,
      "Ġcla": 1022,
      "ud": 1023,
      "out": 1024,
      "Ġsim": 1025,
      "mage": 1026,
      "Ġover": 1027,
      "No": 1028,
      "mall": 1029,
      "cted": 1030,
      "mega": 1031,
      "Ġy": 1032,
      "arge": 1033,
      "Ġthese": 1034,
      "Ġany": 1035,
      "tect": 1036,
      "Omega": 1037,
      "2020": 1038,
      "Ġobser": 1039,
      "Ġ7": 1040,
      "abs": 1041,
      "Ġanal": 1042,
      "09": 1043,
      "ise": 1044,
      "Ġter": 1045,
      "Gamma": 1046,
      "ĠLet": 1047,
      "pages": 1048,
      "ased": 1049,
      "Ġorder": 1050,
      "cent": 1051,
      "Ġhigh": 1052,
      "sh": 1053,
      "gor": 1054,
      "Ġso": 1055,
      "Ġz": 1056,
      "sec": 1057,
      "ĠCo": 1058,
      "Sh": 1059,
      "ue": 1060,
      "ize": 1061,
      "col": 1062,
      "ĠFig": 1063,
      "Ġconsider": 1064,
      "Ġro": 1065,
      "tab": 1066,
      "ym": 1067,
      "Ġsh": 1068,
      "Ġ10": 1069,
      "Ġother": 1070,
      ".}(": 1071,
      "Ġmethod": 1072,
      "ĠQ": 1073,
      "ments": 1074,
      "Ġline": 1075,
      "Ġ\\,": 1076,
      "Ġthan": 1077,
      "ctions": 1078,
      "volume": 1079,
      "}).": 1080,
      "Ġparameter": 1081,
      "ĠFor": 1082,
      "Ġtra": 1083,
      "Ġrela": 1084,
      "ish": 1085,
      "98": 1086,
      "Ġsome": 1087,
      "energy": 1088,
      "ee": 1089,
      "vers": 1090,
      "}_{\\": 1091,
      "Ġ8": 1092,
      "sim": 1093,
      "age": 1094,
      "top": 1095,
      "rangle": 1096,
      "Ġfirst": 1097,
      "ĠCon": 1098,
      "eqnarray": 1099,
      "art": 1100,
      "Ġmeasu": 1101,
      "Ġresults": 1102,
      "24": 1103,
      "ess": 1104,
      "Ġve": 1105,
      "}=": 1106,
      "Ġj": 1107,
      "ton": 1108,
      "Ġext": 1109,
      ")^": 1110,
      "etwork": 1111,
      "tern": 1112,
      "ose": 1113,
      "Ġspace": 1114,
      "ĠMa": 1115,
      "ject": 1116,
      "inite": 1117,
      "2018": 1118,
      "stra": 1119,
      "Ġpartic": 1120,
      "comm": 1121,
      "ĠRev": 1122,
      "clude": 1123,
      "non": 1124,
      "ia": 1125,
      "rightarrow": 1126,
      "subsection": 1127,
      "Ġcal": 1128,
      "respon": 1129,
      "2017": 1130,
      "den": 1131,
      "Ġuse": 1132,
      "Ġcomple": 1133,
      "&\\": 1134,
      "Ġmore": 1135,
      "01": 1136,
      "table": 1137,
      "Ġfact": 1138,
      "Ġfollowing": 1139,
      "ins": 1140,
      "97": 1141,
      "}^{\\": 1142,
      "tt": 1143,
      "geq": 1144,
      "ĊĠĠĠĠĠĠĠ": 1145,
      "ized": 1146,
      "ski": 1147,
      "fore": 1148,
      "ever": 1149,
      "2019": 1150,
      "Ġits": 1151,
      "Ġout": 1152,
      "33": 1153,
      "now": 1154,
      "amb": 1155,
      "http": 1156,
      "cy": 1157,
      "Big": 1158,
      "vide": 1159,
      "olds": 1160,
      "wide": 1161,
      "45": 1162,
      ".~\\": 1163,
      "als": 1164,
      "26": 1165,
      "ner": 1166,
      "Ġwas": 1167,
      "ĊĠĠĠĠĠĠĠĠ": 1168,
      "varphi": 1169,
      "ian": 1170,
      "Let": 1171,
      "ference": 1172,
      "lem": 1173,
      "ctive": 1174,
      "gorith": 1175,
      "Ġdistribu": 1176,
      "Ġcol": 1177,
      "Ġdifferent": 1178,
      "hen": 1179,
      "fic": 1180,
      "Ġused": 1181,
      "}}]{": 1182,
      "ĠRe": 1183,
      "Ġden": 1184,
      "Ġsa": 1185,
      "2016": 1186,
      "str": 1187,
      "cap": 1188,
      "Ġoper": 1189,
      "Ġproble": 1190,
      "35": 1191,
      "https": 1192,
      "proof": 1193,
      "ok": 1194,
      "75": 1195,
      "Ġwhen": 1196,
      "ox": 1197,
      "Ġsame": 1198,
      "ures": 1199,
      "Ġsolu": 1200,
      "ator": 1201,
      "Ġop": 1202,
      "ings": 1203,
      "Ġenergy": 1204,
      "ymme": 1205,
      "av": 1206,
      "uct": 1207,
      "ual": 1208,
      "Ġcur": 1209,
      "Ġsi": 1210,
      "formation": 1211,
      "ote": 1212,
      "}}{": 1213,
      "Ġunder": 1214,
      "Ġesti": 1215,
      "fa": 1216,
      "Ġcorrespon": 1217,
      "hline": 1218,
      "url": 1219,
      "38": 1220,
      "cC": 1221,
      "Ġstate": 1222,
      "og": 1223,
      "sc": 1224,
      "vel": 1225,
      "command": 1226,
      "ub": 1227,
      "ord": 1228,
      "Ġgeneral": 1229,
      "ynam": 1230,
      ".},": 1231,
      "2015": 1232,
      ")(": 1233,
      "):": 1234,
      "ctor": 1235,
      "est": 1236,
      "pla": 1237,
      "Ġlow": 1238,
      "Ġmulti": 1239,
      "ural": 1240,
      "Ġinte": 1241,
      "198": 1242,
      "Ġrepres": 1243,
      "ĊĊ": 1244,
      "For": 1245,
      "28": 1246,
      "95": 1247,
      "Ġscal": 1248,
      "graphics": 1249,
      "96": 1250,
      "Ġnetwork": 1251,
      "lab": 1252,
      "ai": 1253,
      "Ġ,": 1254,
      "vec": 1255,
      "antum": 1256,
      "Ġsign": 1257,
      "Ġrespe": 1258,
      "ases": 1259,
      "27": 1260,
      "old": 1261,
      "Ġmass": 1262,
      "cus": 1263,
      "Ġassu": 1264,
      "Ġbut": 1265,
      "rela": 1266,
      "'s": 1267,
      "tics": 1268,
      "}]{": 1269,
      "ry": 1270,
      "umer": 1271,
      "textit": 1272,
      "Ġinto": 1273,
      "Ġexist": 1274,
      "Ġstruct": 1275,
      "Ġpp": 1276,
      "Ġacc": 1277,
      "ĊĠĠĠĠĠ": 1278,
      "psilon": 1279,
      "lan": 1280,
      "lin": 1281,
      "ero": 1282,
      "pri": 1283,
      "ler": 1284,
      "36": 1285,
      "Ġform": 1286,
      "size": 1287,
      "ensity": 1288,
      "Ġpol": 1289,
      "langle": 1290,
      "2014": 1291,
      "Ġsp": 1292,
      "Ġcompu": 1293,
      "Ġsur": 1294,
      "2021": 1295,
      "ldots": 1296,
      "try": 1297,
      "ten": 1298,
      "Ġman": 1299,
      "Pro": 1300,
      "Ġho": 1301,
      "ans": 1302,
      "Phi": 1303,
      "bm": 1304,
      "ust": 1305,
      "34": 1306,
      "ilar": 1307,
      "EEE": 1308,
      "Ġproper": 1309,
      "ie": 1310,
      "Ġmodels": 1311,
      "comp": 1312,
      "cond": 1313,
      "Ġbound": 1314,
      "}),": 1315,
      "vare": 1316,
      "ysis": 1317,
      "ser": 1318,
      "[]{": 1319,
      "ational": 1320,
      "tro": 1321,
      "Ġbeen": 1322,
      "space": 1323,
      "tiv": 1324,
      "ining": 1325,
      "2013": 1326,
      "\\|": 1327,
      "one": 1328,
      "Ġtheir": 1329,
      "idth": 1330,
      "ĠComp": 1331,
      "overline": 1332,
      "vari": 1333,
      "Open": 1334,
      "Ġwork": 1335,
      "<$": 1336,
      "Ġlarge": 1337,
      "put": 1338,
      "Lamb": 1339,
      "Ġsmall": 1340,
      "Stop": 1341,
      "37": 1342,
      "Ġboth": 1343,
      ",''": 1344,
      "ection": 1345,
      ")}]{": 1346,
      "cript": 1347,
      "varepsilon": 1348,
      "Lambda": 1349,
      "Ġgroup": 1350,
      "ality": 1351,
      "BibitemOpen": 1352,
      "orph": 1353,
      "Ġfollows": 1354,
      "entation": 1355,
      "2012": 1356,
      "ij": 1357,
      "JcC": 1358,
      "ons": 1359,
      "gebra": 1360,
      "NoStop": 1361,
      "ann": 1362,
      "person": 1363,
      "ffici": 1364,
      "ormal": 1365,
      "Ġty": 1366,
      "Shut": 1367,
      "BibitemShut": 1368,
      "Re": 1369,
      "ving": 1370,
      "appa": 1371,
      "tained": 1372,
      "Ġmay": 1373,
      "Ġprocess": 1374,
      "dim": 1375,
      "che": 1376,
      "protect": 1377,
      "48": 1378,
      "Ġclass": 1379,
      "ura": 1380,
      "gr": 1381,
      "\\'": 1382,
      "Ġ[{\\": 1383,
      "Ġ|": 1384,
      "cor": 1385,
      "110": 1386,
      "nonumber": 1387,
      "Ġdescri": 1388,
      "Ġmin": 1389,
      "Ġuni": 1390,
      "ĠAn": 1391,
      "Ġstar": 1392,
      "kappa": 1393,
      "Ġlear": 1394,
      "Ġestima": 1395,
      "duced": 1396,
      "rc": 1397,
      "perim": 1398,
      "Ġvalue": 1399,
      "include": 1400,
      "Ġwell": 1401,
      "round": 1402,
      "uc": 1403,
      "Ġclo": 1404,
      "ugh": 1405,
      "65": 1406,
      "47": 1407,
      "provide": 1408,
      "nab": 1409,
      "includegraphics": 1410,
      "fy": 1411,
      "bove": 1412,
      "Ġfra": 1413,
      "Ġtheory": 1414,
      "Ġdefined": 1415,
      "Ġ--": 1416,
      ");": 1417,
      "{\\'": 1418,
      "bed": 1419,
      "providecommand": 1420,
      "}-": 1421,
      "ision": 1422,
      "Ġabove": 1423,
      "sing": 1424,
      "Ġsing": 1425,
      "Ġdepend": 1426,
      "Ġmag": 1427,
      "ength": 1428,
      "2011": 1429,
      "))": 1430,
      "Ġdire": 1431,
      "Ġequation": 1432,
      "Ġinde": 1433,
      "otimes": 1434,
      "har": 1435,
      "gorithm": 1436,
      "Ġac": 1437,
      "Ġsee": 1438,
      "logy": 1439,
      "nabla": 1440,
      "Ġvalues": 1441,
      "very": 1442,
      "mes": 1443,
      "ern": 1444,
      "Ġste": 1445,
      "image": 1446,
      "2010": 1447,
      "citep": 1448,
      "des": 1449,
      "ating": 1450,
      "err": 1451,
      "Ġmeasure": 1452,
      "Ġgraph": 1453,
      "Ġproblem": 1454,
      "Ġfe": 1455,
      "/\\": 1456,
      "Ġresult": 1457,
      "fra": 1458,
      "Ġapproach": 1459,
      "\\[": 1460,
      "tal": 1461,
      "An": 1462,
      "ective": 1463,
      "mi": 1464,
      "ism": 1465,
      "Ġder": 1466,
      "Ġlocal": 1467,
      "ative": 1468,
      "88": 1469,
      "ack": 1470,
      "ave": 1471,
      "inu": 1472,
      "Ġ{{": 1473,
      "Ġbi": 1474,
      "duction": 1475,
      "ile": 1476,
      "Ġradi": 1477,
      "Ġcho": 1478,
      "Ġexample": 1479,
      "Ġ199": 1480,
      "Ġau": 1481,
      "Ġconstant": 1482,
      "46": 1483,
      "med": 1484,
      "sta": 1485,
      "mn": 1486,
      "Ġshown": 1487,
      ".(": 1488,
      "script": 1489,
      "fied": 1490,
      "Ġhy": 1491,
      "\\%": 1492,
      "ency": 1493,
      "Li": 1494,
      "Ġmatrix": 1495,
      "93": 1496,
      "ymb": 1497,
      "he": 1498,
      "cm": 1499,
      "}]": 1500,
      "fter": 1501,
      "ula": 1502,
      "This": 1503,
      "Ġdistribution": 1504,
      "ple": 1505,
      "citeauthor": 1506,
      ")=\\": 1507,
      "cur": 1508,
      "mbox": 1509,
      "circ": 1510,
      "qui": 1511,
      "Ġobtain": 1512,
      "Ġcalcu": 1513,
      "lear": 1514,
      "2009": 1515,
      "Ġfinite": 1516,
      "Ġsatis": 1517,
      "exp": 1518,
      "citeauthoryear": 1519,
      "arXiv": 1520,
      "Ġpha": 1521,
      "ster": 1522,
      ")}\\": 1523,
      "ala": 1524,
      "inition": 1525,
      "redic": 1526,
      "Ġlinear": 1527,
      "ically": 1528,
      "sist": 1529,
      "ĠThen": 1530,
      "Sigma": 1531,
      "ĠarXiv": 1532,
      "ates": 1533,
      "-!": 1534,
      "ice": 1535,
      "see": 1536,
      "Ġfunctions": 1537,
      "position": 1538,
      "Ġ<": 1539,
      "}+": 1540,
      "Ġdensity": 1541,
      "\\!": 1542,
      "Ġquantum": 1543,
      "Ġterms": 1544,
      "width": 1545,
      "hang": 1546,
      "with": 1547,
      "tra": 1548,
      "ĠAs": 1549,
      "ceed": 1550,
      "Ġ)": 1551,
      "})$": 1552,
      "Ġopti": 1553,
      "ross": 1554,
      "Ġchar": 1555,
      "55": 1556,
      "Ġreal": 1557,
      "Ġeffect": 1558,
      "dis": 1559,
      "Ġsupp": 1560,
      "Ġiden": 1561,
      "Co": 1562,
      "}}$": 1563,
      "\\{": 1564,
      "[{{": 1565,
      "Ġdim": 1566,
      "ĠEq": 1567,
      "}}.": 1568,
      "Ġsuper": 1569,
      "Ġstructure": 1570,
      "andom": 1571,
      "29": 1572,
      ";\\": 1573,
      "ami": 1574,
      "ull": 1575,
      "Ġlimit": 1576,
      "ven": 1577,
      "ĠIt": 1578,
      "ently": 1579,
      "Ġanalysis": 1580,
      "As": 1581,
      "matrix": 1582,
      "rough": 1583,
      "ress": 1584,
      "67": 1585,
      "umn": 1586,
      "Ġem": 1587,
      "Ġ${\\": 1588,
      "owever": 1589,
      "prime": 1590,
      "Ġsol": 1591,
      "Ġparameters": 1592,
      "FFFF": 1593,
      "44": 1594,
      "less": 1595,
      "AS": 1596,
      "Ġsystems": 1597,
      "ene": 1598,
      "zeta": 1599,
      "Ġsc": 1600,
      "Ġdeter": 1601,
      "ymbol": 1602,
      "scriptsize": 1603,
      "2008": 1604,
      "urther": 1605,
      "ick": 1606,
      "Ġlearning": 1607,
      "main": 1608,
      "xim": 1609,
      "mon": 1610,
      "otential": 1611,
      "sitive": 1612,
      "Ġq": 1613,
      "its": 1614,
      "Ġsection": 1615,
      "Ġab": 1616,
      "Sch": 1617,
      "mark": 1618,
      "Ġsolution": 1619,
      "Ġobtained": 1620,
      "}=\\": 1621,
      "emma": 1622,
      "Rev": 1623,
      "Ġexperim": 1624,
      "chan": 1625,
      "ĠĊ": 1626,
      "ause": 1627,
      "ences": 1628,
      "Ġpossi": 1629,
      "ensional": 1630,
      "Ġincre": 1631,
      "Ġknow": 1632,
      "center": 1633,
      "Ġsimilar": 1634,
      "ĠUni": 1635,
      "\\]": 1636,
      "ĠCh": 1637,
      ")^{": 1638,
      "que": 1639,
      "Ġ:": 1640,
      "ĠTheorem": 1641,
      "anti": 1642,
      "Ġspeci": 1643,
      "ĠSo": 1644,
      "Ġtemp": 1645,
      "Ġpla": 1646,
      "Ġapproxi": 1647,
      "dic": 1648,
      "Ġ&=": 1649,
      "atex": 1650,
      "not": 1651,
      "atexlab": 1652,
      "Ġdynam": 1653,
      "van": 1654,
      "Ġregion": 1655,
      "{}": 1656,
      "Ġed": 1657,
      "Ġflu": 1658,
      "ial": 1659,
      "tations": 1660,
      "Ġsymme": 1661,
      "Ġpaper": 1662,
      "Ġstates": 1663,
      "Ġspectr": 1664,
      "){": 1665,
      "face": 1666,
      "duct": 1667,
      "inal": 1668,
      "Ġsecond": 1669,
      "Ġup": 1670,
      "ctively": 1671,
      "Ġmost": 1672,
      "Ġcorre": 1673,
      "udy": 1674,
      "Ġwere": 1675,
      "xiv": 1676,
      "tter": 1677,
      "widetilde": 1678,
      "ĠConference": 1679,
      "Ġsum": 1680,
      "volution": 1681,
      "De": 1682,
      "asi": 1683,
      "ough": 1684,
      "istic": 1685,
      "Ġparticular": 1686,
      "77": 1687,
      "Ġsince": 1688,
      "Ġdiscus": 1689,
      "Ġthree": 1690,
      "ented": 1691,
      "ower": 1692,
      "natexlab": 1693,
      "Ġobserv": 1694,
      "94": 1695,
      "ograph": 1696,
      "Ġpredic": 1697,
      "Ġcorresponding": 1698,
      "tice": 1699,
      "cs": 1700,
      "Ġcondition": 1701,
      "}}}": 1702,
      "].": 1703,
      "Ġproof": 1704,
      "Ġphase": 1705,
      "Ġbased": 1706,
      "2007": 1707,
      "85": 1708,
      "Con": 1709,
      "print": 1710,
      "lies": 1711,
      "ads": 1712,
      "arxiv": 1713,
      "netic": 1714,
      "Ġcompon": 1715,
      "erature": 1716,
      "...": 1717,
      "~~": 1718,
      "ĠLi": 1719,
      "mid": 1720,
      "})}\\": 1721,
      "Ġsample": 1722,
      "Ġproba": 1723,
      "Ġran": 1724,
      "Ġsequ": 1725,
      ".-": 1726,
      "Ġinf": 1727,
      "tabular": 1728,
      "2006": 1729,
      "fication": 1730,
      "$)": 1731,
      "ival": 1732,
      "})\\": 1733,
      "Ġrequi": 1734,
      "Ġthey": 1735,
      "cdots": 1736,
      "30": 1737,
      "rol": 1738,
      "wa": 1739,
      "86": 1740,
      "ii": 1741,
      "ste": 1742,
      "Ġevery": 1743,
      "acter": 1744,
      "ĠSci": 1745,
      "ticle": 1746,
      "[{": 1747,
      "verse": 1748,
      "ĠAl": 1749,
      "Ġperform": 1750,
      "={": 1751,
      "Ġcomplex": 1752,
      "Ġnew": 1753,
      "Ġhow": 1754,
      "Ġpri": 1755,
      "vious": 1756,
      "ness": 1757,
      "ive": 1758,
      "ĠLett": 1759,
      "tur": 1760,
      "iod": 1761,
      "Ġidenti": 1762,
      "io": 1763,
      "ines": 1764,
      "Ġvol": 1765,
      "rop": 1766,
      "90": 1767,
      "let": 1768,
      "tom": 1769,
      "Ġwould": 1770,
      "Ġexp": 1771,
      "Psi": 1772,
      "Ġ\\{": 1773,
      "Ġlet": 1774,
      "ki": 1775,
      "^+": 1776,
      "mul": 1777,
      "Ġ.": 1778,
      "uch": 1779,
      "base": 1780,
      "Ġvector": 1781,
      "Ġpropo": 1782,
      "&=": 1783,
      "thm": 1784,
      "Ġthrough": 1785,
      "Ġpotential": 1786,
      "Ġvariable": 1787,
      "Ġconstru": 1788,
      "qquad": 1789,
      "Ġcalcula": 1790,
      "Ġstudy": 1791,
      "Ver": 1792,
      "versity": 1793,
      "plit": 1794,
      "Ġspa": 1795,
      "note": 1796,
      "32": 1797,
      "max": 1798,
      "Ġcontinu": 1799,
      "yer": 1800,
      "Ġrandom": 1801,
      "ĠIf": 1802,
      "mpl": 1803,
      "orm": 1804,
      "ink": 1805,
      "ĠApp": 1806,
      "itial": 1807,
      "ography": 1808,
      "66": 1809,
      "Ġalgebra": 1810,
      "Ġequations": 1811,
      "inter": 1812,
      "ixed": 1813,
      "}|": 1814,
      "ili": 1815,
      "rit": 1816,
      "itu": 1817,
      "loc": 1818,
      "dx": 1819,
      "ĠDe": 1820,
      "Ma": 1821,
      "Ġdec": 1822,
      "Ġph": 1823,
      "ceedings": 1824,
      "Ġalgorithm": 1825,
      "{-": 1826,
      "Ġ[\\": 1827,
      "mula": 1828,
      "Ġpoints": 1829,
      "Ġsour": 1830,
      "87": 1831,
      "Ġhe": 1832,
      "40": 1833,
      "}:": 1834,
      "Ġintro": 1835,
      "by": 1836,
      "Ġminim": 1837,
      "lemma": 1838,
      "mod": 1839,
      "Ġdoes": 1840,
      "pendent": 1841,
      "lat": 1842,
      "To": 1843,
      "tational": 1844,
      "relax": 1845,
      "fo": 1846,
      "vid": 1847,
      "2005": 1848,
      "spe": 1849,
      "view": 1850,
      "Ġfind": 1851,
      "rid": 1852,
      "pre": 1853,
      "Ch": 1854,
      "soci": 1855,
      "Ġrespectively": 1856,
      ")]": 1857,
      "Ġ20": 1858,
      "Ġdue": 1859,
      "earch": 1860,
      "action": 1861,
      "Ġshows": 1862,
      "Ġsingle": 1863,
      "Ġcou": 1864,
      "}\\,": 1865,
      "color": 1866,
      "oh": 1867,
      "skip": 1868,
      "Ġwhile": 1869,
      "mer": 1870,
      "Ġcent": 1871,
      "ĠMe": 1872,
      "linear": 1873,
      "bibli": 1874,
      "ese": 1875,
      "frak": 1876,
      "Fig": 1877,
      "ĠIEEE": 1878,
      "gre": 1879,
      "Ġtri": 1880,
      "Ġmap": 1881,
      "ulation": 1882,
      "bibliography": 1883,
      "Ġinformation": 1884,
      "logical": 1885,
      "ron": 1886,
      "Ġpair": 1887,
      "ators": 1888,
      "{(": 1889,
      "PhysRev": 1890,
      "cing": 1891,
      "Ġinitial": 1892,
      "prop": 1893,
      "ĠCompu": 1894,
      "vert": 1895,
      "eps": 1896,
      "stru": 1897,
      "50": 1898,
      "Ġ$(\\": 1899,
      "Ġexpe": 1900,
      "Ġ>": 1901,
      "Ġ&\\": 1902,
      "Ġelectr": 1903,
      "Ġmaxim": 1904,
      "Ġconsist": 1905,
      "ditions": 1906,
      "Ġexpres": 1907,
      "Ġcomm": 1908,
      "Ġplan": 1909,
      "Ġspin": 1910,
      "ental": 1911,
      "64": 1912,
      "ĠLemma": 1913,
      "ission": 1914,
      "\\\"": 1915,
      "Al": 1916,
      "ST": 1917,
      "39": 1918,
      "}\\\\": 1919,
      "Ġnow": 1920,
      "Ġvery": 1921,
      "cos": 1922,
      "thebibliography": 1923,
      "Ġerr": 1924,
      "Ġcontain": 1925,
      "subset": 1926,
      "tivity": 1927,
      "AC": 1928,
      "Ġconstra": 1929,
      "Ġfre": 1930,
      "mages": 1931,
      "inger": 1932,
      "ĠĠĠĠĠ": 1933,
      "Ġclu": 1934,
      "plic": 1935,
      "ption": 1936,
      "Ġterm": 1937,
      "ful": 1938,
      "valu": 1939,
      "cause": 1940,
      "effici": 1941,
      "2004": 1942,
      "ĠMath": 1943,
      "sin": 1944,
      "Ġboun": 1945,
      "erefore": 1946,
      "Ġ($": 1947,
      "}^{(": 1948,
      "}^\\": 1949,
      "Ġdimension": 1950,
      "ternational": 1951,
      "ific": 1952,
      "Ġconne": 1953,
      "bolds": 1954,
      "Ġge": 1955,
      "}{{\\": 1956,
      "}+\\": 1957,
      "ob": 1958,
      "Ġproperties": 1959,
      "amily": 1960,
      "sive": 1961,
      "Ġgo": 1962,
      "Ġsize": 1963,
      "ĠHowever": 1964,
      "Ġent": 1965,
      "Ġmain": 1966,
      "mann": 1967,
      "II": 1968,
      "mag": 1969,
      "dimensional": 1970,
      "197": 1971,
      "Ġtak": 1972,
      "1103": 1973,
      "Ġaddition": 1974,
      "ĠSection": 1975,
      "Ġstrong": 1976,
      "Ġmethods": 1977,
      "sen": 1978,
      "boldsymbol": 1979,
      "omorph": 1980,
      "ets": 1981,
      "Ġcharacter": 1982,
      "lish": 1983,
      "dd": 1984,
      "ani": 1985,
      "udi": 1986,
      "actions": 1987,
      "ĠĠĠĠĠĠĠĠĠĠĠĠĠĠĠĠĠĠĠĠĠĠĠĠĠĠĠĠĠĠĠĠ": 1988,
      "Ġpossible": 1989,
      "atures": 1990,
      "Ġdefine": 1991,
      "appro": 1992,
      "lack": 1993,
      "hep": 1994,
      "variant": 1995,
      "ras": 1996,
      "ĠTo": 1997,
      "andard": 1998,
      "Ġtran": 1999,
      "Ġzero": 2000,
      "57": 2001,
      "Ġpart": 2002,
      "cup": 2003,
      "arg": 2004,
      "]$": 2005,
      "Ġinclu": 2006,
      "Ġfound": 2007,
      ")-": 2008,
      "}-\\": 2009,
      "|^": 2010,
      "which": 2011,
      "equiv": 2012,
      "oll": 2013,
      "Ġrate": 2014,
      "Ġprobability": 2015,
      "Ġpresent": 2016,
      ")]{": 2017,
      "Ġ-\\": 2018,
      "Ġexists": 2019,
      "Ġ9": 2020,
      "68": 2021,
      "Ġobject": 2022,
      "Ġlevel": 2023,
      "31": 2024,
      "Ġallow": 2025,
      "arch": 2026,
      "ali": 2027,
      "Ġimage": 2028,
      "Ġassoci": 2029,
      "Ġconditions": 2030,
      "En": 2031,
      "Ġcontribu": 2032,
      "2003": 2033,
      "por": 2034,
      "Ġpositive": 2035,
      "Ġtype": 2036,
      "ymp": 2037,
      "indent": 2038,
      "ane": 2039,
      "Ġmean": 2040,
      "Ġnetworks": 2041,
      ")}{": 2042,
      "Ġapplic": 2043,
      "Ġgala": 2044,
      "neq": 2045,
      "&&": 2046,
      "dag": 2047,
      "Ġpower": 2048,
      "under": 2049,
      "aris": 2050,
      "rent": 2051,
      "Ġfa": 2052,
      "ĠĠĠĠĠĠ": 2053,
      "Ġback": 2054,
      "Ġequival": 2055,
      "ĠMo": 2056,
      "Ġobserved": 2057,
      "sequ": 2058,
      "Ġoperator": 2059,
      "apj": 2060,
      "ĠUniversity": 2061,
      "utr": 2062,
      "star": 2063,
      "Ġbecause": 2064,
      "foot": 2065,
      "path": 2066,
      "ino": 2067,
      "Ġindic": 2068,
      "Ġnormal": 2069,
      "onal": 2070,
      "Pi": 2071,
      "ka": 2072,
      "mathfrak": 2073,
      "ward": 2074,
      "verg": 2075,
      "Ġfactor": 2076,
      "Ġeven": 2077,
      "atter": 2078,
      "sions": 2079,
      "war": 2080,
      "Ġpages": 2081,
      "49": 2082,
      "Ġphys": 2083,
      "Ġneed": 2084,
      "gram": 2085,
      "SS": 2086,
      "hift": 2087,
      "Ġquanti": 2088,
      "cer": 2089,
      "show": 2090,
      "Ġsem": 2091,
      "'$": 2092,
      "ĠSch": 2093,
      "ĠFigure": 2094,
      "Ġbas": 2095,
      "xy": 2096,
      "havi": 2097,
      "ech": 2098,
      "Ġdete": 2099,
      "ĠĊĠ": 2100,
      "based": 2101,
      "tically": 2102,
      "small": 2103,
      "gs": 2104,
      "field": 2105,
      "velo": 2106,
      "Ġsimple": 2107,
      "Ġcomb": 2108,
      "Ġtest": 2109,
      "Ġboundary": 2110,
      "2002": 2111,
      "ced": 2112,
      "Ġassume": 2113,
      "val": 2114,
      "hu": 2115,
      "angu": 2116,
      "verage": 2117,
      "inci": 2118,
      "]\\": 2119,
      "oint": 2120,
      "43": 2121,
      "Ġser": 2122,
      "berg": 2123,
      "$^{": 2124,
      "}}(": 2125,
      "It": 2126,
      ")},": 2127,
      "ww": 2128,
      "56": 2129,
      "Ġphot": 2130,
      "ley": 2131,
      "58": 2132,
      "uting": 2133,
      "Ġshould": 2134,
      "ords": 2135,
      "aul": 2136,
      "own": 2137,
      "{\\\"": 2138,
      "unct": 2139,
      "noindent": 2140,
      "Ġanaly": 2141,
      "widehat": 2142,
      "ĠMS": 2143,
      "ko": 2144,
      "Ġthus": 2145,
      "scal": 2146,
      "Ġimport": 2147,
      "Ġformula": 2148,
      "Ġabout": 2149,
      "com": 2150,
      "footnote": 2151,
      "citet": 2152,
      "Ġlong": 2153,
      "lied": 2154,
      "raw": 2155,
      "ĠRes": 2156,
      "bal": 2157,
      "Ġstra": 2158,
      "ass": 2159,
      "Ġfixed": 2160,
      "Ġ/": 2161,
      "Ġtotal": 2162,
      "theorem": 2163,
      "attern": 2164,
      "ao": 2165,
      "enti": 2166,
      "Ġdenote": 2167,
      "Le": 2168,
      "Ġsequence": 2169,
      "Ġhigher": 2170,
      "Ġlower": 2171,
      "}}{\\": 2172,
      "Ġhand": 2173,
      "doibase": 2174,
      "cial": 2175,
      "olumn": 2176,
      "ĠOn": 2177,
      "Ġdeta": 2178,
      "yle": 2179,
      "2001": 2180,
      "phys": 2181,
      "Ġwho": 2182,
      "Ġprevious": 2183,
      "caption": 2184,
      ".;": 2185,
      "annel": 2186,
      "\\,\\": 2187,
      "ĠInternational": 2188,
      "tch": 2189,
      "Ġ\\|": 2190,
      "Ġfrequ": 2191,
      "ĠJournal": 2192,
      "ordin": 2193,
      "Ġlar": 2194,
      "ount": 2195,
      "$}": 2196,
      "ĠNe": 2197,
      "Ġsurface": 2198,
      "xis": 2199,
      "Ġmagnetic": 2200,
      "Ġmany": 2201,
      "order": 2202,
      "Ġcontrol": 2203,
      "Ġang": 2204,
      ")}$": 2205,
      "multic": 2206,
      "Ġ$-": 2207,
      "Ġdeterm": 2208,
      "Ġframe": 2209,
      "Ġevalu": 2210,
      "Ġsimp": 2211,
      "ris": 2212,
      "Ġam": 2213,
      "ict": 2214,
      "2000": 2215,
      "ange": 2216,
      "umerate": 2217,
      "group": 2218,
      "Ġimplies": 2219,
      "}_\\": 2220,
      "Ġget": 2221,
      "/}": 2222,
      "sp": 2223,
      "ĠĠĠĠĠĠĠ": 2224,
      "aff": 2225,
      "bit": 2226,
      "ĠTrans": 2227,
      "tein": 2228,
      "imp": 2229,
      "Ġcompare": 2230,
      "gener": 2231,
      "igen": 2232,
      "multicolumn": 2233,
      "Ġdirect": 2234,
      "Ġrespect": 2235,
      "Ġtech": 2236,
      "Ġcoeffici": 2237,
      "upp": 2238,
      "63": 2239,
      "Ġrange": 2240,
      "Ġsimula": 2241,
      "Ġvia": 2242,
      "ĠPhysics": 2243,
      "box": 2244,
      "If": 2245,
      "enumerate": 2246,
      "Ġ_{": 2247,
      "CM": 2248,
      "sure": 2249,
      "Ġbehavi": 2250,
      "Ġstandard": 2251,
      "Ġtemperature": 2252,
      "ĠSince": 2253,
      "Ġwave": 2254,
      "000": 2255,
      "AP": 2256,
      "Ġperformance": 2257,
      "Ġsolutions": 2258,
      "wise": 2259,
      "Ġabs": 2260,
      "sf": 2261,
      "Ġmon": 2262,
      "Ġwithin": 2263,
      "ĠÃ": 2264,
      "60": 2265,
      "titu": 2266,
      "78": 2267,
      "lying": 2268,
      "ĠThus": 2269,
      "zz": 2270,
      "ash": 2271,
      "edu": 2272,
      "Ġflow": 2273,
      "Ġconstraint": 2274,
      "lli": 2275,
      "Ġoptim": 2276,
      "stract": 2277,
      "Ġorig": 2278,
      "Ġend": 2279,
      "Ġway": 2280,
      "Ġlike": 2281,
      "Ġfields": 2282,
      "Ġlength": 2283,
      "\\}$": 2284,
      "Ġhere": 2285,
      "ond": 2286,
      "IEEE": 2287,
      "100": 2288,
      "Ġtyp": 2289,
      "ui": 2290,
      "Ġnumer": 2291,
      "style": 2292,
      "inally": 2293,
      "Ġassociated": 2294,
      "ensor": 2295,
      "itemize": 2296,
      ")+": 2297,
      "Ġcould": 2298,
      "ynom": 2299,
      "2022": 2300,
      "gree": 2301,
      "go": 2302,
      "Ġsignific": 2303,
      "ah": 2304,
      "mooth": 2305,
      "CC": 2306,
      "~$": 2307,
      "aw": 2308,
      "Ġ15": 2309,
      "Ġdeno": 2310,
      "pJ": 2311,
      "sel": 2312,
      "NR": 2313,
      "Ġproposed": 2314,
      "anguage": 2315,
      "Ġright": 2316,
      "69": 2317,
      "lim": 2318,
      "Ġ2018": 2319,
      "On": 2320,
      "Ġstudi": 2321,
      "Ġsele": 2322,
      "Ne": 2323,
      "thema": 2324,
      "edge": 2325,
      "itude": 2326,
      "bigg": 2327,
      "Ġaction": 2328,
      "ket": 2329,
      "Ġpr": 2330,
      "Ġsep": 2331,
      "Ġcoupl": 2332,
      "0000": 2333,
      "fies": 2334,
      ".}{": 2335,
      "Ġgeome": 2336,
      "Ġprove": 2337,
      "ano": 2338,
      "Ġscale": 2339,
      "ĠNo": 2340,
      "sto": 2341,
      "42": 2342,
      "atural": 2343,
      "Ġpath": 2344,
      "Ġcases": 2345,
      "mate": 2346,
      "Ġlat": 2347,
      "locity": 2348,
      "41": 2349,
      "approx": 2350,
      "tio": 2351,
      "ier": 2352,
      "Ġemp": 2353,
      "gen": 2354,
      "tices": 2355,
      "ĠBy": 2356,
      "Ġcross": 2357,
      "split": 2358,
      "Ġexact": 2359,
      "cont": 2360,
      "tional": 2361,
      "mits": 2362,
      "Ġintegr": 2363,
      "eck": 2364,
      "Ġbeco": 2365,
      "Ġeffective": 2366,
      "velop": 2367,
      "Ġproduct": 2368,
      "Ġtheorem": 2369,
      "cle": 2370,
      "eV": 2371,
      "ca": 2372,
      "vis": 2373,
      "Ġmoment": 2374,
      "csname": 2375,
      "Ġthose": 2376,
      "Ġclassi": 2377,
      "),\\": 2378,
      "gain": 2379,
      "Ġelement": 2380,
      "Ġmust": 2381,
      "mcite": 2382,
      "ele": 2383,
      "ĠAd": 2384,
      "Ġdistance": 2385,
      "Ġfurther": 2386,
      "Ġrelation": 2387,
      "Ġ\\;": 2388,
      "ses": 2389,
      "Ġocc": 2390,
      "Ġerror": 2391,
      "temp": 2392,
      "^-": 2393,
      "Ġ2017": 2394,
      "80": 2395,
      "lass": 2396,
      "89": 2397,
      "_+": 2398,
      "Ġdefinition": 2399,
      "Ġweak": 2400,
      "bert": 2401,
      "Ġ2019": 2402,
      "hspace": 2403,
      "ffer": 2404,
      "teq": 2405,
      "odes": 2406,
      "Ġrelative": 2407,
      "Ġthem": 2408,
      "ks": 2409,
      "Ġav": 2410,
      "Ġintegra": 2411,
      "multi": 2412,
      "her": 2413,
      "bin": 2414,
      "olution": 2415,
      "df": 2416,
      ",-": 2417,
      "Ġsha": 2418,
      "Mo": 2419,
      "Theta": 2420,
      "vol": 2421,
      "EP": 2422,
      "SA": 2423,
      "Ġfit": 2424,
      "Ġcontra": 2425,
      "(-": 2426,
      "play": 2427,
      "ither": 2428,
      "ilton": 2429,
      "$_": 2430,
      "Ġ{}": 2431,
      "ros": 2432,
      "ln": 2433,
      "Ġalong": 2434,
      "Ġreco": 2435,
      "plus": 2436,
      "Ġinput": 2437,
      "^{-\\": 2438,
      "Ġvis": 2439,
      "Ġspectrum": 2440,
      "ĠRo": 2441,
      "Ġsche": 2442,
      "mption": 2443,
      "Ġimpro": 2444,
      "Ġappear": 2445,
      "itz": 2446,
      "CD": 2447,
      "bul": 2448,
      "Ġimportant": 2449,
      "PR": 2450,
      "rr": 2451,
      "asing": 2452,
      "lev": 2453,
      "Ġhyper": 2454,
      "ati": 2455,
      "Ġinst": 2456,
      "Ġknown": 2457,
      "]{\\": 2458,
      "tor": 2459,
      "Ġevolution": 2460,
      "Ġbelow": 2461,
      "Ġneutr": 2462,
      "uring": 2463,
      "Ġmodu": 2464,
      "ĠEn": 2465,
      "olume": 2466,
      "vergence": 2467,
      "Ġsepar": 2468,
      "Ġfree": 2469,
      "Ġsen": 2470,
      "Ġelements": 2471,
      "ĠMathema": 2472,
      "auge": 2473,
      "Ġsignificant": 2474,
      "that": 2475,
      "Ġgives": 2476,
      "Ġinequ": 2477,
      "matic": 2478,
      "ĠSta": 2479,
      "Ġ$\\{": 2480,
      "Ġide": 2481,
      "elf": 2482,
      "Ġleft": 2483,
      "ral": 2484,
      "Wang": 2485,
      "osi": 2486,
      "prod": 2487,
      "omin": 2488,
      "gative": 2489,
      "Ġstars": 2490,
      "Ġrepresentation": 2491,
      "Ġwithout": 2492,
      "Ġke": 2493,
      "tative": 2494,
      "NN": 2495,
      "Ġperiod": 2496,
      "textrm": 2497,
      "fe": 2498,
      "Ġdynamics": 2499,
      "lot": 2500,
      "Ġunit": 2501,
      "kov": 2502,
      "alle": 2503,
      "Ġweight": 2504,
      "BI": 2505,
      "back": 2506,
      "Ġcoordin": 2507,
      "By": 2508,
      "Ġpolynom": 2509,
      "vard": 2510,
      ")|": 2511,
      "ling": 2512,
      "Ġarg": 2513,
      "Ġdescribed": 2514,
      "Ġeigen": 2515,
      "79": 2516,
      "Ġholds": 2517,
      "article": 2518,
      "ety": 2519,
      "Ġband": 2520,
      "Ġfour": 2521,
      "oreover": 2522,
      "53": 2523,
      "<\\": 2524,
      "Ġtraining": 2525,
      "Ġafter": 2526,
      "Ġestimate": 2527,
      "ground": 2528,
      "Ġderiv": 2529,
      "Ġvi": 2530,
      "51": 2531,
      "Ġcontinuous": 2532,
      "\\}": 2533,
      "Ġsource": 2534,
      "ault": 2535,
      "Ġact": 2536,
      "sci": 2537,
      ":\\": 2538,
      "point": 2539,
      "reg": 2540,
      "ater": 2541,
      "ime": 2542,
      "jective": 2543,
      "84": 2544,
      "erg": 2545,
      "Ġchannel": 2546,
      "ages": 2547,
      "Ġcomplete": 2548,
      "Ġindependent": 2549,
      "dagger": 2550,
      "Ġbin": 2551,
      "Ġ$|": 2552,
      "76": 2553,
      "Ġref": 2554,
      "minus": 2555,
      "lobal": 2556,
      ".~{": 2557,
      "59": 2558,
      "Ġmetric": 2559,
      "73": 2560,
      "Ġspect": 2561,
      "Ġloss": 2562,
      "Ġcy": 2563,
      "Ġtimes": 2564,
      "FFFFFFFF": 2565,
      "Ġlight": 2566,
      "He": 2567,
      "Ġtur": 2568,
      "[{\\": 2569,
      "Ġnear": 2570,
      "_{(": 2571,
      "Ġmechan": 2572,
      "abstract": 2573,
      "seteq": 2574,
      "Ro": 2575,
      "xies": 2576,
      "Ġconsidered": 2577,
      "pper": 2578,
      "Ġsatisfy": 2579,
      "54": 2580,
      "las": 2581,
      "earning": 2582,
      "Ġvelocity": 2583,
      "Ġ2016": 2584,
      "Ġoperators": 2585,
      "1999": 2586,
      "Ġsets": 2587,
      "ystems": 2588,
      "Ġvariables": 2589,
      "alty": 2590,
      "Ġnote": 2591,
      "Ġ2020": 2592,
      "net": 2593,
      "Ġcir": 2594,
      "ils": 2595,
      "Ġlarger": 2596,
      "Ġ12": 2597,
      "_{-": 2598,
      "Ġsymmetry": 2599,
      "Ġedge": 2600,
      "83": 2601,
      "harvard": 2602,
      "Ġ198": 2603,
      "book": 2604,
      "nm": 2605,
      "ĠTherefore": 2606,
      "map": 2607,
      "1998": 2608,
      "Ġfeatures": 2609,
      "Then": 2610,
      "70": 2611,
      "pping": 2612,
      "Ġleast": 2613,
      "ik": 2614,
      "va": 2615,
      "mic": 2616,
      "Ġaverage": 2617,
      "Ġtopo": 2618,
      "amilton": 2619,
      "osition": 2620,
      "ances": 2621,
      "Ġtherefore": 2622,
      "aila": 2623,
      "Ġcluster": 2624,
      "Ġtransition": 2625,
      "ading": 2626,
      "Ġsubs": 2627,
      "sup": 2628,
      "Ġbo": 2629,
      "norm": 2630,
      "vspace": 2631,
      "Ġtask": 2632,
      "_*": 2633,
      "gni": 2634,
      "more": 2635,
      "mnras": 2636,
      "Ġ\\(": 2637,
      "rite": 2638,
      "ult": 2639,
      "Since": 2640,
      "ording": 2641,
      "ĠComputer": 2642,
      "Ġneural": 2643,
      "like": 2644,
      "long": 2645,
      "Ex": 2646,
      "cept": 2647,
      "subseteq": 2648,
      "Ġyield": 2649,
      "Ġbeing": 2650,
      "Ġcomponent": 2651,
      "Ġeffici": 2652,
      "AR": 2653,
      "Ġcurrent": 2654,
      "Ad": 2655,
      "ived": 2656,
      "Ġstep": 2657,
      "Ġconf": 2658,
      "ĠQu": 2659,
      "dt": 2660,
      "'\\": 2661,
      "crete": 2662,
      "AA": 2663,
      "{$": 2664,
      "Ġ\\@": 2665,
      "Ġapproximation": 2666,
      "Ġstatis": 2667,
      "Ġflux": 2668,
      "Ġeffects": 2669,
      "cl": 2670,
      "wedge": 2671,
      "setminus": 2672,
      "gg": 2673,
      "Ġwa": 2674,
      "ĠEx": 2675,
      "Ġ16": 2676,
      "PS": 2677,
      "Ġ2015": 2678,
      "Ġregular": 2679,
      "aussi": 2680,
      "vex": 2681,
      "Ġgenerated": 2682,
      "Ġ---": 2683,
      "stro": 2684,
      "ady": 2685,
      "Ġopen": 2686,
      "Ġoptimal": 2687,
      "pher": 2688,
      "Ġinteraction": 2689,
      "pringer": 2690,
      "Ġrelated": 2691,
      "other": 2692,
      ")\\,": 2693,
      "ker": 2694,
      "az": 2695,
      "AM": 2696,
      "Ġvan": 2697,
      "Ġlines": 2698,
      "bor": 2699,
      "Ġclear": 2700,
      "ĠGra": 2701,
      "ĠScience": 2702,
      "mentation": 2703,
      "Ġtru": 2704,
      "]}": 2705,
      "Ġsto": 2706,
      "ledge": 2707,
      "Ġfamily": 2708,
      "sch": 2709,
      "Ġdevelop": 2710,
      "king": 2711,
      "sets": 2712,
      "br": 2713,
      "Ġ($\\": 2714,
      "Ġsmooth": 2715,
      "oration": 2716,
      "sky": 2717,
      "endix": 2718,
      "unic": 2719,
      "}^{-": 2720,
      "Ġcomponents": 2721,
      "ason": 2722,
      "penalty": 2723,
      "Vert": 2724,
      "ĠThese": 2725,
      "Ġ|\\": 2726,
      "ympto": 2727,
      "uk": 2728,
      "thes": 2729,
      "till": 2730,
      "vesti": 2731,
      "Ġdesign": 2732,
      "ĠSt": 2733,
      "Bar": 2734,
      "hy": 2735,
      "oplus": 2736,
      "Ġvolume": 2737,
      "92": 2738,
      "ices": 2739,
      "Ġbounded": 2740,
      "ule": 2741,
      "date": 2742,
      "ĠLe": 2743,
      "Me": 2744,
      "74": 2745,
      "gorithms": 2746,
      "Ġdetection": 2747,
      "Zhang": 2748,
      "Ġemission": 2749,
      "ailable": 2750,
      "Ġexpected": 2751,
      "ana": 2752,
      "entations": 2753,
      "IC": 2754,
      "scale": 2755,
      "ori": 2756,
      "texttt": 2757,
      "End": 2758,
      "oper": 2759,
      "Ġimages": 2760,
      "Ġparticle": 2761,
      "aussian": 2762,
      "Ġachi": 2763,
      "ĠDi": 2764,
      "Ġchange": 2765,
      "Ġrefer": 2766,
      "AL": 2767,
      "plicit": 2768,
      "Ġ$[": 2769,
      "Ġpertur": 2770,
      ")}(": 2771,
      "Ġsever": 2772,
      "Ġfi": 2773,
      "ĠHe": 2774,
      "arison": 2775,
      "Ġfo": 2776,
      "Ġmeans": 2777,
      "Ġbasis": 2778,
      "Ġcoupling": 2779,
      "ques": 2780,
      "Ġcoun": 2781,
      "Ġtake": 2782,
      "Ġcha": 2783,
      "bri": 2784,
      "rule": 2785,
      "Ġmuch": 2786,
      "Ġelectron": 2787,
      "Ġinvariant": 2788,
      "ale": 2789,
      "Ġpe": 2790,
      "ĠTable": 2791,
      "'_": 2792,
      "mar": 2793,
      "82": 2794,
      "veto": 2795,
      "Ġther": 2796,
      "bili": 2797,
      "gu": 2798,
      "Ġhal": 2799,
      "formed": 2800,
      "sl": 2801,
      "limits": 2802,
      "Ġrelations": 2803,
      "Ġdomain": 2804,
      "ĠAr": 2805,
      "quare": 2806,
      "figura": 2807,
      "Ġcalled": 2808,
      "Ġgalaxies": 2809,
      "Be": 2810,
      "data": 2811,
      "dist": 2812,
      "};": 2813,
      "noop": 2814,
      "Ġequal": 2815,
      "Ġscatter": 2816,
      "model": 2817,
      "91": 2818,
      "call": 2819,
      "Ġobservations": 2820,
      "Ġgauge": 2821,
      "usion": 2822,
      "Ġfrequency": 2823,
      "pol": 2824,
      "}}},": 2825,
      "Note": 2826,
      "amiltonian": 2827,
      "aj": 2828,
      "chas": 2829,
      "ĊĠĠĠĠĠĠĠĠĠĠ": 2830,
      "Ġprec": 2831,
      "side": 2832,
      "ropy": 2833,
      "Ġdifference": 2834,
      "Ġproblems": 2835,
      "gges": 2836,
      "$_{": 2837,
      "Ġaff": 2838,
      "ters": 2839,
      "llar": 2840,
      "Ġmultiple": 2841,
      "Ġspectral": 2842,
      "ren": 2843,
      "Ġequivalent": 2844,
      "DE": 2845,
      "Hu": 2846,
      "Ġ13": 2847,
      "Ġclose": 2848,
      "Ġeither": 2849,
      "MR": 2850,
      ",~": 2851,
      "81": 2852,
      "Ġdegree": 2853,
      "Ġ2014": 2854,
      "Ġnoise": 2855,
      "Ġnuc": 2856,
      "}.}": 2857,
      "Ġagain": 2858,
      "Ġmanif": 2859,
      "sur": 2860,
      "',": 2861,
      "vity": 2862,
      "Ġparticles": 2863,
      ")_{": 2864,
      "Ġdeep": 2865,
      "Ġcar": 2866,
      "function": 2867,
      "ns": 2868,
      "Ċĉ": 2869,
      "gnition": 2870,
      "Ġ+\\": 2871,
      ".:": 2872,
      "Ġfil": 2873,
      "Ġmatter": 2874,
      "omm": 2875,
      "ĠLearning": 2876,
      "Ġdia": 2877,
      "Ġgive": 2878,
      "Ġlog": 2879,
      "Ġcompact": 2880,
      ")^{\\": 2881,
      "mc": 2882,
      "reak": 2883,
      "Ġratio": 2884,
      "ama": 2885,
      "omorphism": 2886,
      "ctors": 2887,
      "most": 2888,
      "ĠProposition": 2889,
      "Ġfin": 2890,
      "Ġsignal": 2891,
      "Ġprovide": 2892,
      "Ġgas": 2893,
      "ollary": 2894,
      "Ġhence": 2895,
      "Ġnumerical": 2896,
      "Ġmaximum": 2897,
      "cting": 2898,
      "light": 2899,
      "Ġexpon": 2900,
      "sible": 2901,
      "Ġcate": 2902,
      "aligned": 2903,
      "ĠNew": 2904,
      "62": 2905,
      "Ġnode": 2906,
      "duces": 2907,
      "Ġtechni": 2908,
      "ĠNote": 2909,
      "Ġcom": 2910,
      "Ġgroups": 2911,
      "Ġrecent": 2912,
      "Ġproperty": 2913,
      "medi": 2914,
      "Ġlattice": 2915,
      "St": 2916,
      "Ġextra": 2917,
      "bitr": 2918,
      "Ġcontains": 2919,
      "Ġoccur": 2920,
      "52": 2921,
      "ories": 2922,
      "Ġpreprint": 2923,
      "ĠSystems": 2924,
      "onom": 2925,
      "cop": 2926,
      "Ġbehavior": 2927,
      "ernel": 2928,
      "land": 2929,
      "ability": 2930,
      "ials": 2931,
      "ApJ": 2932,
      "axis": 2933,
      "ering": 2934,
      "izing": 2935,
      "Ġpop": 2936,
      "}/": 2937,
      "page": 2938,
      "ug": 2939,
      "Ġinvesti": 2940,
      "after": 2941,
      "Ġfull": 2942,
      "dap": 2943,
      "vial": 2944,
      "Ġtre": 2945,
      "Ġvertex": 2946,
      "Ġseveral": 2947,
      "Ġsugges": 2948,
      "eff": 2949,
      "Ġuncer": 2950,
      "allel": 2951,
      "61": 2952,
      "na": 2953,
      "Ar": 2954,
      "Ġnatural": 2955,
      "Ġunique": 2956,
      "Ġpattern": 2957,
      "draw": 2958,
      "Ġexpan": 2959,
      "Ġrema": 2960,
      "Ġsuffici": 2961,
      "ĠProceedings": 2962,
      "Ġlast": 2963,
      "zation": 2964,
      "vir": 2965,
      "Ġblack": 2966,
      "meq": 2967,
      "SI": 2968,
      "Ġrestr": 2969,
      "Ġcri": 2970,
      "zed": 2971,
      "Ġsatisfies": 2972,
      "Ġseen": 2973,
      "gate": 2974,
      "chastic": 2975,
      "ER": 2976,
      "Ġsetting": 2977,
      "AT": 2978,
      "ĊĠĠĊĠ": 2979,
      "Eq": 2980,
      "Se": 2981,
      "Ġembed": 2982,
      "stand": 2983,
      "jection": 2984,
      ")^{-": 2985,
      "pmatrix": 2986,
      "Proceedings": 2987,
      "Ġmomentum": 2988,
      "Ġinequality": 2989,
      "oid": 2990,
      "Ġpresented": 2991,
      "port": 2992,
      "Ġclassical": 2993,
      "Ġampl": 2994,
      "Ġspaces": 2995,
      "Ġimple": 2996,
      "Ġless": 2997,
      "colon": 2998,
      "Ġaround": 2999,
      "Ġview": 3000,
      "Ġauthor": 3001,
      "stitu": 3002,
      "Car": 3003,
      "72": 3004,
      "inde": 3005,
      "Ġstill": 3006,
      "type": 3007,
      "$$\\": 3008,
      "Ġparti": 3009,
      "centering": 3010,
      "ring": 3011,
      "BIB": 3012,
      "Ġframework": 3013,
      "Ġdirection": 3014,
      "rier": 3015,
      "=(": 3016,
      "sa": 3017,
      "hile": 3018,
      "ifx": 3019,
      "Ġdetermin": 3020,
      "Di": 3021,
      "Ã®": 3022,
      "Ġcell": 3023,
      "Ġself": 3024,
      "simeq": 3025,
      "Ġ2013": 3026,
      "\\!\\!": 3027,
      "Ġmaps": 3028,
      ")}{\\": 3029,
      "Ġsimulations": 3030,
      "iven": 3031,
      "Mar": 3032,
      "Ġfeature": 3033,
      "Ġ``{": 3034,
      "Ġindex": 3035,
      "series": 3036,
      "Ġupper": 3037,
      "Ġpolar": 3038,
      "forall": 3039,
      "Ġrun": 3040,
      "ĠCol": 3041,
      "ublish": 3042,
      "kes": 3043,
      "Ġloc": 3044,
      "Ġscalar": 3045,
      "Ġapplied": 3046,
      ")\\\\": 3047,
      "Ġinteres": 3048,
      "],": 3049,
      "though": 3050,
      "\\_": 3051,
      "Ġdecay": 3052,
      "Chen": 3053,
      "Ġclosed": 3054,
      "MS": 3055,
      "Ġ14": 3056,
      "1997": 3057,
      "sign": 3058,
      "trices": 3059,
      "ument": 3060,
      "Ġdecre": 3061,
      "Ġuniform": 3062,
      "dient": 3063,
      "Ġdetect": 3064,
      "bot": 3065,
      "Bo": 3066,
      "Ġexplicit": 3067,
      "Ġcompared": 3068,
      "~$\\": 3069,
      "CO": 3070,
      "arget": 3071,
      "Ġduring": 3072,
      "Ġblock": 3073,
      ".~(\\": 3074,
      "super": 3075,
      "Ġcurve": 3076,
      "Ġarbitr": 3077,
      "Ġcoefficients": 3078,
      "Gu": 3079,
      "illi": 3080,
      "Ġintegral": 3081,
      "ĠHamiltonian": 3082,
      "1996": 3083,
      "âĢ": 3084,
      "words": 3085,
      "Ġ17": 3086,
      "make": 3087,
      "hood": 3088,
      "scr": 3089,
      "af": 3090,
      "ĠProcess": 3091,
      "ĠTheory": 3092,
      "fact": 3093,
      "Ġtheore": 3094,
      "({\\": 3095,
      "Ġval": 3096,
      "ĠAnal": 3097,
      ")/": 3098,
      "bust": 3099,
      "AB": 3100,
      "ain": 3101,
      ",\\,": 3102,
      "*{": 3103,
      "Ġnext": 3104,
      "ric": 3105,
      "gies": 3106,
      "search": 3107,
      "Ġmode": 3108,
      "Ġmake": 3109,
      "Ġconfigura": 3110,
      "ham": 3111,
      "cular": 3112,
      "cat": 3113,
      "Ġag": 3114,
      "Ġnecess": 3115,
      "Ġchang": 3116,
      "Ġ:=": 3117,
      "stead": 3118,
      "Ġ11": 3119,
      "Ġhel": 3120,
      "Ġspatial": 3121,
      "Ġ&=&": 3122,
      "Ġiter": 3123,
      "empty": 3124,
      "Ġmotion": 3125,
      "ware": 3126,
      "Ġ2012": 3127,
      "curveto": 3128,
      "Ġgre": 3129,
      "ath": 3130,
      "orth": 3131,
      "ite": 3132,
      "lus": 3133,
      "Ġside": 3134,
      "Ġposition": 3135,
      "iliation": 3136,
      "$(": 3137,
      "kip": 3138,
      "Ã¥": 3139,
      "Ġcritical": 3140,
      "}}{{": 3141,
      "Ġprovid": 3142,
      "ually": 3143,
      "LP": 3144,
      "Ġchoice": 3145,
      "Ġdetermined": 3146,
      "zero": 3147,
      "ĠHence": 3148,
      "off": 3149,
      "Ġmeasurements": 3150,
      "add": 3151,
      "Ġsmaller": 3152,
      "Ġdataset": 3153,
      "Ġtr": 3154,
      "entry": 3155,
      "Ġadditional": 3156,
      "underline": 3157,
      "ĠWang": 3158,
      "Ġexperiments": 3159,
      "Ġdecomp": 3160,
      "Ġneigh": 3161,
      "Ġoptimization": 3162,
      "definition": 3163,
      "^{+": 3164,
      "ext": 3165,
      "ĠUn": 3166,
      "oto": 3167,
      "Ġcontext": 3168,
      "display": 3169,
      "kin": 3170,
      "Ġca": 3171,
      "Ġ=\\": 3172,
      "han": 3173,
      "Ġapplications": 3174,
      "sitions": 3175,
      "tack": 3176,
      "lue": 3177,
      "Ġbackground": 3178,
      "Ġrequire": 3179,
      "Ġalgorithms": 3180,
      "Ġbu": 3181,
      "ema": 3182,
      "isms": 3183,
      "Ġbecomes": 3184,
      "Ġsearch": 3185,
      "Ġdep": 3186,
      "Comp": 3187,
      "Ġbest": 3188,
      "Ġobjects": 3189,
      "\\|_{": 3190,
      "Ġcos": 3191,
      "monstra": 3192,
      "Ġcombin": 3193,
      "Ġsyn": 3194,
      "gine": 3195,
      "vey": 3196,
      "Qu": 3197,
      "racy": 3198,
      "Sim": 3199,
      "Ġdiscussed": 3200,
      "'(": 3201,
      "Ġtop": 3202,
      "affiliation": 3203,
      "ung": 3204,
      "ression": 3205,
      "enari": 3206,
      "Ġphysical": 3207,
      "ĠSpringer": 3208,
      "etal": 3209,
      "ĠResearch": 3210,
      "cts": 3211,
      "ior": 3212,
      "Ġcannot": 3213,
      "Ġdual": 3214,
      "ky": 3215,
      "}{{": 3216,
      "constru": 3217,
      "RR": 3218,
      "HEP": 3219,
      "hbar": 3220,
      "Ġprofi": 3221,
      "Ġdri": 3222,
      "Ġvertices": 3223,
      "tag": 3224,
      "nn": 3225,
      "71": 3226,
      "},''": 3227,
      "Ġwhose": 3228,
      "hou": 3229,
      "Ġseries": 3230,
      "ĠPo": 3231,
      "\\{\\": 3232,
      "Ġcolle": 3233,
      "Ġinvol": 3234,
      "Ġcer": 3235,
      "uni": 3236,
      "ingu": 3237,
      "resh": 3238,
      "ritten": 3239,
      "Ġindi": 3240,
      "Ġconstraints": 3241,
      "anel": 3242,
      "Ġexten": 3243,
      "ouble": 3244,
      "ĠGe": 3245,
      "=-": 3246,
      "Ġques": 3247,
      "uracy": 3248,
      "Ġmatch": 3249,
      "Ġinfinite": 3250,
      "Ġ2011": 3251,
      "ĠSe": 3252,
      "Ġscheme": 3253,
      "Sta": 3254,
      "IS": 3255,
      "Ġexpression": 3256,
      "ĠRef": 3257,
      "Ber": 3258,
      "atch": 3259,
      "Ġasympto": 3260,
      "oi": 3261,
      "Ġmatrices": 3262,
      "Ġ18": 3263,
      "Ġ19": 3264,
      ")$-": 3265,
      "trans": 3266,
      "Ġradius": 3267,
      "Ġoutput": 3268,
      "Ġdiv": 3269,
      "Ġdifferential": 3270,
      "OS": 3271,
      "perp": 3272,
      "Ġfraction": 3273,
      "ody": 3274,
      "Ġhowever": 3275,
      "ina": 3276,
      "Ġwrite": 3277,
      "gation": 3278,
      "Liu": 3279,
      "Ġ2010": 3280,
      "Ġfinal": 3281,
      "Ġ$$": 3282,
      "viron": 3283,
      "_-": 3284,
      "Ġassumption": 3285,
      "Ġcontribution": 3286,
      "Ġdemonstra": 3287,
      "ways": 3288,
      "ention": 3289,
      "Ġsimulation": 3290,
      "Ġconnected": 3291,
      "pdf": 3292,
      "Ġlabel": 3293,
      "Ġglobal": 3294,
      "Ġprinci": 3295,
      "Ġbase": 3296,
      "adsabs": 3297,
      "Ġtrue": 3298,
      "inos": 3299,
      "Ġbetter": 3300,
      "Ġpeak": 3301,
      "Ġ100": 3302,
      "Ġsymmetric": 3303,
      "Ġ2021": 3304,
      "cases": 3305,
      "subsubsection": 3306,
      "'}": 3307,
      "$).": 3308,
      "uppose": 3309,
      "laboration": 3310,
      "period": 3311,
      "Ġtensor": 3312,
      "Ġreason": 3313,
      "mediate": 3314,
      "fill": 3315,
      "Ġcorrelation": 3316,
      "Ġderived": 3317,
      "AN": 3318,
      "loy": 3319,
      "Lo": 3320,
      "ĠTech": 3321,
      "Ġmeasured": 3322,
      "ĊĠĠĠĠĠĠĠĠĠĠĠ": 3323,
      "defined": 3324,
      "Ġprocesses": 3325,
      "Ġrestric": 3326,
      "ĠĊĠĠĠ": 3327,
      "ĠCar": 3328,
      "}}_{": 3329,
      "Ġregions": 3330,
      "eter": 3331,
      "ola": 3332,
      "IR": 3333,
      "init": 3334,
      "ohn": 3335,
      ")+\\": 3336,
      "{{\\": 3337,
      "Ġspectra": 3338,
      "ilibri": 3339,
      "ĠMoreover": 3340,
      "ĠModel": 3341,
      "car": 3342,
      "Ġcorresponds": 3343,
      "Ġnegative": 3344,
      "$^{-": 3345,
      "gl": 3346,
      "ridge": 3347,
      "Ġexperimental": 3348,
      "Ġstrate": 3349,
      ")_": 3350,
      "Ġeigenvalu": 3351,
      "ĠSim": 3352,
      "Ġdistributions": 3353,
      "NRAS": 3354,
      "Ġsources": 3355,
      "Ġcompute": 3356,
      "pref": 3357,
      "ild": 3358,
      "Ġdependence": 3359,
      "Ġbran": 3360,
      "symme": 3361,
      "Ġplane": 3362,
      "Ġpolynomial": 3363,
      "Ġvarious": 3364,
      "uro": 3365,
      "Ġgrow": 3366,
      "Ġdomin": 3367,
      "Ġcorrela": 3368,
      "Ġgood": 3369,
      "textsc": 3370,
      "hao": 3371,
      "ĠComm": 3372,
      "mapsto": 3373,
      ")-\\": 3374,
      "Ġmodi": 3375,
      "ip": 3376,
      "scil": 3377,
      "mology": 3378,
      "Ġfew": 3379,
      "|_{": 3380,
      "default": 3381,
      "Ġsuppor": 3382,
      "Ġscattering": 3383,
      "mary": 3384,
      "ams": 3385,
      "ott": 3386,
      "can": 3387,
      "xx": 3388,
      "mat": 3389,
      "Now": 3390,
      "Here": 3391,
      "Ġexpla": 3392,
      "SP": 3393,
      "Ġgraphs": 3394,
      "Ġusu": 3395,
      "Ko": 3396,
      "Ġcode": 3397,
      "Ġ2009": 3398,
      "}&": 3399,
      "Ġexplo": 3400,
      "Ġpartial": 3401,
      "Ġcheck": 3402,
      "cies": 3403,
      "Ġclassification": 3404,
      "ether": 3405,
      "thesis": 3406,
      "eneous": 3407,
      "Ġavailable": 3408,
      "mations": 3409,
      "pack": 3410,
      "remark": 3411,
      "algebra": 3412,
      "\\'{": 3413,
      "Ġresearch": 3414,
      "Ġlayer": 3415,
      "1995": 3416,
      "expand": 3417,
      "my": 3418,
      "gether": 3419,
      "1016": 3420,
      "Ġoptical": 3421,
      "Ġrespon": 3422,
      "Ġorbi": 3423,
      "tz": 3424,
      "bur": 3425,
      "So": 3426,
      "Ġbefore": 3427,
      "Ġadd": 3428,
      "Thus": 3429,
      "cr": 3430,
      "ĠZhang": 3431,
      "Ġachie": 3432,
      "ctu": 3433,
      "onic": 3434,
      "RL": 3435,
      "Ġestimation": 3436,
      "Ġkernel": 3437,
      "Ġapply": 3438,
      "za": 3439,
      "lications": 3440,
      ")}_{": 3441,
      "Ġconvergence": 3442,
      "}}(\\": 3443,
      "Fe": 3444,
      "Ġcs": 3445,
      "Ġmodes": 3446,
      "Ġspecific": 3447,
      "Ġscenari": 3448,
      "}{(": 3449,
      "pc": 3450,
      "Ġinteractions": 3451,
      "{}.": 3452,
      "Ġsupport": 3453,
      "Ġquad": 3454,
      "Ġleads": 3455,
      "mcitedefault": 3456,
      "Lett": 3457,
      "Ġcertain": 3458,
      "sem": 3459,
      "ends": 3460,
      "ĠPress": 3461,
      "erm": 3462,
      "mathscr": 3463,
      "Ġperturb": 3464,
      "oriz": 3465,
      "Ġwhat": 3466,
      "uto": 3467,
      "{#": 3468,
      "ants": 3469,
      "Ġdenotes": 3470,
      "Ġnumbers": 3471,
      "dro": 3472,
      "Theorem": 3473,
      "ĠBe": 3474,
      "Ġconstruction": 3475,
      "FT": 3476,
      "Ġgu": 3477,
      "Ġallows": 3478,
      "uture": 3479,
      "ermi": 3480,
      "Ġarbitrary": 3481,
      "BB": 3482,
      "amp": 3483,
      "Ġapproximate": 3484,
      "urthermore": 3485,
      "cedure": 3486,
      "bfseries": 3487,
      "Ġextension": 3488,
      "gory": 3489,
      "Ġexpansion": 3490,
      "Ġauto": 3491,
      "Ġtarget": 3492,
      "code": 3493,
      "vided": 3494,
      "Ġinstance": 3495,
      "articletitle": 3496,
      "$&": 3497,
      "showarticletitle": 3498,
      "undam": 3499,
      "ĠCor": 3500,
      "Ġconsistent": 3501,
      "Ġcomputation": 3502,
      "wards": 3503,
      "Ġlit": 3504,
      "Ġcharge": 3505,
      "Ġresulting": 3506,
      "Ġti": 3507,
      "Ġrequired": 3508,
      "Ġcurves": 3509,
      "Ġnodes": 3510,
      "images": 3511,
      "Ġname": 3512,
      "ara": 3513,
      "Ġcost": 3514,
      "ĊĠĠĠĠĠĠ": 3515,
      "cell": 3516,
      "mma": 3517,
      "ef": 3518,
      "ĊĠĠĠĠĠĠĠĠĠĠĠĠĠĠĠĠ": 3519,
      "Ġcomparison": 3520,
      "Ġseg": 3521,
      "uman": 3522,
      "Ġcalculated": 3523,
      "Ġoscil": 3524,
      "--(": 3525,
      "Ġsamples": 3526,
      "Ġrepla": 3527,
      "~(": 3528,
      "Ġmic": 3529,
      "Ġlanguage": 3530,
      "sequence": 3531,
      "mog": 3532,
      "ĠGaussian": 3533,
      "Ġcre": 3534,
      "Ġinterpre": 3535,
      "rel": 3536,
      "Eprint": 3537,
      "Ġdirectly": 3538,
      "anced": 3539,
      "Ġconven": 3540,
      "120": 3541,
      "agonal": 3542,
      "www": 3543,
      "ilibrium": 3544,
      "Ġ_": 3545,
      "$;": 3546,
      "Ġaccording": 3547,
      "Ġshort": 3548,
      "bullet": 3549,
      "Ste": 3550,
      "proposition": 3551,
      "Ġmach": 3552,
      "Ġear": 3553,
      "Ġcommon": 3554,
      "Ãł": 3555,
      "Ġmedi": 3556,
      "Ġconvex": 3557,
      "Ġ197": 3558,
      "Gra": 3559,
      "Ġir": 3560,
      "Ġstellar": 3561,
      "Ġground": 3562,
      "Ġeasi": 3563,
      "Ġcentral": 3564,
      "ird": 3565,
      "Ġenough": 3566,
      "Ġedges": 3567,
      "yers": 3568,
      "Ġmagn": 3569,
      "Ġindivid": 3570,
      "Ġstructures": 3571,
      "Ġincreasing": 3572,
      "Ġ(-": 3573,
      "expandafter": 3574,
      "igure": 3575,
      "Ġimprove": 3576,
      "Ġaccount": 3577,
      "')": 3578,
      "./": 3579,
      "Ġaccuracy": 3580,
      "import": 3581,
      "Ġyields": 3582,
      "Net": 3583,
      "rint": 3584,
      "Ġoff": 3585,
      "ising": 3586,
      "versal": 3587,
      "roscop": 3588,
      "joint": 3589,
      "phere": 3590,
      "levant": 3591,
      "troduction": 3592,
      "Ġincluding": 3593,
      "gan": 3594,
      "down": 3595,
      "Ġint": 3596,
      "from": 3597,
      "Ġalways": 3598,
      "prefix": 3599,
      "beq": 3600,
      "CS": 3601,
      "Ġcolumn": 3602,
      "Ge": 3603,
      "Ġrefle": 3604,
      "Ã¨": 3605,
      "Ġevent": 3606,
      "Ġil": 3607,
      "normal": 3608,
      "Ġoriginal": 3609,
      "local": 3610,
      "ars": 3611,
      "Ġconver": 3612,
      "Ġintroduced": 3613,
      "Ġjust": 3614,
      "strophys": 3615,
      "Ġstudied": 3616,
      "ĠInformation": 3617,
      "lustra": 3618,
      "struct": 3619,
      "Ġintroduce": 3620,
      "astro": 3621,
      "Ġcorrespond": 3622,
      "Ġexperiment": 3623,
      "Ġtaken": 3624,
      "Ġvanish": 3625,
      "Ġreduced": 3626,
      "head": 3627,
      "Ġ2008": 3628,
      "App": 3629,
      "Ġvalid": 3630,
      "Ã®Ã": 3631,
      "Ġsubset": 3632,
      "ĠRep": 3633,
      "1007": 3634,
      "SO": 3635,
      "Ġformal": 3636,
      "ĠProcessing": 3637,
      "Ġdown": 3638,
      "ology": 3639,
      "Ġreach": 3640,
      "ĠBer": 3641,
      "ng": 3642,
      "Ġcenter": 3643,
      "itud": 3644,
      "}}_": 3645,
      "izes": 3646,
      "eli": 3647,
      "Ġunderstand": 3648,
      "Ġ~": 3649,
      "omen": 3650,
      "Ġdetails": 3651,
      "Ġdepends": 3652,
      "Ġcap": 3653,
      "Ġprecise": 3654,
      "Ġmole": 3655,
      "Ġreson": 3656,
      "Ġformation": 3657,
      "cep": 3658,
      "&=&": 3659,
      "Ġgap": 3660,
      "Ġestimates": 3661,
      "olic": 3662,
      "Ġbro": 3663,
      "Ġtext": 3664,
      "Ġ25": 3665,
      "Per": 3666,
      "ĠAt": 3667,
      "family": 3668,
      "La": 3669,
      "ĠSpe": 3670,
      "know": 3671,
      "celer": 3672,
      "ĠMach": 3673,
      "bes": 3674,
      "Ġminimum": 3675,
      "sw": 3676,
      "quote": 3677,
      "aries": 3678,
      "Ġspecial": 3679,
      "bound": 3680,
      "aap": 3681,
      "itch": 3682,
      "Su": 3683,
      "ready": 3684,
      "Ġpropa": 3685,
      "Ġprocedure": 3686,
      "ĠOur": 3687,
      "Ġlaw": 3688,
      "ĠHere": 3689,
      "Po": 3690,
      "Ġplus": 3691,
      "BIBentry": 3692,
      "Ġenviron": 3693,
      "Ġinstead": 3694,
      "plan": 3695,
      "variance": 3696,
      "ully": 3697,
      ":}": 3698,
      "ometric": 3699,
      "istics": 3700,
      "Ġwidth": 3701,
      "ĠAstr": 3702,
      "Ġ$|\\": 3703,
      "Ġmeasurement": 3704,
      "Ġlemma": 3705,
      "))$": 3706,
      "tage": 3707,
      "Ġnonlinear": 3708,
      "Ġtransfer": 3709,
      "Ġtransform": 3710,
      "Ġprovides": 3711,
      "vised": 3712,
      "jor": 3713,
      "Ġgeometry": 3714,
      "icial": 3715,
      "inty": 3716,
      "dshift": 3717,
      "}^*": 3718,
      "Ġpresence": 3719,
      "Ho": 3720,
      "Ġfocus": 3721,
      "Ġreview": 3722,
      "Cor": 3723,
      "bilities": 3724,
      "1994": 3725,
      "ource": 3726,
      "ford": 3727,
      "Ġanother": 3728,
      "Ġmater": 3729,
      "Ġexci": 3730,
      "Ġdiscrete": 3731,
      ",\\\\": 3732,
      "Ġrepresent": 3733,
      "level": 3734,
      "Ġquark": 3735,
      "Ġdisk": 3736,
      "faces": 3737,
      "Ġfla": 3738,
      "ĠData": 3739,
      "Ġdescribe": 3740,
      "tainty": 3741,
      ".$": 3742,
      "Ġembedding": 3743,
      "idence": 3744,
      "Ġ2006": 3745,
      "aneous": 3746,
      "chitect": 3747,
      "Ġ2007": 3748,
      "Res": 3749,
      "Ġexistence": 3750,
      "ĠSer": 3751,
      "Ġchosen": 3752,
      "endcsname": 3753,
      "Ġstudies": 3754,
      "sters": 3755,
      "Ġgalaxy": 3756,
      "multirow": 3757,
      "IN": 3758,
      "Ġincrease": 3759,
      "Ġexamples": 3760,
      "comple": 3761,
      "Our": 3762,
      "Ġdiagram": 3763,
      "Ġmade": 3764,
      "ules": 3765,
      "ench": 3766,
      "ira": 3767,
      "ĠChen": 3768,
      "mpling": 3769,
      "undamental": 3770,
      "Ġstochastic": 3771,
      "})$.": 3772,
      "Ġillustra": 3773,
      "Ġperformed": 3774,
      "Ġshift": 3775,
      "ctro": 3776,
      "tablish": 3777,
      "Ġenti": 3778,
      "LR": 3779,
      "sso": 3780,
      "Ġgradient": 3781,
      "Ã¥Ã": 3782,
      "bl": 3783,
      "rang": 3784,
      "DM": 3785,
      "Ġwritten": 3786,
      "Ġinduced": 3787,
      "ĠInte": 3788,
      "Ġstable": 3789,
      "$),": 3790,
      "iral": 3791,
      "}$-": 3792,
      "Ġcau": 3793,
      "Ġ&&": 3794,
      "aa": 3795,
      "resul": 3796,
      "Ġchoose": 3797,
      "Ġpul": 3798,
      "cher": 3799,
      "mas": 3800,
      "Ġpanel": 3801,
      "$~": 3802,
      "Ġsquare": 3803,
      "ĠUSA": 3804,
      "Ġquasi": 3805,
      "Mc": 3806,
      "lision": 3807,
      "\\)": 3808,
      "formal": 3809,
      "lov": 3810,
      "ille": 3811,
      "Ġcoordinates": 3812,
      "Ġtree": 3813,
      "node": 3814,
      "Ġwhether": 3815,
      "ya": 3816,
      "free": 3817,
      "Ġphysics": 3818,
      "Ġcomputed": 3819,
      "ĠThere": 3820,
      "mathsf": 3821,
      "two": 3822,
      "Ġtor": 3823,
      "Ġvectors": 3824,
      "Ġthermal": 3825,
      "[(": 3826,
      "Ġalready": 3827,
      "Ġremo": 3828,
      "However": 3829,
      "packages": 3830,
      "ĠUsing": 3831,
      "}})": 3832,
      "ire": 3833,
      "PP": 3834,
      "Ġprovided": 3835,
      "Ġpairs": 3836,
      "Ġapproaches": 3837,
      "Ġfluctu": 3838,
      "GC": 3839,
      "graphicspath": 3840,
      "Ġevents": 3841,
      "From": 3842,
      "Ġalmost": 3843,
      "Ġkey": 3844,
      "uan": 3845,
      "Ġsay": 3846,
      "Ġangle": 3847,
      "Ġsplit": 3848,
      "ĠBo": 3849,
      "}'": 3850,
      "Ġ{./": 3851,
      ")}_": 3852,
      "importpackages": 3853,
      "range": 3854,
      "textwidth": 3855,
      "Ġcalculations": 3856,
      "Ġ}{": 3857,
      "Ġapplication": 3858,
      "ĠSu": 3859,
      "ĠFe": 3860,
      "ĠTransactions": 3861,
      "ken": 3862,
      "Ġsoft": 3863,
      "Ġversion": 3864,
      "Ġlink": 3865,
      "ĠMon": 3866,
      "ture": 3867,
      "Ġconclu": 3868,
      "ned": 3869,
      "Ġrather": 3870,
      "Ġprediction": 3871,
      "010": 3872,
      "dy": 3873,
      "Ġthresh": 3874,
      "}}].": 3875,
      "Ġobserve": 3876,
      "forms": 3877,
      "Ġtransformation": 3878,
      "...,": 3879,
      "Ġ23": 3880,
      "arp": 3881,
      "hal": 3882,
      "ĠVision": 3883,
      "num": 3884,
      "grams": 3885,
      "deed": 3886,
      "Ġatom": 3887,
      "ĠHu": 3888,
      "arily": 3889,
      "lor": 3890,
      "stitute": 3891,
      "}{|": 3892,
      "Lu": 3893,
      "Ġ24": 3894,
      "dual": 3895,
      "andi": 3896,
      "hl": 3897,
      "Cha": 3898,
      "Ġamplitude": 3899,
      "ected": 3900,
      "ib": 3901,
      "llig": 3902,
      "$:": 3903,
      "Ġcover": 3904,
      "Ġrepresentations": 3905,
      "Mat": 3906,
      "001": 3907,
      "Ġresolution": 3908,
      "oral": 3909,
      "hip": 3910,
      "Br": 3911,
      "eeq": 3912,
      "Ġclasses": 3913,
      "booktitle": 3914,
      "Ġ30": 3915,
      "ucl": 3916,
      "ttfamily": 3917,
      "Ġprac": 3918,
      "Ġuseful": 3919,
      "Ġentropy": 3920,
      "lip": 3921,
      "gineering": 3922,
      "ĠĠĠĠĠĠĠĠĠ": 3923,
      "1993": 3924,
      "1088": 3925,
      "udo": 3926,
      "adi": 3927,
      ")}}": 3928,
      ")}.": 3929,
      "cong": 3930,
      "Ġtogether": 3931,
      "state": 3932,
      "cccc": 3933,
      "example": 3934,
      "Ġsingular": 3935,
      "Ġsense": 3936,
      "pled": 3937,
      "))\\": 3938,
      "magnetic": 3939,
      "Ġbinary": 3940,
      "vature": 3941,
      ",$": 3942,
      "flo": 3943,
      "Ġbounds": 3944,
      "Ġnotation": 3945,
      "self": 3946,
      "Ġincreases": 3947,
      "Ġconclude": 3948,
      "Ġadap": 3949,
      "Ġhad": 3950,
      "Ġnucle": 3951,
      "sol": 3952,
      "Ã©": 3953,
      "ĠMathematics": 3954,
      "^*$": 3955,
      "suming": 3956,
      "det": 3957,
      "way": 3958,
      "Set": 3959,
      "Ġfast": 3960,
      "Ġinteresting": 3961,
      "enquote": 3962,
      "EC": 3963,
      "entially": 3964,
      "eness": 3965,
      "Figure": 3966,
      "ji": 3967,
      "}{*": 3968,
      "``": 3969,
      "alg": 3970,
      "ĠSec": 3971,
      "Ġextended": 3972,
      "MC": 3973,
      "orphism": 3974,
      "parameter": 3975,
      "Ġmight": 3976,
      "Journal": 3977,
      "displaystyle": 3978,
      "Ġfuture": 3979,
      "ĠFrom": 3980,
      "Ġlatter": 3981,
      "}}^{": 3982,
      "Ġ2005": 3983,
      "urate": 3984,
      "Therefore": 3985,
      "ible": 3986,
      "Ġroot": 3987,
      "pped": 3988,
      "PhysRevLett": 3989,
      "ides": 3990,
      "Ġsupported": 3991,
      "Ġeasily": 3992,
      "cement": 3993,
      "test": 3994,
      "asy": 3995,
      "Ġagre": 3996,
      "vitational": 3997,
      "orld": 3998,
      "sities": 3999,
      "lap": 4000,
      "known": 4001,
      "Ġdetermine": 4002,
      "clo": 4003,
      "Ġshape": 4004,
      "}$)": 4005,
      "onical": 4006,
      "Ġdouble": 4007,
      "Ġfar": 4008,
      "Ġdark": 4009,
      "lations": 4010,
      "newcommand": 4011,
      "Ġwords": 4012,
      "iggs": 4013,
      "ĠLiu": 4014,
      "Ġkine": 4015,
      "{$\\": 4016,
      "MNRAS": 4017,
      "Ġestablish": 4018,
      "ambridge": 4019,
      "mass": 4020,
      "DF": 4021,
      "aring": 4022,
      "lier": 4023,
      "Ġtypes": 4024,
      "tention": 4025,
      "Ġsco": 4026,
      "Ġinteger": 4027,
      "iss": 4028,
      "acu": 4029,
      "Ġinclude": 4030,
      "Ġhard": 4031,
      "Ġcollision": 4032,
      "Ġener": 4033,
      "mith": 4034,
      "ĠOne": 4035,
      "PT": 4036,
      "Ġrobust": 4037,
      "Ġangular": 4038,
      "Ġbund": 4039,
      "IM": 4040,
      "Ġlimi": 4041,
      "ĠSte": 4042,
      "]{#": 4043,
      "eprint": 4044,
      "Ġmasses": 4045,
      "Ġcommunic": 4046,
      "Ġ\"": 4047,
      "Tr": 4048,
      "Ġinterval": 4049,
      "Un": 4050,
      "lex": 4051,
      "ĠCont": 4052,
      "sson": 4053,
      "ighted": 4054,
      "mogeneous": 4055,
      "fr": 4056,
      "Ġinverse": 4057,
      "Ġdiscuss": 4058,
      "dfrac": 4059,
      "fit": 4060,
      "}_{-": 4061,
      "Ġtopological": 4062,
      "~~~~": 4063,
      "ĠWith": 4064,
      "bserv": 4065,
      "Ġmachine": 4066,
      "Ġhole": 4067,
      "ration": 4068,
      "Ġexactly": 4069,
      "ciety": 4070,
      "lay": 4071,
      "ĠEqu": 4072,
      "odot": 4073,
      "ES": 4074,
      "Ġtheoretical": 4075,
      "hskip": 4076,
      "sume": 4077,
      "Ġredshift": 4078,
      "}\\,\\": 4079,
      "ump": 4080,
      "Ġrelevant": 4081,
      "icture": 4082,
      "ante": 4083,
      "Ġquestion": 4084,
      "aly": 4085,
      "Ġori": 4086,
      "iled": 4087,
      "Ġargument": 4088,
      "change": 4089,
      "Ġcalculation": 4090,
      "ement": 4091,
      "iny": 4092,
      "check": 4093,
      "Hz": 4094,
      "Ġreconstru": 4095,
      "Ġanti": 4096,
      "Ġrole": 4097,
      "Ġrank": 4098,
      "semble": 4099,
      "Ġorigin": 4100,
      "hash": 4101,
      "refer": 4102,
      "Ġsuc": 4103,
      "Ġdescription": 4104,
      "kh": 4105,
      "Ġresi": 4106,
      "Ġregime": 4107,
      "Ġleading": 4108,
      "Ġscaling": 4109,
      "Ġdiffic": 4110,
      "isted": 4111,
      "icity": 4112,
      "ometry": 4113,
      "bigl": 4114,
      "Ġ2004": 4115,
      "FFFFFFFFFFFFFFFF": 4116,
      "Ġ50": 4117,
      "ery": 4118,
      "ermion": 4119,
      "Ġhoriz": 4120,
      "Ġtw": 4121,
      "Introduction": 4122,
      "seudo": 4123,
      "vee": 4124,
      "tries": 4125,
      "ducing": 4126,
      "Ġorth": 4127,
      "Ġminimal": 4128,
      "uter": 4129,
      "rect": 4130,
      "inte": 4131,
      "Ġfactors": 4132,
      "})$,": 4133,
      "cf": 4134,
      "]$.": 4135,
      "-$": 4136,
      "Sp": 4137,
      "Ġchanges": 4138,
      "Ġess": 4139,
      "aco": 4140,
      "Ġbreak": 4141,
      "CV": 4142,
      "dynam": 4143,
      "Ġred": 4144,
      "Ġplot": 4145,
      "Ġdimensions": 4146,
      "Ġgeneralized": 4147,
      "Ġsitu": 4148,
      "ĠII": 4149,
      "bibinit": 4150,
      "Ġidentity": 4151,
      "+(": 4152,
      "Ġanalog": 4153,
      "cd": 4154,
      "Ġmention": 4155,
      "Ġtaking": 4156,
      "ĠSoc": 4157,
      "owski": 4158,
      "nology": 4159,
      "Ġminus": 4160,
      "Ġcapa": 4161,
      "Ġdev": 4162,
      "link": 4163,
      "1992": 4164,
      "ĠACM": 4165,
      "|}{": 4166,
      "Ġnecessary": 4167,
      "ĠReview": 4168,
      "Ġ\\(\\": 4169,
      "bigr": 4170,
      "Ġamong": 4171,
      "SM": 4172,
      "rd": 4173,
      "ĠPar": 4174,
      "ĠAc": 4175,
      "epart": 4176,
      "Jc": 4177,
      "Ġstrength": 4178,
      "Ġ21": 4179,
      "pacing": 4180,
      "band": 4181,
      "\\}$.": 4182,
      "ixing": 4183,
      "DB": 4184,
      "Ġsimply": 4185,
      "Ġassumed": 4186,
      "^{*": 4187,
      "ables": 4188,
      "Pr": 4189,
      "Ġconstruct": 4190,
      "yr": 4191,
      "ĠLo": 4192,
      "ssoci": 4193,
      "Ġrow": 4194,
      "Ġrepor": 4195,
      "ander": 4196,
      "henomen": 4197,
      "At": 4198,
      "Ġabsor": 4199,
      "Ġdecomposition": 4200,
      "use": 4201,
      "PhysRevD": 4202,
      ",}": 4203,
      "Ġtechniques": 4204,
      "ĠComputational": 4205,
      "ryst": 4206,
      "class": 4207,
      "tim": 4208,
      "Ġhypo": 4209,
      "Ġrequires": 4210,
      "eman": 4211,
      "era": 4212,
      "Ġmark": 4213,
      "number": 4214,
      "ids": 4215,
      "coder": 4216,
      "Ġknowledge": 4217,
      "SU": 4218,
      "ED": 4219,
      "Ġconvolution": 4220,
      "ĊĠĠĊĠĠ": 4221,
      "Ġstring": 4222,
      "Ġmod": 4223,
      "Using": 4224,
      "Ġobservation": 4225,
      "Ġsatisfying": 4226,
      "arc": 4227,
      "ged": 4228,
      "ĠYork": 4229,
      "Ġcomplexity": 4230,
      "})},\\": 4231,
      "diff": 4232,
      "Ġarea": 4233,
      "Par": 4234,
      "Ġpure": 4235,
      "oli": 4236,
      "Ġlum": 4237,
      "Ġ2003": 4238,
      "Ġbeam": 4239,
      "char": 4240,
      "this": 4241,
      "ayes": 4242,
      ":=": 4243,
      "Ġcontributions": 4244,
      "Ġclusters": 4245,
      "Ġable": 4246,
      "llip": 4247,
      "Ġpartition": 4248,
      "LL": 4249,
      "Ġrates": 4250,
      "ĠSociety": 4251,
      "Ġbranch": 4252,
      "ĠAmer": 4253,
      "CP": 4254,
      "sla": 4255,
      "Ġcategory": 4256,
      "\\;": 4257,
      "oulo": 4258,
      "tif": 4259,
      "ek": 4260,
      "Ġfunctional": 4261,
      "Ġuser": 4262,
      "112": 4263,
      "floor": 4264,
      "Def": 4265,
      "duci": 4266,
      "Ġuncertainty": 4267,
      "Ġidentify": 4268,
      "ourier": 4269,
      "Ġindividual": 4270,
      "Ġstatistical": 4271,
      "Ġdynamical": 4272,
      "tle": 4273,
      "bmatrix": 4274,
      "Ġworks": 4275,
      "Ġmagnitude": 4276,
      "Ġcommu": 4277,
      "Ġvisual": 4278,
      "tfrac": 4279,
      "Ġcoefficient": 4280,
      "){\\": 4281,
      "ĠWhen": 4282,
      "Ġdenoted": 4283,
      "encies": 4284,
      "Ġchall": 4285,
      "mulation": 4286,
      "ternal": 4287,
      "para": 4288,
      "ert": 4289,
      "vances": 4290,
      "ulk": 4291,
      "Ġaltern": 4292,
      "]$,": 4293,
      "Ġado": 4294,
      "Ġstrongly": 4295,
      "riter": 4296,
      "acy": 4297,
      "eto": 4298,
      "Ġmanifold": 4299,
      "ones": 4300,
      "ried": 4301,
      "One": 4302,
      "Ġdevi": 4303,
      "Ġconfiguration": 4304,
      "Ġpur": 4305,
      "Ġboson": 4306,
      "And": 4307,
      "maketitle": 4308,
      "urlprefix": 4309,
      "rich": 4310,
      "Ġhom": 4311,
      "Ġextre": 4312,
      "city": 4313,
      "Ġsignificantly": 4314,
      "ĠMat": 4315,
      "Ġselection": 4316,
      "infor": 4317,
      "then": 4318,
      "interwords": 4319,
      "interwordspacing": 4320,
      "Bst": 4321,
      "Ġmis": 4322,
      "Ġtraject": 4323,
      "Ġestimated": 4324,
      "ĠStatis": 4325,
      "ĠDef": 4326,
      "key": 4327,
      ",\\,\\": 4328,
      "Ġsubgroup": 4329,
      "Ġcolor": 4330,
      "Ġevaluation": 4331,
      "term": 4332,
      "part": 4333,
      "ratic": 4334,
      "Finally": 4335,
      "Xi": 4336,
      "Ġpopulation": 4337,
      "Ġrece": 4338,
      "epartment": 4339,
      "Ġfermion": 4340,
      "enko": 4341,
      "flow": 4342,
      "Ġ\\]": 4343,
      "ilbert": 4344,
      "Ġcorrect": 4345,
      "Ġadj": 4346,
      "lesssim": 4347,
      "GL": 4348,
      "Ġproved": 4349,
      "osed": 4350,
      "Ġrecognition": 4351,
      "Ġremains": 4352,
      "Ġrotation": 4353,
      "any": 4354,
      "ably": 4355,
      "Ġrest": 4356,
      "Ġreference": 4357,
      "mptions": 4358,
      "wt": 4359,
      "has": 4360,
      "Ġreduction": 4361,
      "Ġdistin": 4362,
      "Ġ\\!": 4363,
      "jecture": 4364,
      "Ġcontrast": 4365,
      "Yang": 4366,
      "Proof": 4367,
      "publish": 4368,
      "Ġcurvature": 4369,
      "lian": 4370,
      "bd": 4371,
      "Ġerrors": 4372,
      "dependent": 4373,
      "}$}": 4374,
      "New": 4375,
      "ĠNeural": 4376,
      "Pa": 4377,
      "Ġtakes": 4378,
      "Ġtool": 4379,
      ";\\;\\": 4380,
      "tionary": 4381,
      "Ġlead": 4382,
      "cid": 4383,
      "Ġscales": 4384,
      "Mart": 4385,
      "Ġacross": 4386,
      "Ġstatem": 4387,
      "Ġstability": 4388,
      "Ġdone": 4389,
      "MM": 4390,
      "Ġasymptotic": 4391,
      "\\\"{": 4392,
      "Ġfundamental": 4393,
      "ĠPer": 4394,
      "**": 4395,
      "Ġequilibrium": 4396,
      "Ġmeasures": 4397,
      "Ġpressure": 4398,
      "Ġcall": 4399,
      "bibinitperiod": 4400,
      "electr": 4401,
      "Ġassign": 4402,
      "Ġthreshold": 4403,
      "})=": 4404,
      "Ġ^{": 4405,
      "Lee": 4406,
      "Ġ2000": 4407,
      "OI": 4408,
      "Ġgravity": 4409,
      "mission": 4410,
      "coun": 4411,
      "ĠMethod": 4412,
      "ĠYang": 4413,
      "Ġconsists": 4414,
      "Punct": 4415,
      "}^{+": 4416,
      "yond": 4417,
      "ĠMachine": 4418,
      ")&": 4419,
      "\\|\\": 4420,
      "Ġspeed": 4421,
      "ays": 4422,
      "Ġarchitect": 4423,
      "ĠAnalysis": 4424,
      "Ġneighbor": 4425,
      "Ġsteps": 4426,
      "Ġstrategy": 4427,
      "Ġsemi": 4428,
      "Ġ22": 4429,
      "mory": 4430,
      "Ġhalf": 4431,
      "oni": 4432,
      "well": 4433,
      "Ġmechanism": 4434,
      "itudes": 4435,
      "rig": 4436,
      "Ġcut": 4437,
      "Ġwind": 4438,
      "}}^": 4439,
      "Ġhold": 4440,
      "ĠGal": 4441,
      "punct": 4442,
      "lated": 4443,
      "ilarly": 4444,
      "avi": 4445,
      "Ġ32": 4446,
      "---": 4447,
      "pole": 4448,
      "ised": 4449,
      "otop": 4450,
      "rem": 4451,
      "LS": 4452,
      "Ġphenomen": 4453,
      "emical": 4454,
      "ĠAssoci": 4455,
      "Ġprofile": 4456,
      "enz": 4457,
      "ĊĊĊĊ": 4458,
      "Ġgeneration": 4459,
      "CA": 4460,
      "ĠFinally": 4461,
      "ssive": 4462,
      "Ġdiscussion": 4463,
      "ader": 4464,
      "Ġ$^{": 4465,
      "Ġcalculate": 4466,
      "$^": 4467,
      "cknow": 4468,
      "nd": 4469,
      "yan": 4470,
      "emptyset": 4471,
      "ĠInter": 4472,
      "ĠSh": 4473,
      "ĠLie": 4474,
      "ĠQuantum": 4475,
      "verag": 4476,
      "ĠAstronom": 4477,
      "Ġhar": 4478,
      "Ġproduction": 4479,
      "})^": 4480,
      "duc": 4481,
      "Ġenergies": 4482,
      "Ġfully": 4483,
      "Ġflat": 4484,
      "Ġ^": 4485,
      "Ġprojection": 4486,
      "Ġoften": 4487,
      "instein": 4488,
      "Ġmaximal": 4489,
      "Ġrepresents": 4490,
      "Ġirre": 4491,
      "Ġcore": 4492,
      "Ġeasy": 4493,
      "ĠGu": 4494,
      "subs": 4495,
      "mological": 4496,
      "gn": 4497,
      "ĠFirst": 4498,
      "APAC": 4499,
      "reen": 4500,
      "Ġauthors": 4501,
      "Lemma": 4502,
      "ĠLag": 4503,
      "Ġideal": 4504,
      "Ġmath": 4505,
      "ired": 4506,
      "Ġshall": 4507,
      "210": 4508,
      "\\}\\": 4509,
      "uments": 4510,
      "sequently": 4511,
      "ĠBar": 4512,
      "ica": 4513,
      "alt": 4514,
      "ĠNetwork": 4515,
      "formations": 4516,
      "Spe": 4517,
      "Ġinner": 4518,
      "ato": 4519,
      "Ġnorm": 4520,
      "There": 4521,
      "Ġinterest": 4522,
      "Ġ27": 4523,
      "ĠOp": 4524,
      "ÃłÃ": 4525,
      "pes": 4526,
      "ĠDis": 4527,
      "Ġellip": 4528,
      "Ġslight": 4529,
      "][]{": 4530,
      "Go": 4531,
      "atory": 4532,
      "Ġ28": 4533,
      "mult": 4534,
      "Ġring": 4535,
      "500": 4536,
      "Ġenvironment": 4537,
      "Ġcomputing": 4538,
      "Ġpolic": 4539,
      "yste": 4540,
      "Ġmultiplic": 4541,
      "}.\\": 4542,
      "Ġemploy": 4543,
      "ĠMar": 4544,
      "ately": 4545,
      "Ġconstants": 4546,
      "Ġloop": 4547,
      "Ġforms": 4548,
      "Ġcoordinate": 4549,
      "0004": 4550,
      "bx": 4551,
      "ĠAstrophys": 4552,
      "Ġ$.": 4553,
      "ey": 4554,
      "Ġaccurate": 4555,
      "ĠMathematical": 4556,
      "sha": 4557,
      "Ġimpact": 4558,
      "meds": 4559,
      "Ġdiagonal": 4560,
      "Ġchain": 4561,
      "Ġissu": 4562,
      "Ġthird": 4563,
      "ries": 4564,
      "else": 4565,
      "}|\\": 4566,
      "eded": 4567,
      "osite": 4568,
      "Ġdimensional": 4569,
      "Ġtrack": 4570,
      "orn": 4571,
      "ush": 4572,
      "ĠSI": 4573,
      "acc": 4574,
      "sal": 4575,
      "Ġtheories": 4576,
      "ĠYu": 4577,
      "Ġ2002": 4578,
      "ĠCollaboration": 4579,
      "ĠAppendix": 4580,
      "operator": 4581,
      "bration": 4582,
      "Ġenh": 4583,
      "Ġ26": 4584,
      "ET": 4585,
      "):\\": 4586,
      "Ġfun": 4587,
      "Ġtun": 4588,
      "stre": 4589,
      "Ġones": 4590,
      "Ġfilter": 4591,
      "ashi": 4592,
      "Ġdepth": 4593,
      "black": 4594,
      "forward": 4595,
      "Ġconser": 4596,
      "Ġcandi": 4597,
      "Sha": 4598,
      "late": 4599,
      "}}$,": 4600,
      "Ġparallel": 4601,
      "itor": 4602,
      "Ġpreser": 4603,
      "gel": 4604,
      "differ": 4605,
      "Ġsufficiently": 4606,
      "sitivity": 4607,
      "Ġphoton": 4608,
      "cho": 4609,
      "Ġdatasets": 4610,
      "^*\\": 4611,
      "medskip": 4612,
      "brace": 4613,
      "tian": 4614,
      "Ġion": 4615,
      "(-\\": 4616,
      "125": 4617,
      "flu": 4618,
      "index": 4619,
      "cref": 4620,
      ":=\\": 4621,
      "Ġstart": 4622,
      "cles": 4623,
      "omorphic": 4624,
      "Ġbegin": 4625,
      "herent": 4626,
      "Mon": 4627,
      "sho": 4628,
      "_{{\\": 4629,
      "yl": 4630,
      "LO": 4631,
      "inosity": 4632,
      "bet": 4633,
      "ging": 4634,
      "mented": 4635,
      "Ġderivative": 4636,
      "ght": 4637,
      "Ġ2001": 4638,
      "Sa": 4639,
      "Ġefficient": 4640,
      "ĠFurthermore": 4641,
      "Ġcomputational": 4642,
      "Ġforce": 4643,
      "ducible": 4644,
      "Ġradio": 4645,
      "Ġliterature": 4646,
      "Ġderive": 4647,
      "tun": 4648,
      "limin": 4649,
      "Ġwide": 4650,
      "Ġaxis": 4651,
      "iao": 4652,
      "Ġcharacteristic": 4653,
      "esti": 4654,
      "})}": 4655,
      "ĠCha": 4656,
      "EM": 4657,
      "1991": 4658,
      "EN": 4659,
      "particle": 4660,
      "&-": 4661,
      "ogonal": 4662,
      "IT": 4663,
      "Ġ${": 4664,
      "stable": 4665,
      "These": 4666,
      "bsnm": 4667,
      "gest": 4668,
      "Si": 4669,
      "exist": 4670,
      "such": 4671,
      "All": 4672,
      "Ġagreement": 4673,
      "uri": 4674,
      "binits": 4675,
      "Mor": 4676,
      "paces": 4677,
      "Ġbecome": 4678,
      "ropic": 4679,
      "DD": 4680,
      "aka": 4681,
      "BC": 4682,
      "hn": 4683,
      "/(": 4684,
      "Ġgravitational": 4685,
      "Ġdisper": 4686,
      "zi": 4687,
      "Ġparts": 4688,
      "Ġlater": 4689,
      "Ġmapping": 4690,
      "ands": 4691,
      "Ġlook": 4692,
      "ming": 4693,
      "Ġisomorphism": 4694,
      "Ġgenerate": 4695,
      "}[\\": 4696,
      "ĠReco": 4697,
      "Or": 4698,
      "bits": 4699,
      "cou": 4700,
      ".)": 4701,
      "Ġpoly": 4702,
      "Ġcombination": 4703,
      "Ġconta": 4704,
      "Ġextend": 4705,
      "sus": 4706,
      "Ġhaving": 4707,
      "mos": 4708,
      "cla": 4709,
      "cket": 4710,
      "tik": 4711,
      "Ġhelp": 4712,
      "ĠĠĠĠĠĠĠĠĠĠ": 4713,
      "Ġdiffusion": 4714,
      "structure": 4715,
      "((": 4716,
      "|}": 4717,
      "ĠHo": 4718,
      "Ġmakes": 4719,
      "irical": 4720,
      "hite": 4721,
      "wal": 4722,
      "Har": 4723,
      ".\\\\": 4724,
      "continu": 4725,
      "bas": 4726,
      "{.}": 4727,
      "JHEP": 4728,
      "than": 4729,
      "ĠAll": 4730,
      "$-$": 4731,
      "Uni": 4732,
      "rank": 4733,
      "Ġseem": 4734,
      "mated": 4735,
      "Ġtrivial": 4736,
      "Ġtreat": 4737,
      "With": 4738,
      "Ġyear": 4739,
      "ĠHiggs": 4740,
      "conne": 4741,
      "Kim": 4742,
      "\\}$,": 4743,
      "aki": 4744,
      "din": 4745,
      "ĠPattern": 4746,
      "tors": 4747,
      "Ġsolve": 4748,
      "Ġscenario": 4749,
      "Ġopp": 4750,
      "auto": 4751,
      "notag": 4752,
      "Ġsampling": 4753,
      "Ġcanonical": 4754,
      "Ġhuman": 4755,
      "alities": 4756,
      "ĠInstitute": 4757,
      "parse": 4758,
      "Ġconsequence": 4759,
      "ae": 4760,
      "GN": 4761,
      "Ġim": 4762,
      "vo": 4763,
      "Ġcounter": 4764,
      "zing": 4765,
      "cience": 4766,
      "ĠAnd": 4767,
      "Ġresponse": 4768,
      "vent": 4769,
      "Hence": 4770,
      "Ġpropor": 4771,
      "ĠPh": 4772,
      "Ġbasic": 4773,
      "alog": 4774,
      "bly": 4775,
      "Ġstrict": 4776,
      "case": 4777,
      "monic": 4778,
      "Bur": 4779,
      "gated": 4780,
      "Ġmemory": 4781,
      "ju": 4782,
      "Ġintegration": 4783,
      "isson": 4784,
      "Ġdistributed": 4785,
      "}}$.": 4786,
      "Bra": 4787,
      "Ġvary": 4788,
      "Ġprocessing": 4789,
      "Ġalgebraic": 4790,
      "Ġsui": 4791,
      "Ġprinciple": 4792,
      "conf": 4793,
      "Ġtasks": 4794,
      "Ġradial": 4795,
      "Ġlayers": 4796,
      "ĊĠĠĠĠĠĠĠĠĠ": 4797,
      "Ġelectro": 4798,
      "Ġvariation": 4799,
      "atz": 4800,
      "cz": 4801,
      "onto": 4802,
      "olute": 4803,
      "Ġconsidering": 4804,
      "supp": 4805,
      "Ġ,\\": 4806,
      "Ġprior": 4807,
      "ressed": 4808,
      "tot": 4809,
      "ĠMark": 4810,
      "Ġclaim": 4811,
      "Ġsymbol": 4812,
      "Ġradiation": 4813,
      "^*(": 4814,
      "SF": 4815,
      "Ġremark": 4816,
      "Ġdetailed": 4817,
      "Ġorbit": 4818,
      "isation": 4819,
      "\\@": 4820,
      "Ġfigure": 4821,
      "Ġsufficient": 4822,
      "Ġlist": 4823,
      "Ġsurvey": 4824,
      "Ġacceler": 4825,
      "Ġappropri": 4826,
      "Ġrule": 4827,
      "Ġalgebras": 4828,
      "body": 4829,
      "rant": 4830,
      "cker": 4831,
      "ID": 4832,
      "ĠCambridge": 4833,
      "1990": 4834,
      "Ġassumptions": 4835,
      "Ġattention": 4836,
      "Ġsimpli": 4837,
      "Ġcriter": 4838,
      "ĠProc": 4839,
      "Ġlocally": 4840,
      "iang": 4841,
      "ĠWork": 4842,
      "300": 4843,
      "gather": 4844,
      "isot": 4845,
      "-(": 4846,
      "Ben": 4847,
      "els": 4848,
      "Ġreported": 4849,
      "module": 4850,
      "actic": 4851,
      "Ġefficiency": 4852,
      "toms": 4853,
      "unc": 4854,
      "ĠComputing": 4855,
      "Ġfluctuations": 4856,
      "supervised": 4857,
      "blem": 4858,
      "Ġconnection": 4859,
      "Of": 4860,
      "versari": 4861,
      "sumption": 4862,
      "Ġeigenvalues": 4863,
      "Ġmassive": 4864,
      "Ġodd": 4865,
      "fect": 4866,
      "ĠRi": 4867,
      "}}}\\": 4868,
      "Ġ2022": 4869,
      "Ph": 4870,
      "slash": 4871,
      "Ġentangle": 4872,
      "vector": 4873,
      ")(\\": 4874,
      "velength": 4875,
      "\\/}": 4876,
      "ĠEngineering": 4877,
      "Ġslow": 4878,
      "Ġinflu": 4879,
      "Ġ$,": 4880,
      "Ġpseudo": 4881,
      "ĠIndeed": 4882,
      "^{(\\": 4883,
      "avy": 4884,
      "ĠNow": 4885,
      "dod": 4886,
      "Ġstraight": 4887,
      "Ġsummar": 4888,
      "Ġweights": 4889,
      "Lin": 4890,
      "nian": 4891,
      "Ġequivalence": 4892,
      "timal": 4893,
      "Ġ]": 4894,
      "atives": 4895,
      "Ġneeded": 4896,
      "Ġnature": 4897,
      "Ġsw": 4898,
      "Ġfinding": 4899,
      "Ġrecur": 4900,
      "Ġbra": 4901,
      "rangian": 4902,
      "Ġlimits": 4903,
      ".}}": 4904,
      "Ġdistinct": 4905,
      "020": 4906,
      "tivistic": 4907,
      "Ġmet": 4908,
      "ensing": 4909,
      "Ġnamely": 4910,
      "rg": 4911,
      "$}}": 4912,
      ")})": 4913,
      "Es": 4914,
      "Ġtable": 4915,
      "lastic": 4916,
      "Ġentire": 4917,
      "Ġ37": 4918,
      "trics": 4919,
      "123": 4920,
      "inst": 4921,
      "acuum": 4922,
      "Ġplas": 4923,
      "Ġspher": 4924,
      "Ġexternal": 4925,
      "ĠStr": 4926,
      "roscopic": 4927,
      "algorithm": 4928,
      "Ġdynamic": 4929,
      "ea": 4930,
      "Ġtypical": 4931,
      "Ġturn": 4932,
      "Ġbias": 4933,
      "Ġhydro": 4934,
      "Ġdeveloped": 4935,
      "hard": 4936,
      "Ġ#": 4937,
      "Ġsupercon": 4938,
      "ĠLu": 4939,
      "Wu": 4940,
      ")^\\": 4941,
      "1989": 4942,
      "Ġuses": 4943,
      "|^{": 4944,
      "asure": 4945,
      "rown": 4946,
      "Ba": 4947,
      "Ġrelax": 4948,
      "Ġrecall": 4949,
      "Ġ$\\{\\": 4950,
      "tan": 4951,
      "Ġmodeling": 4952,
      "Ġ$-$": 4953,
      "linewidth": 4954,
      "stack": 4955,
      "first": 4956,
      "Ġanom": 4957,
      "invariant": 4958,
      "dodoi": 4959,
      "eld": 4960,
      "wave": 4961,
      "Ġexhi": 4962,
      "versarial": 4963,
      "Ġcategor": 4964,
      "paragraph": 4965,
      "bre": 4966,
      "belian": 4967,
      "Ġbulk": 4968,
      "phan": 4969,
      "ĠAssociation": 4970,
      "When": 4971,
      "Ga": 4972,
      "vartheta": 4973,
      "pan": 4974,
      "mode": 4975,
      "Ġappears": 4976,
      "ĠGener": 4977,
      "Ġrelatively": 4978,
      "Ġconstructed": 4979,
      "bauthor": 4980,
      "fically": 4981,
      "Ġgrowth": 4982,
      "Ġpropose": 4983,
      "Ġcoinci": 4984,
      "Ġgame": 4985,
      "ĠLee": 4986,
      "Ġmathema": 4987,
      "RS": 4988,
      "lines": 4989,
      "ALT": 4990,
      "deg": 4991,
      "qc": 4992,
      "Ġsuccess": 4993,
      "Ġconcent": 4994,
      "Ġ;": 4995,
      "dia": 4996,
      "\\|_": 4997,
      "[-": 4998,
      "Ġclearly": 4999,
      "Consider": 5000,
      "ymposi": 5001,
      "ĠMulti": 5002,
      "Ġquadratic": 5003,
      "je": 5004,
      "coding": 5005,
      "Ġtransport": 5006,
      "ĠMan": 5007,
      "Ġidentified": 5008,
      "grees": 5009,
      "{(\\": 5010,
      "ĠFourier": 5011,
      "fying": 5012,
      "Ġperturbation": 5013,
      "Ġanalytic": 5014,
      "Ġproto": 5015,
      "ards": 5016,
      "arante": 5017,
      "gi": 5018,
      "gers": 5019,
      "Ġperiodic": 5020,
      "$^{\\": 5021,
      "Ġpolarization": 5022,
      "lligence": 5023,
      "ĠEle": 5024,
      "symmetric": 5025,
      "Ġexponential": 5026,
      "Ġapplying": 5027,
      "_{+": 5028,
      "Ġexpressed": 5029,
      "Du": 5030,
      "Ġpredictions": 5031,
      "ĠRecognition": 5032,
      "Ġattack": 5033,
      "Ġfeed": 5034,
      "Yu": 5035,
      "publisher": 5036,
      "Ġcoupled": 5037,
      "ĠSM": 5038,
      "Ġcontaining": 5039,
      "||": 5040,
      "DP": 5041,
      "ymposium": 5042,
      "Ġdx": 5043,
      "Ġlikely": 5044,
      "First": 5045,
      "avid": 5046,
      "lag": 5047,
      "racted": 5048,
      "ÃŃ": 5049,
      "Ġeq": 5050,
      "oung": 5051,
      "Ġmar": 5052,
      "101": 5053,
      "Ġatoms": 5054,
      "dates": 5055,
      "Ġgeometric": 5056,
      "len": 5057,
      "'',": 5058,
      "ided": 5059,
      "py": 5060,
      "\\&": 5061,
      "Suppose": 5062,
      "multline": 5063,
      "ĠPa": 5064,
      "day": 5065,
      "Ġselected": 5066,
      "iota": 5067,
      "keli": 5068,
      "ĠCO": 5069,
      "ening": 5070,
      "Ġvariance": 5071,
      "SL": 5072,
      "Ġbundle": 5073,
      "SC": 5074,
      "ender": 5075,
      "pid": 5076,
      "Ġinver": 5077,
      "ĠThey": 5078,
      "Ha": 5079,
      "fs": 5080,
      "sian": 5081,
      "&=&\\": 5082,
      "&=\\": 5083,
      "tificial": 5084,
      "ribution": 5085,
      "ank": 5086,
      "kelihood": 5087,
      "Ġcontradic": 5088,
      "lie": 5089,
      "dr": 5090,
      "$\\\\": 5091,
      "intro": 5092,
      "longrightarrow": 5093,
      "results": 5094,
      "Ġbroad": 5095,
      "Ġtechnique": 5096,
      "Ġsurfaces": 5097,
      "Ġsyste": 5098,
      "cially": 5099,
      "Ġneutrino": 5100,
      "ĠNucl": 5101,
      "400": 5102,
      "&&\\": 5103,
      "ĠTe": 5104,
      "Ġpolynomials": 5105,
      "BIBentryALT": 5106,
      "Ġinside": 5107,
      "IP": 5108,
      "Ġmentioned": 5109,
      "fre": 5110,
      "Ġjoint": 5111,
      "Ġchannels": 5112,
      "Ġmajor": 5113,
      "Ġexplicitly": 5114,
      "newline": 5115,
      "}}=": 5116,
      "Ġquantities": 5117,
      "Ġpix": 5118,
      "Ġluminosity": 5119,
      "ĠNational": 5120,
      "izations": 5121,
      "Ġlevels": 5122,
      "Moreover": 5123,
      "Ġusual": 5124,
      "address": 5125,
      "Ġparame": 5126,
      "MP": 5127,
      "ftwo": 5128,
      "osing": 5129,
      "Ġ'": 5130,
      "Ġ1999": 5131,
      "rou": 5132,
      "Ġcommunication": 5133,
      "loop": 5134,
      "bing": 5135,
      "}~": 5136,
      "Ġsections": 5137,
      "Ġimmediate": 5138,
      "catcode": 5139,
      "nergy": 5140,
      "Ġtoo": 5141,
      "isk": 5142,
      "Ġuncertain": 5143,
      "Pre": 5144,
      "cover": 5145,
      "enberg": 5146,
      "Cal": 5147,
      "Ġword": 5148,
      "vation": 5149,
      "ml": 5150,
      "negative": 5151,
      "DA": 5152,
      "Ġprecisely": 5153,
      "Ġreduce": 5154,
      "general": 5155,
      "Ġmaterial": 5156,
      "Ġ40": 5157,
      "Ġslightly": 5158,
      "factor": 5159,
      "Ġcycle": 5160,
      "Ġdifferences": 5161,
      "ditional": 5162,
      "Ġwaves": 5163,
      "subsec": 5164,
      "Pe": 5165,
      "rystal": 5166,
      "finite": 5167,
      "oton": 5168,
      "Ġseman": 5169,
      "Ġdetector": 5170,
      "Ġprogram": 5171,
      "Ġsequences": 5172,
      "Ġdense": 5173,
      "Ġquality": 5174,
      "ourse": 5175,
      "Ġ{$": 5176,
      "Ġcorrections": 5177,
      "DS": 5178,
      "high": 5179,
      "ĠLa": 5180,
      "layer": 5181,
      "inity": 5182,
      "real": 5183,
      "parrow": 5184,
      "Na": 5185,
      "Ġindicates": 5186,
      "Section": 5187,
      "wang": 5188,
      "zer": 5189,
      "hol": 5190,
      "Ġproject": 5191,
      "oti": 5192,
      "hand": 5193,
      "Ġsatisfied": 5194,
      "ĠApJ": 5195,
      "slant": 5196,
      "downarrow": 5197,
      "'_{": 5198,
      "Ġpurpo": 5199,
      ")}(\\": 5200,
      "bic": 5201,
      "Ġcomputer": 5202,
      "Ġstatistics": 5203,
      "urope": 5204,
      "Man": 5205,
      "Col": 5206,
      "tw": 5207,
      "gramm": 5208,
      "Ġexpect": 5209,
      "105": 5210,
      "ayesian": 5211,
      "lom": 5212,
      "ults": 5213,
      "Ġtowards": 5214,
      "Ġcontained": 5215,
      "Ġstatement": 5216,
      ">\\": 5217,
      "mitted": 5218,
      "Ġ1998": 5219,
      "ĠĠĠĠĠĠĠĠĠĠĠĠĠĠĠĠĠĠĠĠĠĠĠĠĠĠĠĠĠĠĠĠĠĠĠĠĠĠĠĠĠĠĠĠĠĠĠĠĠĠĠĠĠĠĠĠĠĠĠĠĠĠĠĠ": 5220,
      "Ġbuil": 5221,
      "Ġren": 5222,
      "Ġgenerally": 5223,
      "ecu": 5224,
      "Ġitself": 5225,
      "Xu": 5226,
      "ĠNon": 5227,
      "Ġ35": 5228,
      "enchmark": 5229,
      "emark": 5230,
      "enta": 5231,
      "Ġevaluate": 5232,
      "Ġrepe": 5233,
      "Ġrepresented": 5234,
      "Ġwhole": 5235,
      "nes": 5236,
      "ultaneous": 5237,
      "mis": 5238,
      "chen": 5239,
      "Ġbeyond": 5240,
      "ierarch": 5241,
      "~(\\": 5242,
      "GM": 5243,
      "Ġabsolute": 5244,
      "Ġdetected": 5245,
      "Ġpredicted": 5246,
      "Ġtopology": 5247,
      "Ġdust": 5248,
      "Ġactive": 5249,
      "ollowing": 5250,
      "Ġconfir": 5251,
      "learning": 5252,
      "gle": 5253,
      "Ġlimited": 5254,
      "Ġdepending": 5255,
      "Ġappropriate": 5256,
      "eder": 5257,
      "consist": 5258,
      "Ġproduce": 5259,
      "true": 5260,
      "Ġ196": 5261,
      "ype": 5262,
      "Ġoverall": 5263,
      "Ġexpec": 5264,
      "115": 5265,
      "Ġsituation": 5266,
      "Ġbar": 5267,
      "Ġamount": 5268,
      "blue": 5269,
      "220": 5270,
      ",...,": 5271,
      "{.}}{": 5272,
      "arities": 5273,
      "radi": 5274,
      "hbox": 5275,
      "1987": 5276,
      "Ġfluid": 5277,
      "bea": 5278,
      "Ġunderlying": 5279,
      "alk": 5280,
      "Ġinvestigate": 5281,
      "Ġguarante": 5282,
      "roll": 5283,
      "uler": 5284,
      "}}^{\\": 5285,
      "ĠBut": 5286,
      "Ġaffect": 5287,
      "|$": 5288,
      "uparrow": 5289,
      "Ġdecision": 5290,
      "Ġdiscre": 5291,
      "ublic": 5292,
      "ĠSuppose": 5293,
      "but": 5294,
      "maging": 5295,
      "Ġgrid": 5296,
      "entific": 5297,
      "Ġidea": 5298,
      "Ġabund": 5299,
      "Gi": 5300,
      "Ġfix": 5301,
      "Ġrepro": 5302,
      "CH": 5303,
      "Ġdraw": 5304,
      "1988": 5305,
      "Gr": 5306,
      "hock": 5307,
      "corollary": 5308,
      "etti": 5309,
      "Ġhomogeneous": 5310,
      "ĠVol": 5311,
      "ots": 5312,
      "ican": 5313,
      "ĠTechnology": 5314,
      "ĠĠĠĠĠĠĠĠĠĠĠ": 5315,
      "Ġachieve": 5316,
      "Ġcompletely": 5317,
      "lineto": 5318,
      "Ġalign": 5319,
      "Ġproduced": 5320,
      "Ġaccre": 5321,
      "Ġcorrelations": 5322,
      "ĠAppl": 5323,
      "Ġ_{\\": 5324,
      "iii": 5325,
      "Ġremaining": 5326,
      "Te": 5327,
      "Ġstre": 5328,
      "Ġhypothesis": 5329,
      "Ġdifficult": 5330,
      "ctic": 5331,
      "\\!\\": 5332,
      "cia": 5333,
      "Ġgeneric": 5334,
      "Ġstarting": 5335,
      "Ġdegrees": 5336,
      "Ġ33": 5337,
      "Dis": 5338,
      "tiny": 5339,
      "HC": 5340,
      "Ġ\\|\\": 5341,
      "ja": 5342,
      "Ġcontinuum": 5343,
      "Ġtranslation": 5344,
      "Ġmatching": 5345,
      "atur": 5346,
      "Ġunderstanding": 5347,
      "ls": 5348,
      "\\%$": 5349,
      "Ġfore": 5350,
      "Ġexpressions": 5351,
      "ĠLagrangian": 5352,
      "Ġmodule": 5353,
      "arith": 5354,
      "DOI": 5355,
      "aylor": 5356,
      "Ġtransitions": 5357,
      "ĠDo": 5358,
      "parti": 5359,
      "Ġdegener": 5360,
      "parallel": 5361,
      "roun": 5362,
      "Ġface": 5363,
      "Ġelectrons": 5364,
      "smallskip": 5365,
      "Ġaim": 5366,
      "sts": 5367,
      "ney": 5368,
      "Ġsegmentation": 5369,
      "cade": 5370,
      "Ġoccurs": 5371,
      "±Ã": 5372,
      "Ġvacuum": 5373,
      "|_": 5374,
      "Ġdesired": 5375,
      "Ġintensity": 5376,
      "Ġavoid": 5377,
      "ĠMethods": 5378,
      "Ġcorrection": 5379,
      "une": 5380,
      "eea": 5381,
      "GR": 5382,
      "Ġensemble": 5383,
      "relation": 5384,
      "Ġonto": 5385,
      "Ġfiber": 5386,
      "Ġrecently": 5387,
      "pal": 5388,
      "Ġinternal": 5389,
      "-{": 5390,
      "gramming": 5391,
      "nical": 5392,
      "003": 5393,
      "ify": 5394,
      "Ġheat": 5395,
      "ĠFermi": 5396,
      "subf": 5397,
      "propto": 5398,
      ".$$": 5399,
      "length": 5400,
      "ples": 5401,
      "Ġachieved": 5402,
      "vskip": 5403,
      "bolic": 5404,
      "Ġindeed": 5405,
      "mains": 5406,
      "Ġquite": 5407,
      "erman": 5408,
      "\\`": 5409,
      "Ġhis": 5410,
      "Ġagainst": 5411,
      "dens": 5412,
      "Ġintr": 5413,
      "Ġorthogonal": 5414,
      "Ġequality": 5415,
      "uropean": 5416,
      "nel": 5417,
      "tili": 5418,
      "Ġgoal": 5419,
      "ny": 5420,
      "Ġlocation": 5421,
      "phantom": 5422,
      "Gar": 5423,
      "ĠChem": 5424,
      "Ġintersection": 5425,
      "Ġvide": 5426,
      "ours": 5427,
      "bon": 5428,
      "oling": 5429,
      "Ġphases": 5430,
      "\\},": 5431,
      "ĠSun": 5432,
      "LT": 5433,
      "Ġansw": 5434,
      "104": 5435,
      "ĠKo": 5436,
      "Ġwhereas": 5437,
      "berger": 5438,
      "âĢĵ": 5439,
      "ulus": 5440,
      "Ġnuclear": 5441,
      "Gal": 5442,
      "mber": 5443,
      "002": 5444,
      "jo": 5445,
      "*}[": 5446,
      "lide": 5447,
      "word": 5448,
      "Ġuniformly": 5449,
      "Ġpolicy": 5450,
      "]^": 5451,
      "Ġhalo": 5452,
      "Ġmolecular": 5453,
      "Ġvariety": 5454,
      "Ġjet": 5455,
      "ĠSymposium": 5456,
      "1986": 5457,
      "NS": 5458,
      "ĠSciences": 5459,
      "anov": 5460,
      "Ġregression": 5461,
      "Ġ29": 5462,
      "ĠGeV": 5463,
      "Do": 5464,
      "Given": 5465,
      "stability": 5466,
      "tribu": 5467,
      "Ġoperation": 5468,
      "Ġincluded": 5469,
      "ĠHilbert": 5470,
      "aking": 5471,
      "103": 5472,
      "Ġdispersion": 5473,
      "tran": 5474,
      "Hom": 5475,
      "}}_{\\": 5476,
      "colhead": 5477,
      "Ġextreme": 5478,
      "stein": 5479,
      "irt": 5480,
      "Ġmicro": 5481,
      "Tan": 5482,
      "111": 5483,
      "ares": 5484,
      "omas": 5485,
      "cope": 5486,
      "Ġinfluence": 5487,
      "Ġdisc": 5488,
      "homology": 5489,
      "iter": 5490,
      "special": 5491,
      "vin": 5492,
      "Op": 5493,
      "edom": 5494,
      "!\\": 5495,
      "Ġuniversal": 5496,
      "web": 5497,
      "Ġchallen": 5498,
      "ĠLetters": 5499,
      "quations": 5500,
      "nual": 5501,
      "orphic": 5502,
      "Ġotherwise": 5503,
      "iller": 5504,
      "Ġhighly": 5505,
      "Ġ34": 5506,
      "Ġmorphism": 5507,
      "Ġmixing": 5508,
      "sep": 5509,
      "ML": 5510,
      "Ġusually": 5511,
      "eratures": 5512,
      "Ġadvan": 5513,
      "bc": 5514,
      "iro": 5515,
      "Ġrational": 5516,
      "Ġcali": 5517,
      "Ġabsorption": 5518,
      "bold": 5519,
      "ises": 5520,
      "ĠApplications": 5521,
      "clic": 5522,
      "Ġtrained": 5523,
      "Ġ\\,\\": 5524,
      "El": 5525,
      "]}\\": 5526,
      "ĠDes": 5527,
      "Ġevidence": 5528,
      "Ġconjecture": 5529,
      "dire": 5530,
      "004": 5531,
      "umerical": 5532,
      "ider": 5533,
      "Ġconformal": 5534,
      "entz": 5535,
      "tikz": 5536,
      "Ab": 5537,
      "Ġsolving": 5538,
      "Ġbox": 5539,
      "varrho": 5540,
      "Ġirreducible": 5541,
      "Ġobvious": 5542,
      "eller": 5543,
      "ecause": 5544,
      "ĠSur": 5545,
      "ĠPol": 5546,
      "Ġ36": 5547,
      "Ġ&$": 5548,
      "kawa": 5549,
      "ĠCent": 5550,
      ")_{\\": 5551,
      "978": 5552,
      "boun": 5553,
      "Huang": 5554,
      "Ġinference": 5555,
      "ĊĠĠĠĠĊĠĠĠ": 5556,
      "Ġusers": 5557,
      "Ġsubject": 5558,
      "ĠCommunic": 5559,
      "triangle": 5560,
      "=\\{": 5561,
      "icha": 5562,
      "come": 5563,
      "Shi": 5564,
      "inguish": 5565,
      "cA": 5566,
      "Ġsuitable": 5567,
      "bro": 5568,
      "matically": 5569,
      "clusion": 5570,
      "Ġmodified": 5571,
      "Ġplace": 5572,
      "Ġdensities": 5573,
      "fil": 5574,
      "fd": 5575,
      "tate": 5576,
      "Ġremain": 5577,
      "Ġsubspace": 5578,
      "Ġalternative": 5579,
      "Ġcapture": 5580,
      "Ġarchitecture": 5581,
      "Ġexplain": 5582,
      "Ġretur": 5583,
      "brid": 5584,
      "Ġconveni": 5585,
      "Ġalthough": 5586,
      "|_{\\": 5587,
      "plane": 5588,
      "ending": 5589,
      "005": 5590,
      "ĠMore": 5591,
      "Ġassuming": 5592,
      "Ġpack": 5593,
      "Ġtrace": 5594,
      "Ru": 5595,
      "TT": 5596,
      "Wal": 5597,
      "yu": 5598,
      "functions": 5599,
      "oted": 5600,
      "cast": 5601,
      "Ġasymme": 5602,
      "Ġwavelength": 5603,
      "start": 5604,
      "cline": 5605,
      "jected": 5606,
      "ĠJHEP": 5607,
      "{.": 5608,
      "modynam": 5609,
      "MA": 5610,
      "Ġexisting": 5611,
      "undefined": 5612,
      "full": 5613,
      "kar": 5614,
      "insic": 5615,
      "})^{": 5616,
      "ĠWhile": 5617,
      "binom": 5618,
      "Bu": 5619,
      "ĠAlso": 5620,
      "ĠPr": 5621,
      "ĠGo": 5622,
      "Bigg": 5623,
      "Ġ\\[": 5624,
      "Ġtransmission": 5625,
      "Ti": 5626,
      "ĠĠĠĠĠĠĠĠĠĠĠĠ": 5627,
      "Ġput": 5628,
      "lanck": 5629,
      "Ġconvolutional": 5630,
      "Fu": 5631,
      "Ġreve": 5632,
      "Ġatomic": 5633,
      "ĠFran": 5634,
      "ĠAlgorithm": 5635,
      "Ġorbital": 5636,
      "acting": 5637,
      "Ġelectric": 5638,
      "Ġthick": 5639,
      "ĊĊĊ": 5640,
      "Ġcu": 5641,
      "Is": 5642,
      "Ġplay": 5643,
      "mom": 5644,
      "Ġslo": 5645,
      "ĊĠĊĠ": 5646,
      "hr": 5647,
      "San": 5648,
      "Ġimplementation": 5649,
      "urity": 5650,
      "Ġconc": 5651,
      "BS": 5652,
      "1093": 5653,
      "dez": 5654,
      "mf": 5655,
      "Ġformulation": 5656,
      "Ġcircu": 5657,
      "Ġ({\\": 5658,
      "Ġmi": 5659,
      "large": 5660,
      "BF": 5661,
      "Ġneighb": 5662,
      "ĠSU": 5663,
      "Ġyears": 5664,
      "theory": 5665,
      "cale": 5666,
      "Ġquantity": 5667,
      "lam": 5668,
      "1985": 5669,
      "014": 5670,
      "break": 5671,
      "ception": 5672,
      "ological": 5673,
      "Ġsuppose": 5674,
      "spin": 5675,
      "pin": 5676,
      "ccording": 5677,
      "rate": 5678,
      "Ġsuff": 5679,
      "operatorname": 5680,
      "process": 5681,
      "lar": 5682,
      "have": 5683,
      "Ġdetail": 5684,
      "regular": 5685,
      "ĠMod": 5686,
      "thing": 5687,
      "Verb": 5688,
      "1984": 5689,
      "Ġmotiv": 5690,
      "Ġderivatives": 5691,
      "}/\\": 5692,
      "Smith": 5693,
      "auer": 5694,
      "Ġaxi": 5695,
      "arth": 5696,
      "phase": 5697,
      "heng": 5698,
      "iner": 5699,
      "deep": 5700,
      "Ġearly": 5701,
      "John": 5702,
      "iting": 5703,
      "Str": 5704,
      "mini": 5705,
      "013": 5706,
      "ĠQCD": 5707,
      "}{$": 5708,
      "Ġthough": 5709,
      "Ġbehaviour": 5710,
      "Ġgen": 5711,
      "Ġeigenvalue": 5712,
      "III": 5713,
      "ĠSha": 5714,
      "102": 5715,
      "CL": 5716,
      "Ġshock": 5717,
      "Ġweighted": 5718,
      "pos": 5719,
      "SR": 5720,
      "tization": 5721,
      "backslash": 5722,
      "rad": 5723,
      "Ġheight": 5724,
      "BH": 5725,
      "CR": 5726,
      "lm": 5727,
      "_{[": 5728,
      "logies": 5729,
      "Ġsolid": 5730,
      "Nature": 5731,
      "gal": 5732,
      "Ku": 5733,
      "Ġpaths": 5734,
      "Ġorgan": 5735,
      "Ġ45": 5736,
      "Ġtransverse": 5737,
      "Ġcombined": 5738,
      "Ġunits": 5739,
      "Proc": 5740,
      "Sun": 5741,
      "Ġlonger": 5742,
      "Ġconcept": 5743,
      "Ġresonance": 5744,
      "Ġblue": 5745,
      "called": 5746,
      "Ġfreedom": 5747,
      "Ġcosmological": 5748,
      "Ġgeneralization": 5749,
      "^+$": 5750,
      "}({\\": 5751,
      "Ġexam": 5752,
      "Ġ*": 5753,
      "Pol": 5754,
      "\\/": 5755,
      "ĠSto": 5756,
      "Ġbal": 5757,
      "ĠSuch": 5758,
      "ottom": 5759,
      "Ġmaking": 5760,
      "Ġ}}": 5761,
      ".}},": 5762,
      "PU": 5763,
      "Ġcomposition": 5764,
      "polar": 5765,
      "ĠAuto": 5766,
      "SD": 5767,
      "HH": 5768,
      "106": 5769,
      "}{}": 5770,
      "Ġproportional": 5771,
      "eri": 5772,
      "Ġexper": 5773,
      "Model": 5774,
      "ĠCorollary": 5775,
      "initions": 5776,
      "dri": 5777,
      "ital": 5778,
      "using": 5779,
      "lating": 5780,
      "Ġconference": 5781,
      "Ġindicate": 5782,
      "Ġchemical": 5783,
      "Ġ38": 5784,
      "_{-\\": 5785,
      "128": 5786,
      "Ġunitary": 5787,
      "Ġmove": 5788,
      "Ġcloud": 5789,
      "ĠGiven": 5790,
      "Ġutili": 5791,
      "ĠPre": 5792,
      "umar": 5793,
      "resp": 5794,
      "Ġshowed": 5795,
      "chang": 5796,
      "ĠCM": 5797,
      "Ġuncertainties": 5798,
      "Ġperfect": 5799,
      "OR": 5800,
      "Ġobjective": 5801,
      "Ġcourse": 5802,
      "vs": 5803,
      "language": 5804,
      "rence": 5805,
      "zy": 5806,
      "Ġ60": 5807,
      "bative": 5808,
      "ulations": 5809,
      "vor": 5810,
      "Ġaddress": 5811,
      "Ġrules": 5812,
      "\\}.": 5813,
      "Ġinfer": 5814,
      "ilson": 5815,
      "fier": 5816,
      "Ġconfigurations": 5817,
      "Ġins": 5818,
      "Bal": 5819,
      "ZZ": 5820,
      "ita": 5821,
      "rew": 5822,
      "Ġneutron": 5823,
      "Ġfive": 5824,
      "Ġvor": 5825,
      "Ġtypically": 5826,
      "Ġheavy": 5827,
      "Ġstraightforward": 5828,
      "Ġcru": 5829,
      "ĠHigh": 5830,
      ".\\,": 5831,
      "get": 5832,
      "ĠSol": 5833,
      "ade": 5834,
      "const": 5835,
      "Ġneeds": 5836,
      "ĠDirac": 5837,
      "ĠEqs": 5838,
      "mbin": 5839,
      "Ġfrequencies": 5840,
      "Ġlearn": 5841,
      "square": 5842,
      "Sep": 5843,
      "Ġhep": 5844,
      "Ġbright": 5845,
      "\\[\\": 5846,
      "Ġdependent": 5847,
      "ĠĊĠĠ": 5848,
      "Ġelliptic": 5849,
      "Ġ\\{\\": 5850,
      "picture": 5851,
      "Ġdemonstrate": 5852,
      "crimin": 5853,
      "State": 5854,
      "Ġschemes": 5855,
      "Ġ95": 5856,
      "CF": 5857,
      "chron": 5858,
      "${\\": 5859,
      "Ġaspe": 5860,
      "Ġaffine": 5861,
      "Ġmetrics": 5862,
      "Ġnotion": 5863,
      "Ġexcept": 5864,
      "ped": 5865,
      "Ġclustering": 5866,
      "sis": 5867,
      "sy": 5868,
      "Ġreconstruction": 5869,
      "Ġsimultaneous": 5870,
      "Ġmanifolds": 5871,
      "{|": 5872,
      "1983": 5873,
      "mentary": 5874,
      "ĊĠĠĠĠĠĠĠĠĠĠĠĠĠĠĠ": 5875,
      "}})\\": 5876,
      "Ġindices": 5877,
      "CT": 5878,
      "Ġ}$": 5879,
      "Ġincludes": 5880,
      "Ġsolar": 5881,
      "Ġtemporal": 5882,
      "ben": 5883,
      "Van": 5884,
      "PhysRevB": 5885,
      "ĠWu": 5886,
      ")>": 5887,
      "Ġpreviously": 5888,
      "there": 5889,
      "Ġfitting": 5890,
      "Ġtemperatures": 5891,
      "Ġturbul": 5892,
      "Ġfunctor": 5893,
      "ĠLor": 5894,
      "\\|^": 5895,
      "ĠConsider": 5896,
      "Ġprefer": 5897,
      "aro": 5898,
      "Ġvio": 5899,
      "inguistics": 5900,
      "Ġpermu": 5901,
      "hic": 5902,
      "manif": 5903,
      "ĠBi": 5904,
      "GeV": 5905,
      "Ġmetall": 5906,
      "ĠDeep": 5907,
      "kl": 5908,
      "uration": 5909,
      "Sc": 5910,
      "ĠControl": 5911,
      "Ġcm": 5912,
      "Ġsignals": 5913,
      "sube": 5914,
      "Ġkeep": 5915,
      "otopy": 5916,
      "Ġexchange": 5917,
      "107": 5918,
      "Ġoperations": 5919,
      "counter": 5920,
      "repres": 5921,
      "Ġaverag": 5922,
      "Ġproton": 5923,
      "alls": 5924,
      "uchi": 5925,
      "pecially": 5926,
      "113": 5927,
      "URL": 5928,
      "cil": 5929,
      "Ġapproximately": 5930,
      "Sec": 5931,
      "Ġexpectation": 5932,
      "Ġrew": 5933,
      "ĠGraph": 5934,
      "Ã³": 5935,
      "ico": 5936,
      "Ġbands": 5937,
      "Ġpost": 5938,
      "Sal": 5939,
      "rief": 5940,
      "=-\\": 5941,
      "Next": 5942,
      "Ġtransformations": 5943,
      "$'": 5944,
      "correspon": 5945,
      "Ġdistinguish": 5946,
      "Ġlargest": 5947,
      "avity": 5948,
      "apla": 5949,
      "density": 5950,
      "Ġstage": 5951,
      "Ġmolecu": 5952,
      "Ġgreater": 5953,
      "bt": 5954,
      "&$": 5955,
      "150": 5956,
      "Ġhierarch": 5957,
      "Ġrapid": 5958,
      "ux": 5959,
      "Ġprofiles": 5960,
      "Ġthank": 5961,
      "ĠLin": 5962,
      "Ġcells": 5963,
      "Ġgenerating": 5964,
      "ĠBr": 5965,
      ")}$.": 5966,
      "sun": 5967,
      "Ġrig": 5968,
      "Ġcollection": 5969,
      "Bigl": 5970,
      "aux": 5971,
      "APACref": 5972,
      "Ġcompar": 5973,
      "Ġseparation": 5974,
      "theless": 5975,
      "Ġrenormal": 5976,
      "Ġprotocol": 5977,
      "Ġmultip": 5978,
      "International": 5979,
      "\\}_{": 5980,
      "dash": 5981,
      "ĠMc": 5982,
      "Proposition": 5983,
      "Cho": 5984,
      "Ġnormalized": 5985,
      "DBLP": 5986,
      "$\\,": 5987,
      "win": 5988,
      "cities": 5989,
      "Ġ1997": 5990,
      "Ġ\\}": 5991,
      "Ġchiral": 5992,
      "Ġrough": 5993,
      "Bigr": 5994,
      "Ġsimplic": 5995,
      "Ġattribu": 5996,
      "Non": 5997,
      "ders": 5998,
      "midt": 5999,
      "tives": 6000,
      "Ġmixed": 6001,
      "Cont": 6002,
      "Ġneighborhood": 6003,
      "Ġpas": 6004,
      "Ã¨Ã": 6005,
      "Ġentanglement": 6006,
      "Ġnor": 6007,
      "mor": 6008,
      "117": 6009,
      "Ġidentical": 6010,
      "Ġpatterns": 6011,
      "Ġanisot": 6012,
      "secon": 6013,
      "Ġmid": 6014,
      "Ġgeodes": 6015,
      "vals": 6016,
      "\\,,": 6017,
      "fold": 6018,
      "spectr": 6019,
      "ena": 6020,
      "bigcup": 6021,
      "inear": 6022,
      "ĠSi": 6023,
      "zzi": 6024,
      "ched": 6025,
      "cription": 6026,
      "Ġstress": 6027,
      "Ġreduces": 6028,
      "....": 6029,
      "ions": 6030,
      "Ġdirections": 6031,
      "Ġprecision": 6032,
      "Ġdecreases": 6033,
      "Ġincor": 6034,
      "step": 6035,
      "dec": 6036,
      "itt": 6037,
      "PC": 6038,
      "Ġcontent": 6039,
      "bp": 6040,
      "valued": 6041,
      "ĠApplied": 6042,
      "ĠLinguistics": 6043,
      "ĠFound": 6044,
      "Ca": 6045,
      "Ġadversarial": 6046,
      "Ġcat": 6047,
      "Ġ42": 6048,
      "Ni": 6049,
      "Ġnovel": 6050,
      "Ġevaluated": 6051,
      "ĠTheore": 6052,
      "Im": 6053,
      "Kar": 6054,
      "email": 6055,
      "1982": 6056,
      "footnotesize": 6057,
      "Ġfeedback": 6058,
      "119": 6059,
      "Mac": 6060,
      "Ġarguments": 6061,
      "onz": 6062,
      "ĠMed": 6063,
      "subequations": 6064,
      "Ġpriv": 6065,
      "quid": 6066,
      "olved": 6067,
      "lean": 6068,
      "ĠEquation": 6069,
      "Ġstrictly": 6070,
      "DR": 6071,
      "Mi": 6072,
      "Ġstationary": 6073,
      "tempurl": 6074,
      "})_{": 6075,
      "Ġpass": 6076,
      "textcolor": 6077,
      "Ġcurr": 6078,
      "Ġagent": 6079,
      "chy": 6080,
      "bran": 6081,
      "Ġdiagrams": 6082,
      "ĠAv": 6083,
      "Ġiteration": 6084,
      "Ġ47": 6085,
      "Mark": 6086,
      "Ġindepend": 6087,
      "rs": 6088,
      "Ġdomains": 6089,
      "Ġsqu": 6090,
      "lein": 6091,
      "sively": 6092,
      "aus": 6093,
      "BM": 6094,
      "Ġonce": 6095,
      "Kra": 6096,
      "BN": 6097,
      "Ġphotons": 6098,
      "uclide": 6099,
      "ichael": 6100,
      "Ta": 6101,
      "Ġbottom": 6102,
      "Ġintermediate": 6103,
      "unity": 6104,
      "ubble": 6105,
      "Ġallowed": 6106,
      "Gener": 6107,
      "midrule": 6108,
      "109": 6109,
      "tel": 6110,
      "Ġsy": 6111,
      "Bon": 6112,
      "Data": 6113,
      "108": 6114,
      "related": 6115,
      "ontal": 6116,
      "Pet": 6117,
      "Ġdifferenti": 6118,
      "114": 6119,
      "Ġamplitudes": 6120,
      "Sto": 6121,
      "tating": 6122,
      "ĠIntelligence": 6123,
      "uclidean": 6124,
      "Ġsent": 6125,
      "condition": 6126,
      "strng": 6127,
      "ĠJohn": 6128,
      "1086": 6129,
      "lator": 6130,
      "HS": 6131,
      "Ġrise": 6132,
      "Ġtriangle": 6133,
      "stackrel": 6134,
      "symmetry": 6135,
      "metric": 6136,
      "Ros": 6137,
      "Ġcategories": 6138,
      "nother": 6139,
      "CN": 6140,
      "Ġpropagation": 6141,
      "116": 6142,
      "}>": 6143,
      "ĠDM": 6144,
      "ĠSuper": 6145,
      ")}$,": 6146,
      "ĠComput": 6147,
      "Add": 6148,
      "Ġdivis": 6149,
      "dle": 6150,
      "Ġflows": 6151,
      "Ġ41": 6152,
      "Ġvertical": 6153,
      "Ġcompati": 6154,
      "]=": 6155,
      "ĠSeries": 6156,
      "}{*}{\\": 6157,
      "ĠRoy": 6158,
      "Ġimproved": 6159,
      "Ġrestriction": 6160,
      "ĠGM": 6161,
      "Ġintegrals": 6162,
      "Ġtang": 6163,
      "Ġkinetic": 6164,
      "Ġsplitting": 6165,
      "ensen": 6166,
      "Ġactually": 6167,
      "Ġprojective": 6168,
      "015": 6169,
      "Au": 6170,
      "ources": 6171,
      "Ġ31": 6172,
      "sect": 6173,
      "'$.": 6174,
      "Ġouter": 6175,
      "Ġlikelihood": 6176,
      "Bel": 6177,
      "ĠIR": 6178,
      "Ġexplained": 6179,
      "ĠHar": 6180,
      "Ġcollisions": 6181,
      "Ġ1996": 6182,
      "ĠAu": 6183,
      "Ġcolo": 6184,
      "Mid": 6185,
      "Ġadop": 6186,
      "Ġdeviation": 6187,
      "Ġ44": 6188,
      "Ġglu": 6189,
      "ĠWorksho": 6190,
      "pA": 6191,
      "Des": 6192,
      "Ġachiev": 6193,
      "Ġmeaning": 6194,
      "eval": 6195,
      "active": 6196,
      "Ġrecover": 6197,
      "ductivity": 6198,
      "Ġsensitivity": 6199,
      "Ġaccretion": 6200,
      "vect": 6201,
      "Ġcodes": 6202,
      "ĠMor": 6203,
      "Ġlabels": 6204,
      "ON": 6205,
      "Table": 6206,
      "stan": 6207,
      "respe": 6208,
      "Ġnotice": 6209,
      "Ġpossibility": 6210,
      "Ġsystematic": 6211,
      "Han": 6212,
      "Ð¾": 6213,
      "Ġcircle": 6214,
      "BL": 6215,
      "ensors": 6216,
      "ret": 6217,
      "verb": 6218,
      "ĠTra": 6219,
      "herence": 6220,
      "Ġbenchmark": 6221,
      "Ġdispla": 6222,
      "tible": 6223,
      "Ġcontact": 6224,
      "})=\\": 6225,
      "Ġmess": 6226,
      "Ġproducts": 6227,
      "]].": 6228,
      "Cs": 6229,
      "gments": 6230,
      "yama": 6231,
      "Ra": 6232,
      "Zhou": 6233,
      "Ġmargin": 6234,
      "Ġ48": 6235,
      "+$": 6236,
      "ĠSa": 6237,
      ".(\\": 6238,
      "012": 6239,
      "Zhu": 6240,
      "Fa": 6241,
      "Ġsparse": 6242,
      "2023": 6243,
      "ĠPoisson": 6244,
      "HE": 6245,
      "Ġquoti": 6246,
      "trivial": 6247,
      "PA": 6248,
      "law": 6249,
      "icz": 6250,
      "Ġsuggests": 6251,
      "vdots": 6252,
      "oring": 6253,
      "Ġholes": 6254,
      "Department": 6255,
      "Ġreport": 6256,
      "ĠVer": 6257,
      "ĠGR": 6258,
      "mplectic": 6259,
      "ĠEnergy": 6260,
      "Ġmedium": 6261,
      "Ġ~\\": 6262,
      "bigskip": 6263,
      "Ġempirical": 6264,
      "AI": 6265,
      "Ġhyperbolic": 6266,
      "sele": 6267,
      "Ġactions": 6268,
      "1980": 6269,
      "Ġseems": 6270,
      "Ġconditional": 6271,
      "Ġisomorphic": 6272,
      "Ġbrief": 6273,
      "citealt": 6274,
      "{.}(": 6275,
      "Ġmu": 6276,
      "eg": 6277,
      "Ġpositions": 6278,
      "constra": 6279,
      ")=(": 6280,
      "kins": 6281,
      "Ġdt": 6282,
      "\\-": 6283,
      "tios": 6284,
      "Ġinduction": 6285,
      "Ġdevelopment": 6286,
      "ĊĠĊ": 6287,
      "1109": 6288,
      "Ġsphere": 6289,
      "Ġsus": 6290,
      "Ã°": 6291,
      "Ġvision": 6292,
      "while": 6293,
      "ĠOr": 6294,
      "ĠKim": 6295,
      "beled": 6296,
      "}),\\": 6297,
      "enn": 6298,
      "alth": 6299,
      "ĠEuropean": 6300,
      "Ġinterpretation": 6301,
      "Fre": 6302,
      "Ġ99": 6303,
      "ceil": 6304,
      "HD": 6305,
      ")|\\": 6306,
      "Ġvirt": 6307,
      "here": 6308,
      "Ġverify": 6309,
      "Ġsoftware": 6310,
      "Ġshe": 6311,
      "ĠĠĠĠĠĠĠĠĠĠĠĠĠ": 6312,
      "AV": 6313,
      "ultra": 6314,
      "aum": 6315,
      "Ġcouplings": 6316,
      "Ġscenarios": 6317,
      "Ġanalogous": 6318,
      "CE": 6319,
      "Right": 6320,
      "Ċĉĉ": 6321,
      "]}}.": 6322,
      "idden": 6323,
      "Ġtrajectory": 6324,
      "ĠEach": 6325,
      "Ġ39": 6326,
      "hyper": 6327,
      "016": 6328,
      "science": 6329,
      "aba": 6330,
      "oshi": 6331,
      "ĠAGN": 6332,
      "ĠAmerican": 6333,
      "points": 6334,
      "cel": 6335,
      "Ġque": 6336,
      "Ġ43": 6337,
      "Ġspacetime": 6338,
      "Mod": 6339,
      ";\\;": 6340,
      "Ġtermin": 6341,
      "118": 6342,
      "Ġhapp": 6343,
      "Ġperturbations": 6344,
      "ston": 6345,
      "1038": 6346,
      "Ġuntil": 6347,
      "secondo": 6348,
      "Ġass": 6349,
      "inforcement": 6350,
      "'}\\": 6351,
      "Ġespecially": 6352,
      "Ġprimary": 6353,
      "Ġcomes": 6354,
      "dz": 6355,
      "lomorphic": 6356,
      "007": 6357,
      "Physical": 6358,
      "secondoftwo": 6359,
      "Ġweakly": 6360,
      "AD": 6361,
      "OT": 6362,
      "Ġcrystal": 6363,
      "Ġvariations": 6364,
      "notin": 6365,
      "depend": 6366,
      "]{\\@": 6367,
      "hed": 6368,
      "ville": 6369,
      "Ġhist": 6370,
      "Ġprime": 6371,
      "Ġconverges": 6372,
      "Ġsimplicity": 6373,
      "Ġlogarith": 6374,
      "gue": 6375,
      "Ġimplic": 6376,
      "GB": 6377,
      "value": 6378,
      "Bro": 6379,
      "Ġinterface": 6380,
      "},}\\": 6381,
      "Ġaccess": 6382,
      "Sol": 6383,
      "ĠInt": 6384,
      "IG": 6385,
      "leftarrow": 6386,
      "ĠBra": 6387,
      "($": 6388,
      "mart": 6389,
      "sov": 6390,
      "Ġforward": 6391,
      "Ġspherical": 6392,
      "Ġ46": 6393,
      "{[": 6394,
      "Ġtreatment": 6395,
      "kk": 6396,
      "Tor": 6397,
      "}}},\\": 6398,
      "CVPR": 6399,
      "\\|_{\\": 6400,
      "([": 6401,
      "defn": 6402,
      "conom": 6403,
      "Ġlocated": 6404,
      "orphisms": 6405,
      "Ġ55": 6406,
      "ĠMag": 6407,
      "isi": 6408,
      "ĠSign": 6409,
      "Box": 6410,
      "core": 6411,
      "ĠCho": 6412,
      "SE": 6413,
      "IF": 6414,
      "Ġimply": 6415,
      "Var": 6416,
      "covery": 6417,
      "Ġhorizon": 6418,
      "ĠDefinition": 6419,
      "Bou": 6420,
      "BP": 6421,
      "Ġdecays": 6422,
      "006": 6423,
      "ĠPhysical": 6424,
      "pd": 6425,
      "Ġ90": 6426,
      "Tra": 6427,
      "gov": 6428,
      "Ġmemb": 6429,
      "Ġplanet": 6430,
      "pg": 6431,
      "Ġsizes": 6432,
      "Ġsemantic": 6433,
      "bach": 6434,
      "ĠDynam": 6435,
      "Ġsetup": 6436,
      "Ġcoherent": 6437,
      "LM": 6438,
      "CCV": 6439,
      "Char": 6440,
      "')$": 6441,
      "Ġfine": 6442,
      "Ġplasma": 6443,
      "vv": 6444,
      "appendix": 6445,
      "even": 6446,
      "Ġdistances": 6447,
      "Ġcharged": 6448,
      "ification": 6449,
      "Ġnull": 6450,
      "mail": 6451,
      "Ġ$$\\": 6452,
      "Ġtriple": 6453,
      "Ġorbits": 6454,
      "aturally": 6455,
      "Ġblocks": 6456,
      "Ġstatic": 6457,
      "Ġdefines": 6458,
      "ĠLanguage": 6459,
      "ova": 6460,
      "Ġharmonic": 6461,
      "pite": 6462,
      "Ġmeta": 6463,
      "Zhao": 6464,
      "Multi": 6465,
      "mand": 6466,
      "Ġearlier": 6467,
      "ito": 6468,
      "Ġcohomology": 6469,
      "stri": 6470,
      "bk": 6471,
      "crip": 6472,
      "underset": 6473,
      "FFFFFFFFFFFFFFFFFFFFFFFFFFFFFFFF": 6474,
      "Ġoutside": 6475,
      "^*_": 6476,
      "mean": 6477,
      "STD": 6478,
      "Ġconclusion": 6479,
      "tyle": 6480,
      "FR": 6481,
      "ĠBerlin": 6482,
      "|=": 6483,
      "More": 6484,
      "only": 6485,
      "Gre": 6486,
      "Ġsimulated": 6487,
      "mciteSet": 6488,
      "Ġissue": 6489,
      "ellow": 6490,
      "mciteSetBst": 6491,
      "1981": 6492,
      "Ġtesting": 6493,
      "Ġreli": 6494,
      "][": 6495,
      "aud": 6496,
      "Ġconju": 6497,
      "Ġresidual": 6498,
      "Ġvideo": 6499,
      "@{": 6500,
      "sures": 6501,
      "Ġaway": 6502,
      "Ġlowest": 6503,
      "ftware": 6504,
      "ĠDiffer": 6505,
      "}<": 6506,
      "psch": 6507,
      "lice": 6508,
      "cific": 6509,
      "itter": 6510,
      "ĠEinstein": 6511,
      "dimension": 6512,
      "quantum": 6513,
      "Ġdefinitions": 6514,
      "complete": 6515,
      "Ġnecessarily": 6516,
      "Ġhighest": 6517,
      "Er": 6518,
      "ared": 6519,
      "unit": 6520,
      "Ġproceed": 6521,
      "acobi": 6522,
      "approxi": 6523,
      "atorial": 6524,
      "Ġstri": 6525,
      "system": 6526,
      "Ġmathematical": 6527,
      "ĠImage": 6528,
      "Ġbelong": 6529,
      ")}_{\\": 6530,
      "Ġdecrease": 6531,
      "potential": 6532,
      "Ġtrain": 6533,
      "124": 6534,
      "Ġinequalities": 6535,
      "rie": 6536,
      "ĠGreen": 6537,
      "ĠNature": 6538,
      "Ġatmos": 6539,
      "Ġcontradiction": 6540,
      "Ġsocial": 6541,
      "ĠDen": 6542,
      "Ġonline": 6543,
      "aman": 6544,
      "Ġarri": 6545,
      "636": 6546,
      "Ġorientation": 6547,
      "ects": 6548,
      "gar": 6549,
      "Ġpractice": 6550,
      "pair": 6551,
      "alse": 6552,
      "Ġitem": 6553,
      "lb": 6554,
      "{\\'{": 6555,
      "clear": 6556,
      "Ġsolved": 6557,
      "elli": 6558,
      "ĠSing": 6559,
      "ĠAnn": 6560,
      "00000000": 6561,
      "Mu": 6562,
      "Ġswitch": 6563,
      "Ġsector": 6564,
      "Ġ1995": 6565,
      "Ġthermodynam": 6566,
      "ye": 6567,
      "Ġdescribes": 6568,
      "Ġbary": 6569,
      "127": 6570,
      "Ġdeduce": 6571,
      "Ġessentially": 6572,
      "Ġupon": 6573,
      "121": 6574,
      "minipage": 6575,
      "proper": 6576,
      "Ġwater": 6577,
      "Ġnormalization": 6578,
      "ĠHuang": 6579,
      "pschitz": 6580,
      "ĠXu": 6581,
      "convex": 6582,
      "Ġadded": 6583,
      "Ġimplemented": 6584,
      "ĠLy": 6585,
      "derson": 6586,
      "Ġposter": 6587,
      "Ġyet": 6588,
      "Mal": 6589,
      "]{}": 6590,
      "IV": 6591,
      "Ġcli": 6592,
      "ĠUV": 6593,
      "ĠSimilarly": 6594,
      "205": 6595,
      "ĠAfter": 6596,
      "Ġestimator": 6597,
      "Ġpen": 6598,
      "inn": 6599,
      "bilistic": 6600,
      "lots": 6601,
      "}~\\": 6602,
      "location": 6603,
      "Ġvanishes": 6604,
      "cip": 6605,
      "ACM": 6606,
      "matics": 6607,
      "km": 6608,
      "Ġagents": 6609,
      "180": 6610,
      "eting": 6611,
      "Chi": 6612,
      "lr": 6613,
      "fted": 6614,
      "637": 6615,
      "cate": 6616,
      "cH": 6617,
      "Ġ}{\\": 6618,
      "Ġanalyze": 6619,
      "ducting": 6620,
      "Ġexecu": 6621,
      "Ġwant": 6622,
      "Ġrang": 6623,
      "Ġenhance": 6624,
      "Wo": 6625,
      "Ġsimilarly": 6626,
      "omorphisms": 6627,
      "Ġimmediately": 6628,
      "Ġintegrated": 6629,
      "ĠAnnual": 6630,
      "quark": 6631,
      "Ġshowing": 6632,
      "Ġgenerators": 6633,
      "BIBentryALTinterwordspacing": 6634,
      "BIBentrySTD": 6635,
      "BIBentrySTDinterwordspacing": 6636,
      "ops": 6637,
      "zen": 6638,
      "obs": 6639,
      "ĠAlgebra": 6640,
      "ĠElectr": 6641,
      "Ġimportance": 6642,
      "div": 6643,
      "pot": 6644,
      "Ġlies": 6645,
      "'$,": 6646,
      "Ka": 6647,
      "Ġ58": 6648,
      "Cref": 6649,
      "cifically": 6650,
      "Ġ64": 6651,
      "oc": 6652,
      "inner": 6653,
      "Ġlaser": 6654,
      "ĠĠĠĠĠĠĠĠĠĠĠĠĠĠĠ": 6655,
      "Ġscore": 6656,
      "Ġunknown": 6657,
      "Ġcovariance": 6658,
      "Ġanno": 6659,
      "perimental": 6660,
      "ireless": 6661,
      "Ġratios": 6662,
      "cn": 6663,
      "Ġacts": 6664,
      "commu": 6665,
      "polation": 6666,
      "pertur": 6667,
      "Ġ$[\\": 6668,
      "angular": 6669,
      "Ġcandidate": 6670,
      "GS": 6671,
      "Ġpie": 6672,
      "ĠCommunications": 6673,
      "forming": 6674,
      "}}=\\": 6675,
      "Ġmax": 6676,
      "ĠMarkov": 6677,
      "quency": 6678,
      "ĠSub": 6679,
      "ĠSan": 6680,
      "izer": 6681,
      "Ġidentification": 6682,
      "qZ": 6683,
      "poch": 6684,
      "models": 6685,
      "ĠMechan": 6686,
      "^{[": 6687,
      "ĠAstronomy": 6688,
      "thetic": 6689,
      "Ġintegers": 6690,
      "ĠNetworks": 6691,
      "Ġregar": 6692,
      "Ġdissi": 6693,
      "Cas": 6694,
      "Ġrect": 6695,
      "PL": 6696,
      "ited": 6697,
      "ĠHy": 6698,
      "fully": 6699,
      "Quantum": 6700,
      "abor": 6701,
      "Ġstack": 6702,
      "emann": 6703,
      "Ġrisk": 6704,
      "ĠLorentz": 6705,
      "ĠStatistics": 6706,
      "andra": 6707,
      "compon": 6708,
      "_{{": 6709,
      "Ġsimilarity": 6710,
      "cF": 6711,
      "Ġima": 6712,
      ")|^": 6713,
      "Ġinvestigated": 6714,
      "Ri": 6715,
      "Ġdiscrimin": 6716,
      "lt": 6717,
      "ĠObserv": 6718,
      "bottom": 6719,
      "126": 6720,
      "EndOf": 6721,
      "Ġread": 6722,
      "Ġessential": 6723,
      "ularities": 6724,
      "jk": 6725,
      "EndOfBibitem": 6726,
      "Ke": 6727,
      "Val": 6728,
      "Ġrelationship": 6729,
      "ticles": 6730,
      "ada": 6731,
      "biggl": 6732,
      "Ġsix": 6733,
      "ium": 6734,
      "Ġow": 6735,
      "Ġopposite": 6736,
      "Ġquery": 6737,
      "Ġorders": 6738,
      "Ġarc": 6739,
      "formance": 6740,
      "Ġpotentials": 6741,
      "Ġcosmic": 6742,
      "Ġgenerator": 6743,
      "Ġ80": 6744,
      "zhang": 6745,
      "idel": 6746,
      "145": 6747,
      "Ġneutral": 6748,
      "ado": 6749,
      "rup": 6750,
      "Ġrelaxation": 6751,
      "Ġproposition": 6752,
      "Ġreader": 6753,
      "Ġadaptive": 6754,
      "Ġdisjoint": 6755,
      "Ġexplan": 6756,
      "IPS": 6757,
      "alitative": 6758,
      "Mag": 6759,
      "rist": 6760,
      "008": 6761,
      "Ser": 6762,
      "Ġpropag": 6763,
      "Would": 6764,
      "ĠAlthough": 6765,
      "Hol": 6766,
      "opf": 6767,
      "Ġaug": 6768,
      "=(\\": 6769,
      "moment": 6770,
      "Ðµ": 6771,
      "ĠST": 6772,
      "Ġsubsets": 6773,
      "1979": 6774,
      "022": 6775,
      "ĠSpace": 6776,
      "mciteBst": 6777,
      "EndPunct": 6778,
      "AddEndPunct": 6779,
      "WouldAddEndPunct": 6780,
      "mciteBstWouldAddEndPunct": 6781,
      "ATE": 6782,
      "ames": 6783,
      "Ġprobabilities": 6784,
      "ĠField": 6785,
      "half": 6786,
      "ĠDu": 6787,
      "$&$": 6788,
      "Ġlocalization": 6789,
      "cknowledge": 6790,
      "tos": 6791,
      "Ġ$\\|": 6792,
      "Ġ57": 6793,
      "ĠMin": 6794,
      "subfigure": 6795,
      "Furthermore": 6796,
      "Ġdid": 6797,
      "Ġpurpose": 6798,
      "Ġrobot": 6799,
      "Martin": 6800,
      "read": 6801,
      "ĠĠĠĠĠĠĠĠĠĠĠĠĠĠ": 6802,
      "fficient": 6803,
      "ban": 6804,
      "Ġmodules": 6805,
      "tection": 6806,
      "Ġmoving": 6807,
      "aves": 6808,
      "ĠAm": 6809,
      "\\,.": 6810,
      "Ġprog": 6811,
      "]^{": 6812,
      "ĠAssume": 6813,
      "Ġmaterials": 6814,
      "Ġvarying": 6815,
      "Ġadvantage": 6816,
      "Ġadjac": 6817,
      "Ġsuggest": 6818,
      "pling": 6819,
      "})-": 6820,
      "Rich": 6821,
      "ister": 6822,
      "Ġage": 6823,
      "Inter": 6824,
      "independent": 6825,
      "Sing": 6826,
      "ĠCommun": 6827,
      "elle": 6828,
      "Ġinvolving": 6829,
      "Ġdominant": 6830,
      "Ġmer": 6831,
      "Long": 6832,
      "Rom": 6833,
      "ĠMonte": 6834,
      "rgb": 6835,
      "Ġsensitive": 6836,
      "Ġformed": 6837,
      ",{\\": 6838,
      "Cl": 6839,
      "complex": 6840,
      "AE": 6841,
      "ĠCos": 6842,
      "Ġdisorder": 6843,
      "cp": 6844,
      "method": 6845,
      "Ġupdate": 6846,
      "Recall": 6847,
      "EndSep": 6848,
      "glig": 6849,
      "MidEndSep": 6850,
      "MidEndSepPunct": 6851,
      "Ġbaseline": 6852,
      "mciteSetBstMidEndSepPunct": 6853,
      "FC": 6854,
      "ĠMart": 6855,
      "ĠChina": 6856,
      "Trans": 6857,
      "Ġkind": 6858,
      "Ġexcitation": 6859,
      "Sil": 6860,
      "since": 6861,
      "rey": 6862,
      "Ġbur": 6863,
      "substack": 6864,
      "Ext": 6865,
      "inv": 6866,
      "OO": 6867,
      "Fran": 6868,
      "sepp": 6869,
      "ĠThat": 6870,
      "bile": 6871,
      "155": 6872,
      "Ġrestricted": 6873,
      "Ġanswer": 6874,
      "Ġpredict": 6875,
      "ĠRemark": 6876,
      "Ġnonzero": 6877,
      "jec": 6878,
      "Ġelectronic": 6879,
      "rfloor": 6880,
      "Ġintrinsic": 6881,
      ")).": 6882,
      "Ġdeal": 6883,
      "Ġgain": 6884,
      "Ġinterested": 6885,
      "orts": 6886,
      "ĠFlu": 6887,
      "}\\;": 6888,
      "ĠZhou": 6889,
      "ĠConf": 6890,
      "Ġuniverse": 6891,
      "ĠNGC": 6892,
      "minim": 6893,
      "oulos": 6894,
      "Ġautom": 6895,
      "enstein": 6896,
      "ĠCarlo": 6897,
      "burg": 6898,
      "ĠStatistical": 6899,
      "Om": 6900,
      "tility": 6901,
      "Ġactivity": 6902,
      "midpunct": 6903,
      "mcitedefaultsepp": 6904,
      "mcitedefaultmidpunct": 6905,
      "mcitedefaultseppunct": 6906,
      "Ġparticularly": 6907,
      "Ġentries": 6908,
      "illing": 6909,
      "LE": 6910,
      "when": 6911,
      "Ġdisplay": 6912,
      "158": 6913,
      "}{*}{": 6914,
      "vanced": 6915,
      "Ġrandomly": 6916,
      "Ġensure": 6917,
      "Ġmechanics": 6918,
      "Ġ\\,,": 6919,
      "apjl": 6920,
      "timization": 6921,
      "Ġworld": 6922,
      "identi": 6923,
      "Ġcone": 6924,
      "lfloor": 6925,
      "ĠÐ": 6926,
      "GG": 6927,
      "Bern": 6928,
      "HM": 6929,
      "Ġdecreasing": 6930,
      "Ġinclusion": 6931,
      "160": 6932,
      "OM": 6933,
      "Ġisot": 6934,
      "loss": 6935,
      "While": 6936,
      "hfill": 6937,
      "Her": 6938,
      "Ġsite": 6939,
      "between": 6940,
      "rev": 6941,
      "Ġconstrained": 6942,
      "Ġpicture": 6943,
      "phy": 6944,
      "Ġfractional": 6945,
      "Ġdro": 6946,
      "Ġsubsection": 6947,
      "bounded": 6948,
      "Rightarrow": 6949,
      "Ġbreaking": 6950,
      "leqslant": 6951,
      "ost": 6952,
      "cha": 6953,
      "lob": 6954,
      "Ġlept": 6955,
      "135": 6956,
      "Assume": 6957,
      "cum": 6958,
      ")}=": 6959,
      "nor": 6960,
      "Ġimaging": 6961,
      "Ġrelativistic": 6962,
      "Ġcharacteristics": 6963,
      "diag": 6964,
      "Ġsat": 6965,
      "Ġwindow": 6966,
      "bability": 6967,
      "efficient": 6968,
      "Ġsymmetries": 6969,
      "Ġ96": 6970,
      "Ġmagne": 6971,
      "Online": 6972,
      "Ġstabili": 6973,
      ",(": 6974,
      "second": 6975,
      "âĢĻ": 6976,
      "Cu": 6977,
      "ondon": 6978,
      "cknowled": 6979,
      "Ġlinearly": 6980,
      "}&\\": 6981,
      "Ġstructural": 6982,
      "warz": 6983,
      "Ġincorpor": 6984,
      "Pan": 6985,
      "surface": 6986,
      "))$.": 6987,
      "ĠRa": 6988,
      "vice": 6989,
      "mciteBstWouldAddEndPuncttrue": 6990,
      "prec": 6991,
      "Ġmoments": 6992,
      "Ġestablished": 6993,
      "Ġpublic": 6994,
      "Ġintroduction": 6995,
      "curcolor": 6996,
      "Ġreplaced": 6997,
      "$(\\": 6998,
      "Ġcharacterized": 6999,
      "coming": 7000,
      "parameters": 7001,
      "ĠLapla": 7002,
      "Ġspecies": 7003,
      "ĠWorkshop": 7004,
      "icon": 7005,
      "lescope": 7006,
      "alla": 7007,
      "ardi": 7008,
      "Ġetc": 7009,
      "strong": 7010,
      "lia": 7011,
      "ccc": 7012,
      "Ġintervals": 7013,
      "cross": 7014,
      "Ġ56": 7015,
      "Ġanomal": 7016,
      "Ġformalism": 7017,
      "Ġtrajectories": 7018,
      "Ġcrucial": 7019,
      "Ġ97": 7020,
      "Ġquotient": 7021,
      "122": 7022,
      "iton": 7023,
      "Alex": 7024,
      "sample": 7025,
      ".,}{{": 7026,
      "Ġ75": 7027,
      "Ġepoch": 7028,
      "ĠCla": 7029,
      "Ġstrategies": 7030,
      "Ġwor": 7031,
      "thick": 7032,
      "011": 7033,
      "]_{": 7034,
      "Ġdig": 7035,
      "wer": 7036,
      "}\\|": 7037,
      "Ġexclu": 7038,
      "Ġvariational": 7039,
      "Ġabsence": 7040,
      "Ġcriterion": 7041,
      "156": 7042,
      "{-}": 7043,
      "Ġfami": 7044,
      "rable": 7045,
      "ĠDec": 7046,
      "Ed": 7047,
      "Ġnegle": 7048,
      "129": 7049,
      "Upsilon": 7050,
      "vx": 7051,
      "fications": 7052,
      "lum": 7053,
      "1977": 7054,
      "ĠFa": 7055,
      "Ġ70": 7056,
      "variate": 7057,
      "Sum": 7058,
      "Ġtrac": 7059,
      "endpunct": 7060,
      "mcitedefaultendpunct": 7061,
      "Ġassess": 7062,
      "riv": 7063,
      "ester": 7064,
      "Ġcapacity": 7065,
      "Ġinvariance": 7066,
      "opt": 7067,
      "Ġmeson": 7068,
      "Ġsuffices": 7069,
      "oting": 7070,
      "nihi": 7071,
      "ĠAdvances": 7072,
      "Ġdeformation": 7073,
      "Ġdelay": 7074,
      "anal": 7075,
      "atelli": 7076,
      "ffic": 7077,
      "\\!\\!\\!\\!": 7078,
      "203": 7079,
      "Ġ195": 7080,
      "biggr": 7081,
      "inement": 7082,
      "ĠZhu": 7083,
      "igens": 7084,
      "Ġbene": 7085,
      "MT": 7086,
      "overset": 7087,
      "ute": 7088,
      "vp": 7089,
      "Ġnaturally": 7090,
      "ariant": 7091,
      "Ġadding": 7092,
      "qq": 7093,
      "RE": 7094,
      "irr": 7095,
      "435": 7096,
      "wi": 7097,
      "025": 7098,
      "Ġnoted": 7099,
      "Min": 7100,
      "Ġmainly": 7101,
      "weak": 7102,
      "HT": 7103,
      "Ġspan": 7104,
      "Ġcondens": 7105,
      "AF": 7106,
      "Ġfail": 7107,
      "grad": 7108,
      "Sub": 7109,
      "Ac": 7110,
      "Ġdefining": 7111,
      ")}^": 7112,
      "1145": 7113,
      "Ġbody": 7114,
      "Ġduality": 7115,
      "pheric": 7116,
      "OP": 7117,
      ",.": 7118,
      "list": 7119,
      "^-$": 7120,
      "Ġcome": 7121,
      "mr": 7122,
      "ĠRepres": 7123,
      "Ġvelo": 7124,
      "Ġquas": 7125,
      "aps": 7126,
      "ĠEuclidean": 7127,
      "Hy": 7128,
      "Ġperspe": 7129,
      "ku": 7130,
      "iley": 7131,
      "Ġpractical": 7132,
      "ĠReg": 7133,
      "Ġslope": 7134,
      "395": 7135,
      "Ġ98": 7136,
      "iu": 7137,
      "Ġexponent": 7138,
      "Ġcarried": 7139,
      "Ġlife": 7140,
      "optimal": 7141,
      "illiams": 7142,
      "Ġdemonstrated": 7143,
      "'}$": 7144,
      "att": 7145,
      "olf": 7146,
      "Ġquestions": 7147,
      "exists": 7148,
      "Equ": 7149,
      "Ġinflation": 7150,
      "Ġdominated": 7151,
      "024": 7152,
      "Ġextracted": 7153,
      "Ġcorrespondence": 7154,
      "Case": 7155,
      "dynamics": 7156,
      "Ġcomplic": 7157,
      "pers": 7158,
      "seq": 7159,
      "017": 7160,
      "Ġanalytical": 7161,
      "ored": 7162,
      "stretch": 7163,
      "Ġ49": 7164,
      "ortion": 7165,
      "Ġpulse": 7166,
      "etz": 7167,
      "ĠJan": 7168,
      "Ġturns": 7169,
      "Ġhadron": 7170,
      "Ġincreased": 7171,
      "sgs": 7172,
      "lest": 7173,
      "weight": 7174,
      "Ġshell": 7175,
      "Ġunion": 7176,
      "Ġultra": 7177,
      "ĠDepartment": 7178,
      "gligible": 7179,
      "Ġevol": 7180,
      "zo": 7181,
      "umann": 7182,
      "lower": 7183,
      "uzz": 7184,
      "product": 7185,
      "018": 7186,
      "Ġ53": 7187,
      "roscopy": 7188,
      "tification": 7189,
      "source": 7190,
      "ĠImp": 7191,
      "beging": 7192,
      "begingroup": 7193,
      "Ġappar": 7194,
      "Ġexpand": 7195,
      "'(\\": 7196,
      "ĠAlex": 7197,
      "stood": 7198,
      "----": 7199,
      "posed": 7200,
      ")[": 7201,
      "Ġhorizontal": 7202,
      "Ġactual": 7203,
      "alized": 7204,
      "Ġfinitely": 7205,
      "296": 7206,
      "Ġliquid": 7207,
      "ĠMay": 7208,
      "cessed": 7209,
      "Ġsky": 7210,
      "atom": 7211,
      "rez": 7212,
      "neg": 7213,
      "ĠMater": 7214,
      "pul": 7215,
      "continuous": 7216,
      "Ġmoder": 7217,
      "sharp": 7218,
      "training": 7219,
      "ĠDist": 7220,
      "Ġnumerically": 7221,
      "Ġincid": 7222,
      "Ġmoduli": 7223,
      "avis": 7224,
      "open": 7225,
      "$.}": 7226,
      "nodata": 7227,
      "mpid": 7228,
      "Ġvelocities": 7229,
      "McC": 7230,
      "133": 7231,
      "Ġembedded": 7232,
      "phen": 7233,
      "simple": 7234,
      "Ġspeech": 7235,
      "$};": 7236,
      "problem": 7237,
      "137": 7238,
      "Ġfeasi": 7239,
      "Ġretri": 7240,
      "mpidweb": 7241,
      "Ġmetal": 7242,
      "Ġcavity": 7243,
      "sgsymb": 7244,
      "ĠSet": 7245,
      "Ġreveal": 7246,
      "tre": 7247,
      "Ġpuls": 7248,
      "Ġinduces": 7249,
      "Ġcomparable": 7250,
      "Ġconsisting": 7251,
      "ĠCal": 7252,
      "nik": 7253,
      "Ġ54": 7254,
      "Ã¼": 7255,
      "Ġfits": 7256,
      "pies": 7257,
      "iring": 7258,
      "Ġjump": 7259,
      "Ġtests": 7260,
      "Ġfamilyi": 7261,
      "Ġtrees": 7262,
      "GD": 7263,
      "iver": 7264,
      "MF": 7265,
      "hs": 7266,
      "ĠIs": 7267,
      "{\\`": 7268,
      "ĠCa": 7269,
      "distribution": 7270,
      "PI": 7271,
      "upta": 7272,
      "ĠĊĠĠĠĠĠĠĠ": 7273,
      "Ġdevices": 7274,
      "inson": 7275,
      "dimen": 7276,
      "eda": 7277,
      "Ġthin": 7278,
      "Ġderivation": 7279,
      "ĠBan": 7280,
      "Ġmonot": 7281,
      "Ġ1994": 7282,
      "nikov": 7283,
      "alta": 7284,
      "ront": 7285,
      "spaces": 7286,
      "\\}}": 7287,
      "esting": 7288,
      "uss": 7289,
      "Ġgiveni": 7290,
      "Ġgreat": 7291,
      "Ġqualitative": 7292,
      "BE": 7293,
      "NP": 7294,
      "tier": 7295,
      "Cur": 7296,
      "ĠAcade": 7297,
      "Ġexplore": 7298,
      "abo": 7299,
      "Ġrunning": 7300,
      "Ġhidden": 7301,
      "Kr": 7302,
      "ĠPe": 7303,
      "035": 7304,
      "mallest": 7305,
      "Ġobservables": 7306,
      "Ġisola": 7307,
      "Ġ59": 7308,
      "BR": 7309,
      "Ġvehic": 7310,
      "induced": 7311,
      "ales": 7312,
      "Yan": 7313,
      "illa": 7314,
      "Ġindu": 7315,
      "Ġdesigned": 7316,
      "bv": 7317,
      "aniel": 7318,
      "ĠGerman": 7319,
      "Den": 7320,
      "1978": 7321,
      "ĠAvailable": 7322,
      "was": 7323,
      "~{\\": 7324,
      "nl": 7325,
      "Ġbig": 7326,
      "connected": 7327,
      "resolution": 7328,
      "ĠBur": 7329,
      "hom": 7330,
      "pas": 7331,
      "what": 7332,
      "Ġoscillations": 7333,
      "Ġvanishing": 7334,
      "fin": 7335,
      "165": 7336,
      "llo": 7337,
      ")!": 7338,
      "ĠSecond": 7339,
      "Ġformulas": 7340,
      "Ġconfidence": 7341,
      "Ġcorrelated": 7342,
      "Ġattemp": 7343,
      "cussion": 7344,
      "fix": 7345,
      "DC": 7346,
      "dical": 7347,
      "yo": 7348,
      "ĠAb": 7349,
      "uer": 7350,
      "Ġhot": 7351,
      "dients": 7352,
      "Ġinfinity": 7353,
      "match": 7354,
      "1000": 7355,
      "pf": 7356,
      "ĠĠĊ": 7357,
      "lapse": 7358,
      "')\\": 7359,
      "Ġlack": 7360,
      "Ġmanner": 7361,
      "Ġangles": 7362,
      "raction": 7363,
      "prob": 7364,
      "ounts": 7365,
      "Ġsites": 7366,
      "Ġinvolved": 7367,
      "due": 7368,
      "Ġmechanisms": 7369,
      "Ġexpl": 7370,
      "oro": 7371,
      "KK": 7372,
      "Ġnarrow": 7373,
      "ĠArtificial": 7374,
      "ĠBa": 7375,
      "ĠSupp": 7376,
      "sti": 7377,
      "\\,(": 7378,
      "arest": 7379,
      "Ġreaction": 7380,
      "wart": 7381,
      "'=": 7382,
      "Ġsteady": 7383,
      "ett": 7384,
      "Ġillustrated": 7385,
      "Ġabelian": 7386,
      "ĠBen": 7387,
      "parame": 7388,
      "ĠSc": 7389,
      "Ġfollowed": 7390,
      "berts": 7391,
      "pter": 7392,
      "learly": 7393,
      "ĠRec": 7394,
      "Ġmixt": 7395,
      "Ġcompatible": 7396,
      "Ġ65": 7397,
      "Ġpixel": 7398,
      "versit": 7399,
      "equival": 7400,
      "Ġadopted": 7401,
      "organ": 7402,
      "Ġinstability": 7403,
      "sm": 7404,
      "](": 7405,
      "Lev": 7406,
      "cO": 7407,
      "Ġgenerality": 7408,
      "Ġhost": 7409,
      "Ġtrig": 7410,
      "ditive": 7411,
      "See": 7412,
      "Ġpartially": 7413,
      "}(-": 7414,
      "agement": 7415,
      "ĠVis": 7416,
      "UV": 7417,
      "jee": 7418,
      "Ġimprovement": 7419,
      "ĠUnder": 7420,
      "Ġconcern": 7421,
      "Advances": 7422,
      "omp": 7423,
      "}}+": 7424,
      "256": 7425,
      "Ġsymplectic": 7426,
      "eh": 7427,
      "smooth": 7428,
      "Ġemployed": 7429,
      "eterog": 7430,
      "qed": 7431,
      "ĠEuler": 7432,
      ".]": 7433,
      "STATE": 7434,
      "3847": 7435,
      "Ġcomparing": 7436,
      "Ġ({": 7437,
      "Ġaggre": 7438,
      "Bbb": 7439,
      "&+": 7440,
      "{**": 7441,
      "textup": 7442,
      "):=\\": 7443,
      "istry": 7444,
      "Ġcatalog": 7445,
      "column": 7446,
      "keywords": 7447,
      "Springer": 7448,
      "Ġlift": 7449,
      "frame": 7450,
      "isher": 7451,
      "But": 7452,
      "channel": 7453,
      "144": 7454,
      "({": 7455,
      "Ġfair": 7456,
      "Ġprincipal": 7457,
      "Rep": 7458,
      "Ġsti": 7459,
      "136": 7460,
      "Ġ\\#": 7461,
      "Ġ\\\\[": 7462,
      "Ġdiscussions": 7463,
      "Ġelastic": 7464,
      "(|": 7465,
      "teness": 7466,
      "$--": 7467,
      "Ġreads": 7468,
      "tikzpicture": 7469,
      "RC": 7470,
      "Ġseparate": 7471,
      "ĠURL": 7472,
      "Ġnuclei": 7473,
      "onon": 7474,
      "ulated": 7475,
      "Ġelimin": 7476,
      "haus": 7477,
      "neider": 7478,
      "153": 7479,
      "uth": 7480,
      "ĠEd": 7481,
      "Similarly": 7482,
      "Ġothers": 7483,
      "ĠJu": 7484,
      "Ġregularization": 7485,
      "}):": 7486,
      "domain": 7487,
      ")/\\": 7488,
      "Ġemerg": 7489,
      "isy": 7490,
      "LAS": 7491,
      "Ġposterior": 7492,
      "ĊĠĠĠĠĠĠĠĠĠĠĠĠ": 7493,
      "missible": 7494,
      "Ġmask": 7495,
      "owers": 7496,
      "png": 7497,
      "uniform": 7498,
      "Ġwhy": 7499,
      "wen": 7500,
      "uds": 7501,
      "ĠIII": 7502,
      "Ġsaid": 7503,
      "pez": 7504,
      "Brown": 7505,
      "Ġmagnet": 7506,
      "ĠSee": 7507,
      "nan": 7508,
      "dynamic": 7509,
      "sb": 7510,
      "Ġinten": 7511,
      "measure": 7512,
      "Ġquantitative": 7513,
      "ĠClass": 7514,
      "Ġtrunc": 7515,
      "}$$": 7516,
      "ĠKar": 7517,
      "BA": 7518,
      "risto": 7519,
      "138": 7520,
      "Ġparametri": 7521,
      "Ġpatch": 7522,
      "sig": 7523,
      "nowledge": 7524,
      "direction": 7525,
      "NA": 7526,
      "outh": 7527,
      "Ġtangent": 7528,
      "dom": 7529,
      "Results": 7530,
      "cycle": 7531,
      "Ġsuggested": 7532,
      "Ġarticle": 7533,
      "Fo": 7534,
      "ĠExt": 7535,
      "Ġsimultaneously": 7536,
      "Ġprogramming": 7537,
      "ĠGroup": 7538,
      "pho": 7539,
      "Ġstream": 7540,
      "ĠSignal": 7541,
      "}|^": 7542,
      "Ġshear": 7543,
      "+}": 7544,
      "iser": 7545,
      "chain": 7546,
      "emannian": 7547,
      "values": 7548,
      "ĠSD": 7549,
      "pacity": 7550,
      "veys": 7551,
      "termin": 7552,
      "graphic": 7553,
      "prints": 7554,
      "Ġ{$\\": 7555,
      "aker": 7556,
      "lates": 7557,
      "Ġnearly": 7558,
      "Hen": 7559,
      "Ġcandidates": 7560,
      "Ġhomotopy": 7561,
      "Ġholomorphic": 7562,
      "ĠStruct": 7563,
      "1976": 7564,
      "Ġreferences": 7565,
      "Ġinstr": 7566,
      "Ġball": 7567,
      "Ġchoices": 7568,
      "Ġfinally": 7569,
      "atively": 7570,
      "Ġabundance": 7571,
      "typeout": 7572,
      "Vol": 7573,
      "Two": 7574,
      "Ġkm": 7575,
      "botics": 7576,
      "dar": 7577,
      "Ġcalibration": 7578,
      "modules": 7579,
      "Ref": 7580,
      "Ġcooling": 7581,
      "kr": 7582,
      "Ġ{{\\": 7583,
      "Ġdwar": 7584,
      "kel": 7585,
      "longs": 7586,
      "ĠBern": 7587,
      "Ġfermions": 7588,
      "ona": 7589,
      "$_{\\": 7590,
      "ĠLect": 7591,
      "nol": 7592,
      "GP": 7593,
      "xili": 7594,
      "Ġextract": 7595,
      "ĠHa": 7596,
      "mbining": 7597,
      "}\\}$": 7598,
      "Ġsingularity": 7599,
      "rick": 7600,
      "Ġembeddings": 7601,
      "Ġhybrid": 7602,
      "liu": 7603,
      "Ġsummary": 7604,
      "yen": 7605,
      "Rec": 7606,
      "Ġforces": 7607,
      "Mas": 7608,
      "zh": 7609,
      "Ġ1993": 7610,
      "Ġphoto": 7611,
      "*\\": 7612,
      "Ġbelongs": 7613,
      "Ġdash": 7614,
      "Ġga": 7615,
      "clusions": 7616,
      "fan": 7617,
      "ĠNotes": 7618,
      "dal": 7619,
      "dated": 7620,
      "Ġveri": 7621,
      "Ġacceleration": 7622,
      "Ġcam": 7623,
      "inted": 7624,
      "140": 7625,
      "Ġinterior": 7626,
      "also": 7627,
      "Ġpeaks": 7628,
      "fontdimen": 7629,
      "Ġwhite": 7630,
      "SSN": 7631,
      "OC": 7632,
      "inski": 7633,
      "Verlag": 7634,
      "eti": 7635,
      "TR": 7636,
      "XX": 7637,
      "icci": 7638,
      "Ġmini": 7639,
      "sinh": 7640,
      "allow": 7641,
      "ĠCV": 7642,
      "cosh": 7643,
      "pn": 7644,
      ")\\,\\": 7645,
      "235": 7646,
      "lexi": 7647,
      "SY": 7648,
      "ues": 7649,
      "Park": 7650,
      "Ġcircular": 7651,
      "quet": 7652,
      "ansen": 7653,
      "Ġ$-\\": 7654,
      "Ġsmallest": 7655,
      "yd": 7656,
      "Ġreasonable": 7657,
      "Ġexhibit": 7658,
      "1111": 7659,
      "xiliary": 7660,
      "White": 7661,
      "sn": 7662,
      "}))": 7663,
      "Ġunderstood": 7664,
      "Ġgeodesic": 7665,
      "ĠState": 7666,
      "Ġqubit": 7667,
      "ĠFunction": 7668,
      "daptive": 7669,
      "consistent": 7670,
      "Ġordered": 7671,
      "jan": 7672,
      "Ġways": 7673,
      "Ġstronger": 7674,
      "power": 7675,
      "Ġsubstitu": 7676,
      "Ġruns": 7677,
      "Ġinstant": 7678,
      "tu": 7679,
      "observ": 7680,
      "auchy": 7681,
      "ĠVan": 7682,
      "Ġactiv": 7683,
      "given": 7684,
      "Ġarise": 7685,
      "}=(": 7686,
      "los": 7687,
      "Ġroots": 7688,
      "cut": 7689,
      "brary": 7690,
      "driven": 7691,
      "uel": 7692,
      "Ġiterations": 7693,
      "tree": 7694,
      "157": 7695,
      "Ġinterference": 7696,
      "eties": 7697,
      "Ġlatent": 7698,
      "Ġ51": 7699,
      "Ġurl": 7700,
      "ymmetric": 7701,
      "Ġconservation": 7702,
      "current": 7703,
      "run": 7704,
      "Ġtools": 7705,
      "Ġinstances": 7706,
      "Gonz": 7707,
      "akov": 7708,
      "Ġimplicit": 7709,
      "zu": 7710,
      "Ġdrop": 7711,
      "ĠBayesian": 7712,
      "Ġreplace": 7713,
      "ĠHall": 7714,
      "Ġperson": 7715,
      "ĠSN": 7716,
      "Ġmolecules": 7717,
      "Ġspecified": 7718,
      "idal": 7719,
      "Ġexcited": 7720,
      "ĠGalactic": 7721,
      "]_": 7722,
      "formula": 7723,
      "Ġlie": 7724,
      "Bas": 7725,
      "corresponding": 7726,
      "oul": 7727,
      "ditionally": 7728,
      "Imp": 7729,
      "Ġfaster": 7730,
      "Ġeigens": 7731,
      "Ġ)$": 7732,
      "Ġinteracting": 7733,
      "Ġoffer": 7734,
      "Ġpast": 7735,
      "ĠScientific": 7736,
      "Ġ05": 7737,
      "Ġds": 7738,
      "Ts": 7739,
      "ginary": 7740,
      "Ġdriven": 7741,
      "yp": 7742,
      "Ġconcentration": 7743,
      "kis": 7744,
      "tensor": 7745,
      "Ġrecor": 7746,
      "entative": 7747,
      "ĠCP": 7748,
      "Ġimplement": 7749,
      "stantial": 7750,
      "altaff": 7751,
      "rag": 7752,
      "direct": 7753,
      "Int": 7754,
      "Ġelementary": 7755,
      "temperature": 7756,
      "Ġcontribute": 7757,
      "deriv": 7758,
      "engio": 7759,
      "oz": 7760,
      "ributed": 7761,
      "respectively": 7762,
      "Ġsharp": 7763,
      "Ġstated": 7764,
      "Ġadmits": 7765,
      "apan": 7766,
      "frequency": 7767,
      "TS": 7768,
      "cM": 7769,
      "Ġ^{\\": 7770,
      "Ġign": 7771,
      "Ġconsistency": 7772,
      "renew": 7773,
      "stellar": 7774,
      "tates": 7775,
      "unov": 7776,
      "Ġshor": 7777,
      ")),": 7778,
      "Bs": 7779,
      "Ġdot": 7780,
      "queness": 7781,
      "cian": 7782,
      "ously": 7783,
      "Ġdel": 7784,
      "Anal": 7785,
      "iso": 7786,
      "ĠAppro": 7787,
      "{\\'\\": 7788,
      "Lie": 7789,
      "Ġreflection": 7790,
      "];": 7791,
      "vities": 7792,
      "ĠSoftware": 7793,
      "Ġvs": 7794,
      "ĠSome": 7795,
      "Ġboundaries": 7796,
      "olutions": 7797,
      "]/": 7798,
      "fp": 7799,
      "$=": 7800,
      "Ġprobe": 7801,
      "Ġinfra": 7802,
      "agno": 7803,
      "Ð°": 7804,
      "Far": 7805,
      "021": 7806,
      "short": 7807,
      "1973": 7808,
      "oltz": 7809,
      "sequent": 7810,
      "riting": 7811,
      "analy": 7812,
      "Ġpara": 7813,
      "134": 7814,
      "gravity": 7815,
      "166": 7816,
      "Nak": 7817,
      "009": 7818,
      "+|": 7819,
      "Ġ67": 7820,
      "ordan": 7821,
      "ller": 7822,
      "ĠMF": 7823,
      "HI": 7824,
      "Ġ120": 7825,
      "},~\\": 7826,
      "textsf": 7827,
      "Ġ52": 7828,
      "ĠDavid": 7829,
      "labor": 7830,
      "\\,{\\": 7831,
      "bsh": 7832,
      "Ġinvolves": 7833,
      "dl": 7834,
      "surname": 7835,
      "ĠMatter": 7836,
      "Ġdeci": 7837,
      "ĠBecause": 7838,
      "compact": 7839,
      "Ġarray": 7840,
      "1051": 7841,
      "ĠExample": 7842,
      "homogeneous": 7843,
      "chez": 7844,
      "Ġcycles": 7845,
      "igroup": 7846,
      "cepts": 7847,
      "DT": 7848,
      "^+\\": 7849,
      "expe": 7850,
      "}}+\\": 7851,
      "dor": 7852,
      "Ġreinforcement": 7853,
      "',\\": 7854,
      "Ġ68": 7855,
      "Ġcolumns": 7856,
      "oulomb": 7857,
      "electric": 7858,
      "andau": 7859,
      "Ġadopt": 7860,
      "Ġtorus": 7861,
      "Ġ\\'": 7862,
      "David": 7863,
      "Ġcovering": 7864,
      "algebras": 7865,
      "After": 7866,
      "degener": 7867,
      "019": 7868,
      "displaymath": 7869,
      "ills": 7870,
      "shot": 7871,
      "into": 7872,
      "1974": 7873,
      "ĠBes": 7874,
      ".}}]{": 7875,
      "164": 7876,
      "otic": 7877,
      "Gs": 7878,
      "mmer": 7879,
      "amond": 7880,
      "ĠLHC": 7881,
      "ĠNatural": 7882,
      "Ġcontroll": 7883,
      "cripts": 7884,
      "Ġconventional": 7885,
      "Ġtend": 7886,
      "Ġconduct": 7887,
      "Deep": 7888,
      "Ġinsu": 7889,
      "equilibrium": 7890,
      "}^{(\\": 7891,
      "height": 7892,
      "mel": 7893,
      "hole": 7894,
      "Ġ\\|_{": 7895,
      "ermitian": 7896,
      "Ġdriving": 7897,
      "PM": 7898,
      "Rod": 7899,
      "ĠMeV": 7900,
      "Ġaspects": 7901,
      "1975": 7902,
      "Ġregularity": 7903,
      "pq": 7904,
      "nova": 7905,
      "tability": 7906,
      "Ġdivergence": 7907,
      "Ġsingularities": 7908,
      "limit": 7909,
      "Ġlittle": 7910,
      "Ġmodular": 7911,
      "renewcommand": 7912,
      "iness": 7913,
      "itten": 7914,
      "Ġcomplicated": 7915,
      "ijk": 7916,
      "Ġthroughout": 7917,
      "loch": 7918,
      "far": 7919,
      "gas": 7920,
      "Ġempty": 7921,
      "143": 7922,
      "Ġrealistic": 7923,
      "How": 7924,
      "LA": 7925,
      "Ġroughly": 7926,
      "Ġvirtual": 7927,
      "Ġgoes": 7928,
      "Ġmut": 7929,
      "Ġplanar": 7930,
      "Ġconvenient": 7931,
      "tize": 7932,
      "xymatrix": 7933,
      "Ġapproximations": 7934,
      "Ġunstable": 7935,
      "Ġske": 7936,
      "Although": 7937,
      "evertheless": 7938,
      "\\\\\\": 7939,
      "Ġ&-": 7940,
      "poly": 7941,
      "Ġinputs": 7942,
      "ives": 7943,
      ").$$": 7944,
      "147": 7945,
      "Ġdevice": 7946,
      "Ġvisible": 7947,
      "Ġbit": 7948,
      "Ġasser": 7949,
      "ssification": 7950,
      "momentum": 7951,
      "Ġproves": 7952,
      "^*(\\": 7953,
      "Ġinsight": 7954,
      "KS": 7955,
      "146": 7956,
      "jections": 7957,
      "Ġ\\}$": 7958,
      "xford": 7959,
      "abolic": 7960,
      "eros": 7961,
      "ÑĤ": 7962,
      "conv": 7963,
      "Ġselect": 7964,
      "Ġmono": 7965,
      "Ġ93": 7966,
      "Ġexcess": 7967,
      "rk": 7968,
      "Jo": 7969,
      "Ġmesh": 7970,
      "db": 7971,
      "nals": 7972,
      "uclear": 7973,
      "Ġcaused": 7974,
      "--\\": 7975,
      "Ġeffectively": 7976,
      "ĠFoundation": 7977,
      "Ġpublish": 7978,
      "cL": 7979,
      "Ġclosure": 7980,
      "pring": 7981,
      "physical": 7982,
      "Ġnever": 7983,
      "ended": 7984,
      "Ġ105": 7985,
      "Ġcriteria": 7986,
      "FE": 7987,
      "Cla": 7988,
      "Ġ...": 7989,
      "oidal": 7990,
      "}{}{": 7991,
      "ĠOther": 7992,
      "tated": 7993,
      "^{*}": 7994,
      "Ren": 7995,
      "Jones": 7996,
      "ĠPart": 7997,
      "}}\\\\": 7998,
      "ĠMax": 7999,
      "ska": 8000,
      "Ġ77": 8001,
      "Ġtechnical": 8002,
      "nell": 8003,
      "odd": 8004,
      "159": 8005,
      "CB": 8006,
      "}\\!": 8007,
      "Ġsettings": 8008,
      "altaffil": 8009,
      "Ġissues": 8010,
      "ishi": 8011,
      "Ġqubits": 8012,
      "Ġdifficul": 8013,
      "standing": 8014,
      "random": 8015,
      "Bor": 8016,
      "Ġcontinuity": 8017,
      "Ġexperi": 8018,
      "integra": 8019,
      "Ġmissing": 8020,
      "Ġannihi": 8021,
      "Ġrectangle": 8022,
      "154": 8023,
      "Ġmetallicity": 8024,
      "ĠTor": 8025,
      ")<": 8026,
      "Don": 8027,
      "Wei": 8028,
      "cht": 8029,
      "leftrightarrow": 8030,
      "Ġinser": 8031,
      "Ġnegligible": 8032,
      "uller": 8033,
      "ĠFurther": 8034,
      "uu": 8035,
      "ĠMechanics": 8036,
      "ĠRus": 8037,
      "]\\\\": 8038,
      "Max": 8039,
      "Nucl": 8040,
      ">$": 8041,
      "139": 8042,
      "Ġproviding": 8043,
      "}}\\,": 8044,
      "ool": 8045,
      "ĠSIAM": 8046,
      "\",": 8047,
      "cluster": 8048,
      "Ġgiving": 8049,
      "RA": 8050,
      "Ġrecomm": 8051,
      "some": 8052,
      "Ġequi": 8053,
      "Ġ1992": 8054,
      "}}-": 8055,
      "Ġchanging": 8056,
      "auss": 8057,
      "cb": 8058,
      "mplex": 8059,
      "Ġproofs": 8060,
      "Ġlisted": 8061,
      "Ġerg": 8062,
      "Ġdescribing": 8063,
      "global": 8064,
      "FS": 8065,
      "rep": 8066,
      "Ġ@": 8067,
      "wan": 8068,
      "unskip": 8069,
      "Ġoverlap": 8070,
      "Nat": 8071,
      "Ġfig": 8072,
      "Fer": 8073,
      "ints": 8074,
      "ayan": 8075,
      "uv": 8076,
      "imer": 8077,
      "Ġ63": 8078,
      "Wat": 8079,
      "inen": 8080,
      "ĠLabor": 8081,
      "ĠOper": 8082,
      "bserve": 8083,
      "ĠCase": 8084,
      "Ġinterpreted": 8085,
      "itzer": 8086,
      "Ġtight": 8087,
      "023": 8088,
      "yang": 8089,
      "tituting": 8090,
      "Ġindependently": 8091,
      "Ġability": 8092,
      "Ġdashed": 8093,
      "ĠMi": 8094,
      "Com": 8095,
      "predic": 8096,
      "sg": 8097,
      "comes": 8098,
      "Ġillustrate": 8099,
      "Ġtracking": 8100,
      "Ġcircuit": 8101,
      "fl": 8102,
      "Ġcreate": 8103,
      "195": 8104,
      "stream": 8105,
      "Ġadjacent": 8106,
      "Ġencoder": 8107,
      "Ġgrant": 8108,
      "Ġprivacy": 8109,
      "Ġlabeled": 8110,
      "Ġmac": 8111,
      "ĠTr": 8112,
      "Ġ71": 8113,
      "ĠBu": 8114,
      "Ġpresents": 8115,
      "Ġfav": 8116,
      "satis": 8117,
      "Ġinvariants": 8118,
      "Ġ94": 8119,
      "Green": 8120,
      "rivial": 8121,
      "Ġelectromagnetic": 8122,
      "ĠAdS": 8123,
      "similar": 8124,
      "partite": 8125,
      "ĠNa": 8126,
      "icted": 8127,
      "161": 8128,
      "Ġpermutation": 8129,
      "ĠHan": 8130,
      "three": 8131,
      "Wil": 8132,
      "lication": 8133,
      "result": 8134,
      "Guo": 8135,
      "tb": 8136,
      "Ġwall": 8137,
      "eno": 8138,
      "ison": 8139,
      "Ġindicated": 8140,
      "green": 8141,
      "photon": 8142,
      "ĠCenter": 8143,
      "},\\\\": 8144,
      "Ġobservable": 8145,
      "analysis": 8146,
      "026": 8147,
      "ought": 8148,
      "ĠEl": 8149,
      "Ġworth": 8150,
      "critical": 8151,
      "Ġcyclic": 8152,
      "hase": 8153,
      "modal": 8154,
      "kra": 8155,
      "Ġtes": 8156,
      "Ġperspective": 8157,
      "orel": 8158,
      "rec": 8159,
      "Ġsubstantial": 8160,
      "148": 8161,
      "Ġel": 8162,
      "}$\\": 8163,
      "Ġcreated": 8164,
      "Ã»": 8165,
      "ĠTwo": 8166,
      "Ġest": 8167,
      "mpli": 8168,
      "Ġwalk": 8169,
      "hifted": 8170,
      "163": 8171,
      "Ġcommutative": 8172,
      "CG": 8173,
      "nov": 8174,
      "Ġplotted": 8175,
      "})(": 8176,
      "noise": 8177,
      "string": 8178,
      "Ġ85": 8179,
      "shift": 8180,
      "eqq": 8181,
      "TE": 8182,
      "University": 8183,
      "]^{\\": 8184,
      "lind": 8185,
      "Ġreferred": 8186,
      "$^\\": 8187,
      "versi": 8188,
      "Ġcomputations": 8189,
      "}}}{": 8190,
      "ĠMil": 8191,
      "'t": 8192,
      "zes": 8193,
      "ĠSal": 8194,
      "sey": 8195,
      "Ġwhenever": 8196,
      "ĠRecall": 8197,
      "225": 8198,
      "Ġpossibly": 8199,
      "sz": 8200,
      "ĠModels": 8201,
      "Ġtraffic": 8202,
      "Ġordering": 8203,
      "graphs": 8204,
      "creasing": 8205,
      "Ġordin": 8206,
      "boundary": 8207,
      "))=": 8208,
      "degree": 8209,
      "Ġproduces": 8210,
      "Ġdatabase": 8211,
      "ois": 8212,
      "dep": 8213,
      "Ġbuilding": 8214,
      "cE": 8215,
      ")}=\\": 8216,
      "Ġ128": 8217,
      "Ġsegment": 8218,
      "Ġisolated": 8219,
      "Ġseparated": 8220,
      "ĠCur": 8221,
      "ĠEarth": 8222,
      "graphy": 8223,
      "Science": 8224,
      "ĠCNN": 8225,
      "Ġdiscover": 8226,
      "167": 8227,
      "Ġloops": 8228,
      "Ġfront": 8229,
      "Ev": 8230,
      "xrightarrow": 8231,
      "ĠBro": 8232,
      "Ġsides": 8233,
      "ĠSystem": 8234,
      "Ġsci": 8235,
      "final": 8236,
      "ĠBal": 8237,
      "ĊĠĠĠĠĊĠĠĠĠ": 8238,
      "Ġdipole": 8239,
      "130": 8240,
      "Ġsatelli": 8241,
      "consider": 8242,
      "Ġ\\:": 8243,
      "Ġenhanced": 8244,
      "Based": 8245,
      "}$).": 8246,
      "TM": 8247,
      "Ġimaginary": 8248,
      "Planck": 8249,
      "Tur": 8250,
      "):=": 8251,
      "Ġrequirement": 8252,
      "Mur": 8253,
      "Ġbriefly": 8254,
      "Pal": 8255,
      "nat": 8256,
      "rix": 8257,
      "ĠLondon": 8258,
      "abatic": 8259,
      "Ġparticip": 8260,
      "Ġ\\)": 8261,
      "dev": 8262,
      "}$&": 8263,
      "xxx": 8264,
      "newpage": 8265,
      "going": 8266,
      "Ġmultiplication": 8267,
      "Ð¸": 8268,
      "Ġoutper": 8269,
      "Os": 8270,
      "autoref": 8271,
      "barticle": 8272,
      "flat": 8273,
      "rays": 8274,
      "Ġanalyzed": 8275,
      "Ġextends": 8276,
      "online": 8277,
      "Ġletter": 8278,
      "correlation": 8279,
      "tx": 8280,
      "cosity": 8281,
      "142": 8282,
      "ĠAccording": 8283,
      "175": 8284,
      "Time": 8285,
      "character": 8286,
      "Ġdeterministic": 8287,
      "202": 8288,
      "tified": 8289,
      "Ġrespective": 8290,
      "adic": 8291,
      "JcD": 8292,
      "Ġformer": 8293,
      "Ġdetermines": 8294,
      "lligent": 8295,
      "fast": 8296,
      "tron": 8297,
      "selves": 8298,
      "ĠTaylor": 8299,
      "ĠShi": 8300,
      "Thm": 8301,
      "Ġradii": 8302,
      "Ġrigid": 8303,
      "ĠAstronomical": 8304,
      "ĠSep": 8305,
      "Ġchallenge": 8306,
      "Ġapplies": 8307,
      "ĠGermany": 8308,
      "Ġrobustness": 8309,
      "Ġown": 8310,
      "electron": 8311,
      ")},\\": 8312,
      "arity": 8313,
      "guyen": 8314,
      "Ġbuild": 8315,
      "Ġ104": 8316,
      "Ġrequirements": 8317,
      "Ham": 8318,
      "Ġgover": 8319,
      ".\\]": 8320,
      "Ġallowing": 8321,
      "Ġarises": 8322,
      "Ġcharacterization": 8323,
      "cX": 8324,
      "aving": 8325,
      "Ġcontrolled": 8326,
      "Ġsensor": 8327,
      "namehash": 8328,
      "Ġphenomena": 8329,
      "Ġframes": 8330,
      "Ġ\\,.": 8331,
      "Lang": 8332,
      "upper": 8333,
      "Jan": 8334,
      "Ġlocalized": 8335,
      "Ġdiameter": 8336,
      "Ġ)\\": 8337,
      "_{|": 8338,
      "cellcolor": 8339,
      "075": 8340,
      "Indeed": 8341,
      "^*}": 8342,
      "Ġauxiliary": 8343,
      "Ġacting": 8344,
      ")~": 8345,
      "Ele": 8346,
      "207": 8347,
      "ĠAug": 8348,
      "irk": 8349,
      "Ġisotropic": 8350,
      "ĠMNRAS": 8351,
      "027": 8352,
      "Thomas": 8353,
      "Ban": 8354,
      "paper": 8355,
      "Ġ69": 8356,
      "Ġ73": 8357,
      "Ġquantization": 8358,
      "cluding": 8359,
      "sgsymbnum": 8360,
      "Jiang": 8361,
      "elson": 8362,
      "Ġtwist": 8363,
      "WW": 8364,
      "Ġhomology": 8365,
      "Ġdrift": 8366,
      "ĠZhao": 8367,
      "eb": 8368,
      "Ġasymptotically": 8369,
      "131": 8370,
      "shape": 8371,
      "hel": 8372,
      "Shen": 8373,
      "Ġhomomorphism": 8374,
      "Ġdate": 8375,
      "ĠCR": 8376,
      "component": 8377,
      "ĠJacobi": 8378,
      "'}(": 8379,
      "utter": 8380,
      "positive": 8381,
      "Am": 8382,
      "meter": 8383,
      "tably": 8384,
      "Gro": 8385,
      "tech": 8386,
      "bell": 8387,
      "hara": 8388,
      "irich": 8389,
      "Ġcarry": 8390,
      "bigoplus": 8391,
      "Ġlinks": 8392,
      "Ġdirected": 8393,
      "_{(\\": 8394,
      "single": 8395,
      "gral": 8396,
      "'.": 8397,
      "ĠWeyl": 8398,
      "Ġmerg": 8399,
      "ĠChar": 8400,
      "Ġchoosing": 8401,
      "Ġlogic": 8402,
      "manifold": 8403,
      "204": 8404,
      "Ġanomaly": 8405,
      "ssess": 8406,
      "rat": 8407,
      "Ġversus": 8408,
      "Ġgoing": 8409,
      "Ġobs": 8410,
      "ĠLog": 8411,
      "Ġlearned": 8412,
      "thanks": 8413,
      "ĠBoth": 8414,
      "Ġcombining": 8415,
      "Ġchains": 8416,
      "SN": 8417,
      "Ġtreated": 8418,
      "gray": 8419,
      "Ġdegenerate": 8420,
      "UT": 8421,
      "6361": 8422,
      "cili": 8423,
      "ĠkeV": 8424,
      "ities": 8425,
      "Ġquarks": 8426,
      "Ġhydrogen": 8427,
      "Ġmor": 8428,
      "rb": 8429,
      "Ġrepresenting": 8430,
      "plot": 8431,
      "Ġdu": 8432,
      ")$$": 8433,
      "feld": 8434,
      "ĠPet": 8435,
      "Math": 8436,
      "Ġ109": 8437,
      "pation": 8438,
      "}^+": 8439,
      "IJ": 8440,
      "Ġnont": 8441,
      "Ġperturbative": 8442,
      "discre": 8443,
      "ishing": 8444,
      "Tu": 8445,
      "Ġrequ": 8446,
      "}.$": 8447,
      "Ġdetectors": 8448,
      "Ġextensions": 8449,
      "enging": 8450,
      "Ġdy": 8451,
      "187": 8452,
      "ĠNN": 8453,
      "151": 8454,
      "Ġrepeated": 8455,
      "245": 8456,
      "error": 8457,
      "Ġdamp": 8458,
      "neutr": 8459,
      "rl": 8460,
      "ĠRos": 8461,
      "ĠSpecifically": 8462,
      "utoff": 8463,
      "High": 8464,
      "Ġcolour": 8465,
      "Sz": 8466,
      "tiveness": 8467,
      "Ġenvironments": 8468,
      "ĠSP": 8469,
      "measu": 8470,
      "toprule": 8471,
      "132": 8472,
      "Ġaveraged": 8473,
      "KL": 8474,
      "Ag": 8475,
      "gets": 8476,
      "Ġobservational": 8477,
      "Ġexception": 8478,
      "Ġperforming": 8479,
      "\\#": 8480,
      "1063": 8481,
      "Ġsymbols": 8482,
      "ago": 8483,
      "decomp": 8484,
      "augh": 8485,
      "periments": 8486,
      "@{}": 8487,
      "ctivity": 8488,
      "mental": 8489,
      "}--\\": 8490,
      "rea": 8491,
      "Ġregard": 8492,
      "fnm": 8493,
      "Ġ103": 8494,
      "lattice": 8495,
      "Ġ87": 8496,
      "rov": 8497,
      "utonom": 8498,
      "Ġextraction": 8499,
      "oustic": 8500,
      "Ġ125": 8501,
      "fg": 8502,
      "Ġtail": 8503,
      "cms": 8504,
      "0003": 8505,
      "ĠBio": 8506,
      "Ġpapers": 8507,
      "avier": 8508,
      "}.$$": 8509,
      "ĠPM": 8510,
      "inton": 8511,
      "Ġheterog": 8512,
      "Ġvortex": 8513,
      "ĠPlan": 8514,
      "both": 8515,
      "eva": 8516,
      "ĠNewton": 8517,
      "Ġcommunity": 8518,
      "Ġfusion": 8519,
      "FM": 8520,
      "Ġnet": 8521,
      "vectors": 8522,
      "Ġvariability": 8523,
      "Ġgets": 8524,
      "underbrace": 8525,
      "nett": 8526,
      "ĠEquations": 8527,
      "endgroup": 8528,
      "maxim": 8529,
      "Ġgate": 8530,
      "~~~~~~~~": 8531,
      "fdE": 8532,
      "cP": 8533,
      "Ġ66": 8534,
      "Ġfactorization": 8535,
      "0002": 8536,
      "Ġ106": 8537,
      "Ġbelie": 8538,
      "192": 8539,
      "theore": 8540,
      "Ġordinary": 8541,
      "Ġcollaboration": 8542,
      "Ġhistory": 8543,
      "Bell": 8544,
      "ĊĉĊ": 8545,
      "same": 8546,
      "arse": 8547,
      "}_{(": 8548,
      "-$\\": 8549,
      "Ġwidely": 8550,
      "don": 8551,
      "Ġexcitations": 8552,
      "Bla": 8553,
      "Ġspins": 8554,
      "Ġreturn": 8555,
      "bigu": 8556,
      "Example": 8557,
      "olding": 8558,
      "used": 8559,
      "Ġexceed": 8560,
      "Ġ61": 8561,
      "sche": 8562,
      "Ġsynthetic": 8563,
      "cD": 8564,
      "Ġlocations": 8565,
      "commutative": 8566,
      "theo": 8567,
      "ĠChang": 8568,
      "_{\\{": 8569,
      "gtr": 8570,
      "coloneqq": 8571,
      "Ġsecur": 8572,
      "Ġintegrable": 8573,
      "Ġscience": 8574,
      "Ġseparately": 8575,
      "Ġpurely": 8576,
      "Ġplanets": 8577,
      "Ġresources": 8578,
      "nia": 8579,
      "menta": 8580,
      "Ġcutoff": 8581,
      "ĠFre": 8582,
      "Ġ83": 8583,
      "045": 8584,
      "paration": 8585,
      "oo": 8586,
      "incar": 8587,
      "ping": 8588,
      "orbit": 8589,
      "Ġweb": 8590,
      "Ġsignature": 8591,
      "VM": 8592,
      "AG": 8593,
      "fun": 8594,
      "Ġ$<": 8595,
      "vergent": 8596,
      "bw": 8597,
      "mating": 8598,
      "EQ": 8599,
      "Ġcancel": 8600,
      "Ġiso": 8601,
      "Ġconjugate": 8602,
      "Ġfeasible": 8603,
      "journals": 8604,
      "Ġequals": 8605,
      "Ġpanels": 8606,
      "sani": 8607,
      "Ġ08": 8608,
      "Ġpixels": 8609,
      "Ġgraphene": 8610,
      "Ġclosely": 8611,
      "Ġsubsequent": 8612,
      "Ġ72": 8613,
      "ĠĠĠĠĠĠĠĠĠĠĠĠĠĠĠĠĠĠĠĠĠĠĠĠĠĠĠĠĠĠĠĠĠĠĠĠĠĠĠĠĠĠĠĠĠĠĠĠ": 8614,
      "ĠRu": 8615,
      "Ġcoincides": 8616,
      "Ġalignment": 8617,
      "ayashi": 8618,
      "yi": 8619,
      "bn": 8620,
      "Ġaffected": 8621,
      "dp": 8622,
      "}]$": 8623,
      "yk": 8624,
      "chro": 8625,
      "}^{*": 8626,
      "vc": 8627,
      "world": 8628,
      "ĠSchr": 8629,
      "compu": 8630,
      "Ġattacks": 8631,
      "Ġsecurity": 8632,
      "ddot": 8633,
      "dh": 8634,
      "awa": 8635,
      "])": 8636,
      "Mer": 8637,
      "inds": 8638,
      "ĠJapan": 8639,
      "CI": 8640,
      "Kal": 8641,
      "Pri": 8642,
      "shell": 8643,
      "Lag": 8644,
      "ĠProof": 8645,
      "ressive": 8646,
      "Under": 8647,
      "cS": 8648,
      "html": 8649,
      "Johnson": 8650,
      "constant": 8651,
      "Ġextremely": 8652,
      "bid": 8653,
      "ompson": 8654,
      "''.": 8655,
      "addle": 8656,
      "BD": 8657,
      "ĠMichael": 8658,
      "};\\": 8659,
      "traction": 8660,
      "Ġ81": 8661,
      "($\\": 8662,
      "ĠLarge": 8663,
      "hit": 8664,
      "177": 8665,
      "ĠCoulomb": 8666,
      "Ġcombinations": 8667,
      "Back": 8668,
      "ĠGr": 8669,
      "adj": 8670,
      "ĠTheoretical": 8671,
      "ĠNY": 8672,
      "Ġresource": 8673,
      "Ġchallenges": 8674,
      "diagonal": 8675,
      "Ġmanip": 8676,
      "Ġgenerates": 8677,
      "review": 8678,
      "Ġdoi": 8679,
      "Ġturbulence": 8680,
      "irichlet": 8681,
      "Schmidt": 8682,
      "&&&&": 8683,
      "Ġpiece": 8684,
      "Ġmembers": 8685,
      "Ġcharges": 8686,
      "Ġbundles": 8687,
      "Ġsuperconducting": 8688,
      "Ġincident": 8689,
      "attering": 8690,
      "pmb": 8691,
      "}$;": 8692,
      "ĠBel": 8693,
      "Gaussian": 8694,
      "Ġfluxes": 8695,
      "'-": 8696,
      "dex": 8697,
      "rell": 8698,
      "Ġ79": 8699,
      "Ġpairing": 8700,
      "Ġrenormalization": 8701,
      "rn": 8702,
      "ĠConsequently": 8703,
      "Ã¡": 8704,
      "Ġdoc": 8705,
      "cki": 8706,
      "sanitize": 8707,
      "otti": 8708,
      "patial": 8709,
      "dc": 8710,
      "Ġconclusions": 8711,
      "Ġclouds": 8712,
      "255": 8713,
      "Ġareas": 8714,
      "Ġ78": 8715,
      "227": 8716,
      "{|\\": 8717,
      "wood": 8718,
      "Ġphenomenon": 8719,
      "sequences": 8720,
      "US": 8721,
      "ĠTeV": 8722,
      "ĠNi": 8723,
      "rownian": 8724,
      "BT": 8725,
      "ĠLev": 8726,
      "ĠItal": 8727,
      "Ġremoved": 8728,
      "fur": 8729,
      "Ġ62": 8730,
      "Ã²": 8731,
      ").}": 8732,
      "Ġlens": 8733,
      "ĠBH": 8734,
      "Ġprobabilistic": 8735,
      "calcu": 8736,
      "mbf": 8737,
      "inc": 8738,
      "Reg": 8739,
      "Id": 8740,
      "Ġvoltage": 8741,
      "ĠRen": 8742,
      "itors": 8743,
      "eries": 8744,
      "}]\\": 8745,
      "will": 8746,
      "Ġneutrinos": 8747,
      "Ġchallenging": 8748,
      "Ġasymmetry": 8749,
      "@#": 8750,
      "Ġcard": 8751,
      "network": 8752,
      "Taylor": 8753,
      "ĠTa": 8754,
      "uez": 8755,
      "Gri": 8756,
      "Ġ76": 8757,
      "Ġrele": 8758,
      "exact": 8759,
      "Tre": 8760,
      "Ġfamilies": 8761,
      "trained": 8762,
      "+}$": 8763,
      "OD": 8764,
      "\\\\[": 8765,
      "ĠVari": 8766,
      "PRL": 8767,
      ").$": 8768,
      "Ġdefault": 8769,
      "EA": 8770,
      "omial": 8771,
      "Ġexponentially": 8772,
      "Ġrotating": 8773,
      "ractive": 8774,
      "Ġ\\@@": 8775,
      "Learning": 8776,
      "Vo": 8777,
      "Ġplots": 8778,
      "itudinal": 8779,
      "pAfdE": 8780,
      "nologies": 8781,
      "Ġsums": 8782,
      "culus": 8783,
      "Ġcubic": 8784,
      "np": 8785,
      "Ġcollapse": 8786,
      "Ġnan": 8787,
      "classical": 8788,
      "task": 8789,
      "pological": 8790,
      "Ġcrossing": 8791,
      "asons": 8792,
      "Ġexpo": 8793,
      "rows": 8794,
      "alaxy": 8795,
      "Ġ06": 8796,
      "varpi": 8797,
      "baum": 8798,
      "cribed": 8799,
      "375": 8800,
      "Lem": 8801,
      "Ġmixture": 8802,
      "Ġtheorems": 8803,
      "claim": 8804,
      "Cos": 8805,
      "Ġ89": 8806,
      "rik": 8807,
      "ĠLipschitz": 8808,
      "ĠSil": 8809,
      "corr": 8810,
      "dv": 8811,
      "ske": 8812,
      "quality": 8813,
      "ĠAT": 8814,
      "Ġ84": 8815,
      "ĠSp": 8816,
      "208": 8817,
      "Ġmaintain": 8818,
      "ĠOb": 8819,
      "}\\,,": 8820,
      "Ġplat": 8821,
      ")~\\": 8822,
      "harvardyear": 8823,
      "ĠMass": 8824,
      "Ġadjoint": 8825,
      "Also": 8826,
      "satz": 8827,
      "soft": 8828,
      "gap": 8829,
      "176": 8830,
      "Ġempha": 8831,
      "ĠLaboratory": 8832,
      "Ġthesis": 8833,
      "Ġreceived": 8834,
      "ahn": 8835,
      "omer": 8836,
      "Ġlogarithmic": 8837,
      "met": 8838,
      "because": 8839,
      "ĠMas": 8840,
      "168": 8841,
      "Ġanalys": 8842,
      "odic": 8843,
      "erro": 8844,
      "ury": 8845,
      "Ġmomenta": 8846,
      "iti": 8847,
      "149": 8848,
      "syn": 8849,
      "fm": 8850,
      "ople": 8851,
      "Ġrows": 8852,
      "mplicial": 8853,
      "Der": 8854,
      "dg": 8855,
      "ats": 8856,
      "Ġapparent": 8857,
      "static": 8858,
      "Ġ03": 8859,
      "Ġfitted": 8860,
      "Ps": 8861,
      "Ġradiative": 8862,
      "BG": 8863,
      "UR": 8864,
      "Ġpopular": 8865,
      "Ġconnections": 8866,
      "Ġconverge": 8867,
      "LC": 8868,
      "QQ": 8869,
      "{\\~": 8870,
      "pto": 8871,
      "Ġpose": 8872,
      "1972": 8873,
      "Ġrealized": 8874,
      "Ġrec": 8875,
      "ĠSmith": 8876,
      "PE": 8877,
      "),(": 8878,
      "Pas": 8879,
      "esh": 8880,
      "})+": 8881,
      "Ġtransmit": 8882,
      "Ġclassifier": 8883,
      "Sci": 8884,
      "Ġinitially": 8885,
      "Dist": 8886,
      "Ġvalidation": 8887,
      "Another": 8888,
      "Ġ86": 8889,
      "corre": 8890,
      "Notice": 8891,
      "Ġdivisor": 8892,
      "Ġneur": 8893,
      "Ġpowers": 8894,
      "mitive": 8895,
      "thon": 8896,
      "cke": 8897,
      "Ġnoisy": 8898,
      "struction": 8899,
      "anguages": 8900,
      "STM": 8901,
      "Ġscores": 8902,
      "Comm": 8903,
      "Stein": 8904,
      "218": 8905,
      "Ġintroducing": 8906,
      "CAP": 8907,
      "solution": 8908,
      "rms": 8909,
      "ĠWei": 8910,
      "Ġjets": 8911,
      "Ġ108": 8912,
      "Ġjus": 8913,
      "Ġrepresentative": 8914,
      "Ġ1990": 8915,
      "closed": 8916,
      "bq": 8917,
      "izable": 8918,
      "ithub": 8919,
      "ĠWilson": 8920,
      "Ġappendix": 8921,
      "Class": 8922,
      "Ġnontrivial": 8923,
      "Ġstand": 8924,
      "worth": 8925,
      "{\\\"{": 8926,
      "Ġcausal": 8927,
      "Ġadditive": 8928,
      "Ġphotometric": 8929,
      "223": 8930,
      "Ġsampled": 8931,
      "bz": 8932,
      "ĠBanach": 8933,
      "Ġgr": 8934,
      "Ve": 8935,
      "Ġcompression": 8936,
      "ĠRiemann": 8937,
      "Ġsynchron": 8938,
      "matter": 8939,
      "Ġ82": 8940,
      "liar": 8941,
      "Ġcollected": 8942,
      "\\).": 8943,
      "oltzmann": 8944,
      "Ġexperimentally": 8945,
      "/},": 8946,
      "Ġ$^": 8947,
      "Chang": 8948,
      "}=-": 8949,
      "ymptotic": 8950,
      "Abb": 8951,
      "ĠGa": 8952,
      "Ġgenus": 8953,
      "ĠCauchy": 8954,
      "ĊĠĠĠĠĠĠĠĠĠĠĠĠĠ": 8955,
      "lanl": 8956,
      "cT": 8957,
      "ĠRich": 8958,
      "028": 8959,
      "control": 8960,
      "Ġoriented": 8961,
      "Ġdiscovery": 8962,
      "Hart": 8963,
      "188": 8964,
      "Gao": 8965,
      "141": 8966,
      "Ġpull": 8967,
      "ĠRob": 8968,
      "cerning": 8969,
      "inz": 8970,
      "Ġassigned": 8971,
      "162": 8972,
      "Ġlimiting": 8973,
      "rf": 8974,
      "ĠPublish": 8975,
      "physics": 8976,
      "Hal": 8977,
      "Ġdivided": 8978,
      "Ġexplanation": 8979,
      "Ġnearest": 8980,
      "coded": 8981,
      "ĠFra": 8982,
      "Ð½": 8983,
      "Ġcoverage": 8984,
      "ĠFo": 8985,
      "Ġintui": 8986,
      "cG": 8987,
      "Ġobtains": 8988,
      "Ġimpos": 8989,
      "Ġmul": 8990,
      "Fra": 8991,
      "Ġ74": 8992,
      "different": 8993,
      "))$,": 8994,
      "}\\)": 8995,
      "Ġmedian": 8996,
      "Super": 8997,
      "Ġmessage": 8998,
      "ĠAstrophysics": 8999,
      "Ã¤": 9000,
      "gtrsim": 9001,
      "Ġpopulations": 9002,
      "appear": 9003,
      "})}{": 9004,
      "RT": 9005,
      "Ġsynthesis": 9006,
      "^*_{": 9007,
      "VV": 9008,
      "ĠPark": 9009,
      "Ġvarieties": 9010,
      "Ġresol": 9011,
      "Ġreplacing": 9012,
      "ĠeV": 9013,
      "Ġcomposite": 9014,
      "ĠUniverse": 9015,
      "checkmark": 9016,
      "Ġmarked": 9017,
      "gm": 9018,
      "prising": 9019,
      "May": 9020,
      "Ġcompan": 9021,
      "Ġduration": 9022,
      "Ġexamine": 9023,
      "ĠSw": 9024,
      "periodic": 9025,
      "ĠOct": 9026,
      "037": 9027,
      "Ġsecondary": 9028,
      "Ġscre": 9029,
      "tively": 9030,
      "irror": 9031,
      "Ġcomposed": 9032,
      "ductor": 9033,
      "Ġcold": 9034,
      "hm": 9035,
      "Ġequivalently": 9036,
      "Ġparity": 9037,
      "Ġoutflow": 9038,
      "ĠInc": 9039,
      "|}{\\": 9040,
      "ctra": 9041,
      "Ġgenerative": 9042,
      "Anderson": 9043,
      "Ġtunnel": 9044,
      "Ġmorpho": 9045,
      "ĠWal": 9046,
      "solid": 9047,
      "ĠAI": 9048,
      "iding": 9049,
      ">>": 9050,
      "Ġbuilt": 9051,
      "Ġbatch": 9052,
      "FA": 9053,
      "pop": 9054,
      "ĠResults": 9055,
      "dio": 9056,
      "standard": 9057,
      "={\\": 9058,
      "Ġunity": 9059,
      "Ġcount": 9060,
      "vardi": 9061,
      "})^{\\": 9062,
      "rian": 9063,
      "mathit": 9064,
      "Ġatt": 9065,
      "Ġgraded": 9066,
      "KM": 9067,
      "ĠType": 9068,
      "reference": 9069,
      "pat": 9070,
      "ĠRoyal": 9071,
      "ination": 9072,
      "ĠVi": 9073,
      "Ġbosons": 9074,
      "206": 9075,
      "ĠĊĠĠĠĠĠ": 9076,
      "Ġ500": 9077,
      "icular": 9078,
      "choose": 9079,
      "Ġ1991": 9080,
      "Ġbroken": 9081,
      "rith": 9082,
      "Can": 9083,
      "Ġpick": 9084,
      "bottomrule": 9085,
      "Simon": 9086,
      "ĠAstron": 9087,
      "inberg": 9088,
      "Ġsquares": 9089,
      "Ġcoherence": 9090,
      "ancy": 9091,
      "periment": 9092,
      "}$),": 9093,
      "cB": 9094,
      "ĠKu": 9095,
      "Ġfinds": 9096,
      "1538": 9097,
      "scalar": 9098,
      "ordon": 9099,
      "tp": 9100,
      "specific": 9101,
      "Ġmechanical": 9102,
      "alez": 9103,
      "ĠMic": 9104,
      "nc": 9105,
      "thew": 9106,
      "Ġhappens": 9107,
      "Ġfalse": 9108,
      "178": 9109,
      "ĠKra": 9110,
      "Ġenable": 9111,
      "setlength": 9112,
      "Ġindicating": 9113,
      "hardt": 9114,
      "Ġtested": 9115,
      "ĠIC": 9116,
      "ERT": 9117,
      "Ġcause": 9118,
      "185": 9119,
      "Ġmodelling": 9120,
      "Ġhome": 9121,
      "Ġremove": 9122,
      "Ġmeasurable": 9123,
      "neigh": 9124,
      "degenerate": 9125,
      "Stra": 9126,
      "pendicular": 9127,
      "ĠAg": 9128,
      "Ġinvestigation": 9129,
      "Ġenhancement": 9130,
      "</": 9131,
      "Ġdeterminant": 9132,
      "Ġprojected": 9133,
      "ounds": 9134,
      "Ġhierarchical": 9135,
      "Ġions": 9136,
      "harvardi": 9137,
      "harvarditem": 9138,
      "Ġapproximated": 9139,
      "Times": 9140,
      "cN": 9141,
      "uple": 9142,
      "Ġplays": 9143,
      "Ġencoding": 9144,
      "~~~": 9145,
      "igner": 9146,
      "ĠVe": 9147,
      "inction": 9148,
      "fiers": 9149,
      "}$}}}": 9150,
      "ĠLong": 9151,
      "ĠFigs": 9152,
      "Ġsomewhat": 9153,
      "Ġanomalous": 9154,
      "ĠTan": 9155,
      "183": 9156,
      "Ġ04": 9157,
      "}\\,.": 9158,
      "cen": 9159,
      "orage": 9160,
      "quanti": 9161,
      "lad": 9162,
      "217": 9163,
      "((\\": 9164,
      "Je": 9165,
      "PhysRevA": 9166,
      "object": 9167,
      "Ġviscosity": 9168,
      "ĠOptimization": 9169,
      "Cheng": 9170,
      "Ġoutputs": 9171,
      "Ġtot": 9172,
      "Prop": 9173,
      "Ġmarginal": 9174,
      "Ġprob": 9175,
      "ĠHow": 9176,
      "::": 9177,
      "ĠSO": 9178,
[...]
