{
  "version": "1.0",
  "truncation": null,
  "padding": null,
  "added_tokens": [
    {
      "id": 0,
      "content": "<pad>",
      "single_word": false,
      "lstrip": false,
      "rstrip": false,
      "normalized": false,
      "special": true
    },
    {
      "id": 1,
      "content": "<cls>",
      "single_word": false,
      "lstrip": false,
      "rstrip": false,
      "normalized": false,
      "special": true
    },
    {
      "id": 2,
      "content": "<sep>",
      "single_word": false,
      "lstrip": false,
      "rstrip": false,
      "normalized": false,
      "special": true
    },
    {
      "id": 3,
      "content": "<mask>",
      "single_word": false,
      "lstrip": false,
      "rstrip": false,
      "normalized": false,
      "special": true
    },
    {
      "id": 4,
      "content": "<unk>",
      "single_word": false,
      "lstrip": false,
      "rstrip": false,
      "normalized": false,
      "special": true
    },
    {
      "id": 5,
      "content": "<bos>",
      "single_word": false,
      "lstrip": false,
      "rstrip": false,
      "normalized": false,
      "special": true
    },
    {
      "id": 6,
      "content": "<eos>",
      "single_word": false,
      "lstrip": false,
      "rstrip": false,
      "normalized": false,
      "special": true
    }
  ],
  "normalizer": {
    "type": "NFKC"
  },
  "pre_tokenizer": {
    "type": "Metaspace",
    "replacement": "▁",
    "add_prefix_space": true
  },
  "post_processor": null,
  "decoder": {
    "type": "Metaspace",
    "replacement": "▁",
    "add_prefix_space": true
  },
  "model": {
    "type": "BPE",
    "dropout": null,
    "unk_token": "<unk>",
    "continuing_subword_prefix": null,
    "end_of_word_suffix": null,
    "fuse_unk": false,
    "byte_fallback": false,
    "vocab": {
      "<pad>": 0,
      "<cls>": 1,
      "<sep>": 2,
      "<mask>": 3,
      "<unk>": 4,
      "<bos>": 5,
      "<eos>": 6,
      "\u0000": 7,
      "\u0001": 8,
      "\u0002": 9,
      "\u0003": 10,
      "\u0004": 11,
      "\u0005": 12,
      "\u0006": 13,
      "\u0007": 14,
      "\b": 15,
      "\t": 16,
      "\n": 17,
      "\u000b": 18,
      "\f": 19,
      "\r": 20,
      "\u000e": 21,
      "\u000f": 22,
      "\u0010": 23,
      "\u0011": 24,
      "\u0012": 25,
      "\u0013": 26,
      "\u0014": 27,
      "\u0015": 28,
      "\u0016": 29,
      "\u0017": 30,
      "\u0018": 31,
      "\u0019": 32,
      "\u001a": 33,
      "\u001b": 34,
      "\u001c": 35,
      "\u001d": 36,
      "\u001e": 37,
      "\u001f": 38,
      "!": 39,
      "\"": 40,
      "#": 41,
      "$": 42,
      "%": 43,
      "&": 44,
      "'": 45,
      "(": 46,
      ")": 47,
      "*": 48,
      "+": 49,
      ",": 50,
      "-": 51,
      ".": 52,
      "/": 53,
      "0": 54,
      "1": 55,
      "2": 56,
      "3": 57,
      "4": 58,
      "5": 59,
      "6": 60,
      "7": 61,
      "8": 62,
      "9": 63,
      ":": 64,
      ";": 65,
      "<": 66,
      "=": 67,
      ">": 68,
      "?": 69,
      "@": 70,
      "A": 71,
      "B": 72,
      "C": 73,
      "D": 74,
      "E": 75,
      "F": 76,
      "G": 77,
      "H": 78,
      "I": 79,
      "J": 80,
      "K": 81,
      "L": 82,
      "M": 83,
      "N": 84,
      "O": 85,
      "P": 86,
      "Q": 87,
      "R": 88,
      "S": 89,
      "T": 90,
      "U": 91,
      "V": 92,
      "W": 93,
      "X": 94,
      "Y": 95,
      "Z": 96,
      "[": 97,
      "\\": 98,
      "]": 99,
      "^": 100,
      "_": 101,
      "`": 102,
      "a": 103,
      "b": 104,
      "c": 105,
      "d": 106,
      "e": 107,
      "f": 108,
      "g": 109,
      "h": 110,
      "i": 111,
      "j": 112,
      "k": 113,
      "l": 114,
      "m": 115,
      "n": 116,
      "o": 117,
      "p": 118,
      "q": 119,
      "r": 120,
      "s": 121,
      "t": 122,
      "u": 123,
      "v": 124,
      "w": 125,
      "x": 126,
      "y": 127,
      "z": 128,
      "{": 129,
      "|": 130,
      "}": 131,
      "~": 132,
      "": 133,
      "": 134,
      "": 135,
      "": 136,
      "": 137,
      "": 138,
      "": 139,
      "": 140,
      "": 141,
      "": 142,
      "": 143,
      "": 144,
      "": 145,
      "": 146,
      "": 147,
      "": 148,
      "": 149,
      "": 150,
      "": 151,
      "": 152,
      "": 153,
      "": 154,
      "": 155,
      "": 156,
      "": 157,
      "": 158,
      "": 159,
      "": 160,
      "": 161,
      "": 162,
      "": 163,
      "": 164,
      "": 165,
      "¡": 166,
      "¢": 167,
      "£": 168,
      "¤": 169,
      "¥": 170,
      "¦": 171,
      "§": 172,
      "©": 173,
      "«": 174,
      "¬": 175,
      "­": 176,
      "®": 177,
      "°": 178,
      "±": 179,
      "¶": 180,
      "·": 181,
      "»": 182,
      "¿": 183,
      "À": 184,
      "Á": 185,
      "Â": 186,
      "Ã": 187,
      "Ä": 188,
      "Å": 189,
      "Æ": 190,
      "Ç": 191,
      "È": 192,
      "É": 193,
      "Ê": 194,
      "Ë": 195,
      "Ì": 196,
      "Í": 197,
      "Î": 198,
      "Ï": 199,
      "Ð": 200,
      "Ñ": 201,
      "Ò": 202,
      "Ó": 203,
      "Ô": 204,
      "Õ": 205,
      "Ö": 206,
      "×": 207,
      "Ø": 208,
      "Ù": 209,
      "Ú": 210,
      "Û": 211,
      "Ü": 212,
      "Ý": 213,
      "Þ": 214,
      "ß": 215,
      "à": 216,
      "á": 217,
      "â": 218,
      "ã": 219,
      "ä": 220,
      "å": 221,
      "æ": 222,
      "ç": 223,
      "è": 224,
      "é": 225,
      "ê": 226,
      "ë": 227,
      "ì": 228,
      "í": 229,
      "î": 230,
      "ï": 231,
      "ð": 232,
      "ñ": 233,
      "ò": 234,
      "ó": 235,
      "ô": 236,
      "õ": 237,
      "ö": 238,
      "÷": 239,
      "ø": 240,
      "ù": 241,
      "ú": 242,
      "û": 243,
      "ü": 244,
      "ý": 245,
      "þ": 246,
      "ÿ": 247,
      "ā": 248,
      "ă": 249,
      "ą": 250,
      "Ć": 251,
      "ć": 252,
      "Č": 253,
      "č": 254,
      "Đ": 255,
      "đ": 256,
      "ė": 257,
      "ę": 258,
      "ě": 259,
      "ğ": 260,
      "ĩ": 261,
      "ī": 262,
      "ĭ": 263,
      "İ": 264,
      "ı": 265,
      "Ł": 266,
      "ł": 267,
      "ń": 268,
      "ņ": 269,
      "ň": 270,
      "Ō": 271,
      "ō": 272,
      "ő": 273,
      "œ": 274,
      "ř": 275,
      "Ś": 276,
      "ś": 277,
      "Ş": 278,
      "ş": 279,
      "Š": 280,
      "š": 281,
      "ţ": 282,
      "ū": 283,
      "ů": 284,
      "ű": 285,
      "ź": 286,
      "Ż": 287,
      "ż": 288,
      "Ž": 289,
      "ž": 290,
      "ƒ": 291,
      "ơ": 292,
      "ư": 293,
      "ǎ": 294,
      "ǧ": 295,
      "ș": 296,
      "ȩ": 297,
      "ʹ": 298,
      "ʼ": 299,
      "ˆ": 300,
      "ˇ": 301,
      "́": 302,
      "̃": 303,
      "̄": 304,
      "̇": 305,
      "̈": 306,
      "̧": 307,
      "Α": 308,
      "Γ": 309,
      "Δ": 310,
      "Ε": 311,
      "Ι": 312,
      "Κ": 313,
      "Λ": 314,
      "Ν": 315,
      "Π": 316,
      "Σ": 317,
      "Τ": 318,
      "Φ": 319,
      "Ω": 320,
      "ά": 321,
      "έ": 322,
      "ή": 323,
      "ί": 324,
      "α": 325,
      "β": 326,
      "γ": 327,
      "δ": 328,
      "ε": 329,
      "ζ": 330,
      "η": 331,
      "θ": 332,
      "ι": 333,
      "κ": 334,
      "λ": 335,
      "μ": 336,
      "ν": 337,
      "ξ": 338,
      "ο": 339,
      "π": 340,
      "ρ": 341,
      "ς": 342,
      "σ": 343,
      "τ": 344,
      "υ": 345,
      "φ": 346,
      "χ": 347,
      "ψ": 348,
      "ω": 349,
      "ό": 350,
      "ύ": 351,
      "ώ": 352,
      "А": 353,
      "Б": 354,
      "В": 355,
      "Г": 356,
      "Д": 357,
      "Е": 358,
      "З": 359,
      "И": 360,
      "К": 361,
      "Л": 362,
      "М": 363,
      "Н": 364,
      "О": 365,
      "П": 366,
      "Р": 367,
      "С": 368,
      "Т": 369,
      "У": 370,
      "Ф": 371,
      "Э": 372,
      "Я": 373,
      "а": 374,
      "б": 375,
      "в": 376,
      "г": 377,
      "д": 378,
      "е": 379,
      "ж": 380,
      "з": 381,
      "и": 382,
      "й": 383,
      "к": 384,
      "л": 385,
      "м": 386,
      "н": 387,
      "о": 388,
      "п": 389,
      "р": 390,
      "с": 391,
      "т": 392,
      "у": 393,
      "ф": 394,
      "х": 395,
      "ц": 396,
      "ч": 397,
      "ш": 398,
      "щ": 399,
      "ы": 400,
      "ь": 401,
      "э": 402,
      "ю": 403,
      "я": 404,
      "і": 405,
      "ј": 406,
      "қ": 407,
      "آ": 408,
      "ا": 409,
      "ب": 410,
      "ة": 411,
      "ت": 412,
      "ج": 413,
      "ح": 414,
      "خ": 415,
      "د": 416,
      "ر": 417,
      "ز": 418,
      "س": 419,
      "ش": 420,
      "ص": 421,
      "ض": 422,
      "ط": 423,
      "ع": 424,
      "غ": 425,
      "ف": 426,
      "ق": 427,
      "ك": 428,
      "ل": 429,
      "م": 430,
      "ن": 431,
      "ه": 432,
      "و": 433,
      "ي": 434,
      "َ": 435,
      "ِ": 436,
      "ّ": 437,
      "ْ": 438,
      "چ": 439,
      "ک": 440,
      "گ": 441,
      "ی": 442,
      "ạ": 443,
      "ả": 444,
      "ấ": 445,
      "ầ": 446,
      "ậ": 447,
      "ắ": 448,
      "ặ": 449,
      "ế": 450,
      "ề": 451,
      "ể": 452,
      "ễ": 453,
      "ệ": 454,
      "ị": 455,
      "ọ": 456,
      "ỏ": 457,
      "ố": 458,
      "ồ": 459,
      "ổ": 460,
      "ộ": 461,
      "ớ": 462,
      "ờ": 463,
      "ở": 464,
      "ợ": 465,
      "ụ": 466,
      "ủ": 467,
      "ứ": 468,
      "ữ": 469,
      "ự": 470,
      "ἀ": 471,
      "ἐ": 472,
      "ὐ": 473,
      "ὑ": 474,
      "ὰ": 475,
      "ὲ": 476,
      "ὴ": 477,
      "ὶ": 478,
      "ὸ": 479,
      "ῆ": 480,
      "ῖ": 481,
      "ῦ": 482,
      "ῶ": 483,
      "​": 484,
      "‌": 485,
      "‎": 486,
      "‐": 487,
      "–": 488,
      "—": 489,
      "―": 490,
      "‘": 491,
      "’": 492,
      "‚": 493,
      "“": 494,
      "”": 495,
      "„": 496,
      "†": 497,
      "‡": 498,
      "•": 499,
      "′": 500,
      "⁄": 501,
      "⁅": 502,
      "⁆": 503,
      "€": 504,
      "←": 505,
      "↑": 506,
      "→": 507,
      "↓": 508,
      "⇃": 509,
      "⇒": 510,
      "⇔": 511,
      "∀": 512,
      "∂": 513,
      "∃": 514,
      "∈": 515,
      "−": 516,
      "∖": 517,
      "∗": 518,
      "√": 519,
      "∞": 520,
      "∧": 521,
      "∼": 522,
      "≃": 523,
      "≅": 524,
      "≔": 525,
      "≝": 526,
      "≤": 527,
      "≥": 528,
      "⊂": 529,
      "⊆": 530,
      "⊕": 531,
      "⊗": 532,
      "⋅": 533,
      "⌈": 534,
      "⌉": 535,
      "⌊": 536,
      "⌋": 537,
      "─": 538,
      "▁": 539,
      "☆": 540,
      "⟦": 541,
      "⟧": 542,
      "⟨": 543,
      "⟩": 544,
      "⧓": 545,
      "、": 546,
      "。": 547,
      "々": 548,
      "「": 549,
      "」": 550,
      "あ": 551,
      "い": 552,
      "う": 553,
      "え": 554,
      "お": 555,
      "か": 556,
      "が": 557,
      "き": 558,
      "く": 559,
      "け": 560,
      "こ": 561,
      "さ": 562,
      "し": 563,
      "じ": 564,
      "す": 565,
      "ず": 566,
      "せ": 567,
      "そ": 568,
      "ぞ": 569,
      "た": 570,
      "だ": 571,
      "ち": 572,
      "っ": 573,
      "つ": 574,
      "づ": 575,
      "て": 576,
      "で": 577,
      "と": 578,
      "ど": 579,
      "な": 580,
      "に": 581,
      "の": 582,
      "は": 583,
      "ば": 584,
      "び": 585,
      "ぶ": 586,
      "べ": 587,
      "ま": 588,
      "み": 589,
      "む": 590,
      "め": 591,
      "も": 592,
      "や": 593,
      "よ": 594,
      "ら": 595,
      "り": 596,
      "る": 597,
      "れ": 598,
      "ろ": 599,
      "わ": 600,
      "を": 601,
      "ん": 602,
      "ア": 603,
      "ィ": 604,
      "イ": 605,
      "エ": 606,
      "オ": 607,
      "キ": 608,
      "ク": 609,
      "グ": 610,
      "コ": 611,
      "サ": 612,
      "シ": 613,
      "ジ": 614,
      "ス": 615,
      "ズ": 616,
      "セ": 617,
      "ソ": 618,
      "タ": 619,
      "ダ": 620,
      "チ": 621,
      "ッ": 622,
      "テ": 623,
      "デ": 624,
      "ト": 625,
      "ド": 626,
      "ナ": 627,
      "ニ": 628,
      "ネ": 629,
      "ノ": 630,
      "バ": 631,
      "パ": 632,
      "ピ": 633,
      "フ": 634,
      "ブ": 635,
      "プ": 636,
      "ベ": 637,
      "マ": 638,
      "ム": 639,
      "メ": 640,
      "モ": 641,
      "ャ": 642,
      "ュ": 643,
      "ョ": 644,
      "ラ": 645,
      "リ": 646,
      "ル": 647,
      "レ": 648,
      "ロ": 649,
      "ワ": 650,
      "ン": 651,
      "・": 652,
      "ー": 653,
      "一": 654,
      "三": 655,
      "上": 656,
      "下": 657,
      "不": 658,
      "与": 659,
      "个": 660,
      "中": 661,
      "为": 662,
      "主": 663,
      "了": 664,
      "予": 665,
      "事": 666,
      "于": 667,
      "人": 668,
      "今": 669,
      "他": 670,
      "付": 671,
      "代": 672,
      "以": 673,
      "件": 674,
      "任": 675,
      "会": 676,
      "伝": 677,
      "似": 678,
      "位": 679,
      "体": 680,
      "何": 681,
      "作": 682,
      "使": 683,
      "例": 684,
      "供": 685,
      "依": 686,
      "係": 687,
      "信": 688,
      "個": 689,
      "値": 690,
      "像": 691,
      "先": 692,
      "入": 693,
      "全": 694,
      "公": 695,
      "共": 696,
      "关": 697,
      "内": 698,
      "写": 699,
      "冠": 700,
      "処": 701,
      "出": 702,
      "分": 703,
      "切": 704,
      "列": 705,
      "判": 706,
      "別": 707,
      "制": 708,
      "則": 709,
      "前": 710,
      "力": 711,
      "加": 712,
      "効": 713,
      "動": 714,
      "包": 715,
      "化": 716,
      "区": 717,
      "単": 718,
      "去": 719,
      "参": 720,
      "反": 721,
      "发": 722,
      "取": 723,
      "句": 724,
      "可": 725,
      "号": 726,
      "合": 727,
      "同": 728,
      "名": 729,
      "向": 730,
      "否": 731,
      "含": 732,
      "味": 733,
      "命": 734,
      "和": 735,
      "哏": 736,
      "問": 737,
      "喩": 738,
      "器": 739,
      "回": 740,
      "因": 741,
      "図": 742,
      "国": 743,
      "在": 744,
      "地": 745,
      "型": 746,
      "埋": 747,
      "域": 748,
      "基": 749,
      "報": 750,
      "場": 751,
      "声": 752,
      "変": 753,
      "外": 754,
      "多": 755,
      "大": 756,
      "如": 757,
      "妥": 758,
      "子": 759,
      "存": 760,
      "学": 761,
      "完": 762,
      "定": 763,
      "实": 764,
      "実": 765,
      "家": 766,
      "容": 767,
      "寒": 768,
      "察": 769,
      "对": 770,
      "対": 771,
      "導": 772,
      "小": 773,
      "少": 774,
      "属": 775,
      "層": 776,
      "工": 777,
      "帰": 778,
      "常": 779,
      "年": 780,
      "度": 781,
      "式": 782,
      "引": 783,
      "張": 784,
      "強": 785,
      "当": 786,
      "形": 787,
      "後": 788,
      "従": 789,
      "得": 790,
      "心": 791,
      "必": 792,
      "応": 793,
      "念": 794,
      "思": 795,
      "性": 796,
      "总": 797,
      "情": 798,
      "想": 799,
      "意": 800,
      "感": 801,
      "態": 802,
      "成": 803,
      "我": 804,
      "所": 805,
      "手": 806,
      "打": 807,
      "扱": 808,
      "技": 809,
      "抽": 810,
      "择": 811,
      "持": 812,
      "指": 813,
      "据": 814,
      "接": 815,
      "推": 816,
      "提": 817,
      "換": 818,
      "操": 819,
      "支": 820,
      "政": 821,
      "教": 822,
      "数": 823,
      "整": 824,
      "文": 825,
      "断": 826,
      "新": 827,
      "方": 828,
      "日": 829,
      "时": 830,
      "明": 831,
      "易": 832,
      "是": 833,
      "景": 834,
      "書": 835,
      "最": 836,
      "有": 837,
      "本": 838,
      "李": 839,
      "条": 840,
      "来": 841,
      "析": 842,
      "果": 843,
      "枠": 844,
      "标": 845,
      "校": 846,
      "案": 847,
      "検": 848,
      "概": 849,
      "構": 850,
      "様": 851,
      "模": 852,
      "機": 853,
      "次": 854,
      "正": 855,
      "段": 856,
      "毒": 857,
      "比": 858,
      "水": 859,
      "求": 860,
      "汉": 861,
      "没": 862,
      "況": 863,
      "法": 864,
      "注": 865,
      "洲": 866,
      "深": 867,
      "演": 868,
      "点": 869,
      "為": 870,
      "無": 871,
      "然": 872,
      "照": 873,
      "版": 874,
      "物": 875,
      "特": 876,
      "状": 877,
      "狗": 878,
      "独": 879,
      "王": 880,
      "现": 881,
      "現": 882,
      "理": 883,
      "生": 884,
      "用": 885,
      "異": 886,
      "疫": 887,
      "発": 888,
      "的": 889,
      "目": 890,
      "直": 891,
      "相": 892,
      "真": 893,
      "着": 894,
      "知": 895,
      "研": 896,
      "確": 897,
      "示": 898,
      "社": 899,
      "科": 900,
      "程": 901,
      "種": 902,
      "積": 903,
      "究": 904,
      "空": 905,
      "立": 906,
      "章": 907,
      "等": 908,
      "答": 909,
      "算": 910,
      "簡": 911,
      "籍": 912,
      "精": 913,
      "系": 914,
      "素": 915,
      "組": 916,
      "経": 917,
      "結": 918,
      "統": 919,
      "続": 920,
      "線": 921,
      "繋": 922,
      "结": 923,
      "置": 924,
      "義": 925,
      "習": 926,
      "考": 927,
      "者": 928,
      "能": 929,
      "自": 930,
      "般": 931,
      "花": 932,
      "苗": 933,
      "著": 934,
      "行": 935,
      "術": 936,
      "表": 937,
      "被": 938,
      "複": 939,
      "要": 940,
      "見": 941,
      "規": 942,
      "覚": 943,
      "観": 944,
      "解": 945,
      "触": 946,
      "言": 947,
      "計": 948,
      "記": 949,
      "訳": 950,
      "証": 951,
      "詞": 952,
      "認": 953,
      "語": 954,
      "説": 955,
      "課": 956,
      "論": 957,
      "識": 958,
      "議": 959,
      "证": 960,
      "象": 961,
      "質": 962,
      "贯": 963,
      "足": 964,
      "路": 965,
      "辞": 966,
      "込": 967,
      "过": 968,
      "近": 969,
      "这": 970,
      "述": 971,
      "逆": 972,
      "选": 973,
      "通": 974,
      "造": 975,
      "連": 976,
      "過": 977,
      "達": 978,
      "適": 979,
      "部": 980,
      "都": 981,
      "重": 982,
      "量": 983,
      "間": 984,
      "関": 985,
      "限": 986,
      "除": 987,
      "陳": 988,
      "集": 989,
      "難": 990,
      "電": 991,
      "需": 992,
      "非": 993,
      "面": 994,
      "音": 995,
      "項": 996,
      "題": 997,
      "類": 998,
      "首": 999,
      "験": 1000,
      "验": 1001,
      "高": 1002,
      "﻿": 1003,
      "￼": 1004,
      "�": 1005,
      "􀀀": 1006,
      "▁\\": 1007,
      "th": 1008,
      "in": 1009,
      "on": 1010,
      "▁a": 1011,
      "▁th": 1012,
      "er": 1013,
      "ti": 1014,
      "en": 1015,
      "re": 1016,
      "▁the": 1017,
      "al": 1018,
      "te": 1019,
      "▁$": 1020,
      "or": 1021,
      "▁s": 1022,
      "▁{": 1023,
      "ar": 1024,
      "▁o": 1025,
      "tion": 1026,
      "bi": 1027,
      "an": 1028,
      "▁c": 1029,
      "le": 1030,
      "is": 1031,
      "▁f": 1032,
      "▁an": 1033,
      "me": 1034,
      "▁of": 1035,
      "}\n": 1036,
      "ma": 1037,
      "▁w": 1038,
      "ro": 1039,
      "▁p": 1040,
      "es": 1041,
      "{\\": 1042,
      "▁in": 1043,
      "ta": 1044,
      "be": 1045,
      "▁and": 1046,
      "ra": 1047,
      "},": 1048,
      "ing": 1049,
      "▁d": 1050,
      "▁t": 1051,
      "la": 1052,
      "ig": 1053,
      "ic": 1054,
      "\r\n": 1055,
      "20": 1056,
      "el": 1057,
      "it": 1058,
      "▁e": 1059,
      "_{": 1060,
      ".\n": 1061,
      "ed": 1062,
      "at": 1063,
      "▁$\\": 1064,
      "ec": 1065,
      "bib": 1066,
      "▁(": 1067,
      "lo": 1068,
      "}\\": 1069,
      "mp": 1070,
      "▁is": 1071,
      "▁T": 1072,
      "▁to": 1073,
      "si": 1074,
      "▁&": 1075,
      "qu": 1076,
      "ent": 1077,
      "▁b": 1078,
      "as": 1079,
      "ol": 1080,
      "▁re": 1081,
      "▁n": 1082,
      "ation": 1083,
      "ou": 1084,
      "▁\n": 1085,
      "}{": 1086,
      "ce": 1087,
      "ch": 1088,
      ".~": 1089,
      "ame": 1090,
      "tem": 1091,
      "et": 1092,
      "▁for": 1093,
      "^{": 1094,
      "ont": 1095,
      "▁S": 1096,
      "st": 1097,
      "▁{\\": 1098,
      "▁m": 1099,
      "▁A": 1100,
      "f{": 1101,
      "▁h": 1102,
      "end": 1103,
      "▁Th": 1104,
      "inf": 1105,
      "}$": 1106,
      "ph": 1107,
      "ci": 1108,
      "ly": 1109,
      "ve": 1110,
      "de": 1111,
      "un": 1112,
      "▁1": 1113,
      "▁g": 1114,
      "201": 1115,
      "um": 1116,
      "ot": 1117,
      "font": 1118,
      "▁I": 1119,
      "amefont": 1120,
      "ver": 1121,
      "ith": 1122,
      "▁that": 1123,
      "us": 1124,
      "▁be": 1125,
      "(\\": 1126,
      "tr": 1127,
      "bitem": 1128,
      "▁C": 1129,
      "ul": 1130,
      "ur": 1131,
      "info": 1132,
      "bibinfo": 1133,
      "ter": 1134,
      "ht": 1135,
      "rac": 1136,
      "▁M": 1137,
      "▁on": 1138,
      "▁\\bi": 1139,
      "0.": 1140,
      "ck": 1141,
      "ge": 1142,
      "od": 1143,
      "▁\\be": 1144,
      "00": 1145,
      "gin": 1146,
      "math": 1147,
      "ref{": 1148,
      "▁P": 1149,
      "▁con": 1150,
      "}}": 1151,
      "▁\\bibitem": 1152,
      "▁we": 1153,
      "ne": 1154,
      "cal": 1155,
      "end{": 1156,
      "gin{": 1157,
      "▁with": 1158,
      "am": 1159,
      "▁\\end{": 1160,
      "▁L": 1161,
      "▁\\begin{": 1162,
      "▁wh": 1163,
      ")$": 1164,
      "▁F": 1165,
      "im": 1166,
      "_{\\": 1167,
      "om": 1168,
      "▁pro": 1169,
      "ure": 1170,
      "ted": 1171,
      "ss": 1172,
      "▁v": 1173,
      "au": 1174,
      "if": 1175,
      "ct": 1176,
      "ight": 1177,
      "frac": 1178,
      "▁The": 1179,
      "ys": 1180,
      "il": 1181,
      "pp": 1182,
      "id": 1183,
      "tex": 1184,
      "▁R": 1185,
      "cite": 1186,
      "▁al": 1187,
      "s,": 1188,
      "ow": 1189,
      "1}": 1190,
      "se": 1191,
      "namefont": 1192,
      "▁co": 1193,
      "▁ex": 1194,
      "▁W": 1195,
      "ity": 1196,
      "iv": 1197,
      "▁l": 1198,
      "▁B": 1199,
      "ere": 1200,
      "▁ma": 1201,
      "▁by": 1202,
      "per": 1203,
      "▁\\e": 1204,
      "^2": 1205,
      "tic": 1206,
      "thor": 1207,
      "▁=": 1208,
      "ble": 1209,
      "bel": 1210,
      "ine": 1211,
      "})": 1212,
      "new": 1213,
      "lock": 1214,
      "▁de": 1215,
      "▁\\bibinfo": 1216,
      "▁H": 1217,
      "ut": 1218,
      "author": 1219,
      "▁are": 1220,
      "▁\\new": 1221,
      "label": 1222,
      "ction": 1223,
      "]{": 1224,
      "right": 1225,
      "_1": 1226,
      "▁D": 1227,
      "bs": 1228,
      ",\\": 1229,
      "block": 1230,
      "▁as": 1231,
      "quation": 1232,
      ".,": 1233,
      "ad": 1234,
      "ran": 1235,
      "200": 1236,
      "▁\\newblock": 1237,
      "▁In": 1238,
      "pa": 1239,
      "ft": 1240,
      "▁su": 1241,
      "}(": 1242,
      "$,": 1243,
      "ts": 1244,
      "▁N": 1245,
      "em": 1246,
      "ri": 1247,
      "ir": 1248,
      "\\\n": 1249,
      "▁\\s": 1250,
      "frac{": 1251,
      "~\\": 1252,
      "▁-": 1253,
      "ore": 1254,
      "label{": 1255,
      "▁2": 1256,
      "bibf": 1257,
      "▁G": 1258,
      "▁E": 1259,
      "to": 1260,
      "da": 1261,
      "text": 1262,
      "der": 1263,
      "left": 1264,
      "▁J": 1265,
      "19": 1266,
      "ence": 1267,
      "cite{": 1268,
      "}},": 1269,
      ")\\": 1270,
      "res": 1271,
      "▁\\c": 1272,
      "iz": 1273,
      "▁\r\n": 1274,
      "▁\\bibitem{": 1275,
      "and": 1276,
      "low": 1277,
      "▁i": 1278,
      "ang": 1279,
      "equation": 1280,
      "10": 1281,
      "rom": 1282,
      "time": 1283,
      "_2": 1284,
      "ga": 1285,
      ",\n": 1286,
      "di": 1287,
      "▁me": 1288,
      "eq": 1289,
      "}\r\n": 1290,
      "os": 1291,
      "mb": 1292,
      "ich": 1293,
      "int": 1294,
      "▁us": 1295,
      "-1": 1296,
      "▁comp": 1297,
      "▁at": 1298,
      "eta": 1299,
      "ome": 1300,
      "ff": 1301,
      "_0": 1302,
      "rm": 1303,
      "^{\\": 1304,
      "ign": 1305,
      "mu": 1306,
      "our": 1307,
      "pro": 1308,
      "bf": 1309,
      "iel": 1310,
      "▁from": 1311,
      "sion": 1312,
      "dot": 1313,
      "author}": 1314,
      "_\\": 1315,
      "tions": 1316,
      "▁this": 1317,
      "lu": 1318,
      "tial": 1319,
      "pha": 1320,
      "▁0": 1321,
      "▁can": 1322,
      "$.": 1323,
      "alpha": 1324,
      "▁sh": 1325,
      "▁or": 1326,
      "ear": 1327,
      ".}": 1328,
      "ield": 1329,
      "li": 1330,
      "▁+": 1331,
      "ant": 1332,
      "fer": 1333,
      "▁(\\": 1334,
      "▁res": 1335,
      "_i": 1336,
      "ep": 1337,
      "▁dis": 1338,
      "fig": 1339,
      "ection": 1340,
      "up": 1341,
      "2}": 1342,
      "bibnamefont": 1343,
      "▁par": 1344,
      "▁it": 1345,
      "ber": 1346,
      "ener": 1347,
      "pec": 1348,
      "tive": 1349,
      "for": 1350,
      "s.": 1351,
      "ho": 1352,
      "▁We": 1353,
      "▁mod": 1354,
      "ces": 1355,
      "iten": 1356,
      "▁3": 1357,
      "ical": 1358,
      "mph": 1359,
      "du": 1360,
      "itenamefont": 1361,
      "▁[": 1362,
      ")}": 1363,
      "▁\\bibinfo{": 1364,
      "bibfnamefont": 1365,
      "▁K": 1366,
      "elta": 1367,
      "ave": 1368,
      "▁un": 1369,
      "olu": 1370,
      "ell": 1371,
      "ate": 1372,
      "--": 1373,
      "amma": 1374,
      "▁which": 1375,
      "ment": 1376,
      "▁\\label{": 1377,
      "▁\\bibitem[": 1378,
      "ari": 1379,
      "=\\": 1380,
      ".\r\n": 1381,
      "▁le": 1382,
      "hys": 1383,
      "ges": 1384,
      "ty": 1385,
      "-\\": 1386,
      "oun": 1387,
      "ap": 1388,
      "▁\\cite{": 1389,
      "op": 1390,
      "line": 1391,
      "gra": 1392,
      "ase": 1393,
      "mathcal": 1394,
      "▁{author}": 1395,
      "bf{": 1396,
      "▁0.": 1397,
      "igma": 1398,
      "▁\\emph": 1399,
      "!!": 1400,
      "ach": 1401,
      "mal": 1402,
      "},\n": 1403,
      "ev": 1404,
      "par": 1405,
      "phi": 1406,
      "▁O": 1407,
      "ther": 1408,
      "nal": 1409,
      "ix": 1410,
      "_n": 1411,
      "▁\\in": 1412,
      "▁app": 1413,
      "▁st": 1414,
      "▁have": 1415,
      "}.\n": 1416,
      "~al": 1417,
      "}.": 1418,
      "til": 1419,
      "▁4": 1420,
      "▁{\\bibfnamefont": 1421,
      "times": 1422,
      "lamb": 1423,
      "lambda": 1424,
      "ect": 1425,
      "),": 1426,
      "equation}\n": 1427,
      "ds": 1428,
      "▁sta": 1429,
      "tit": 1430,
      "▁model": 1431,
      "pi": 1432,
      "▁where": 1433,
      "▁ch": 1434,
      "▁V": 1435,
      "^\\": 1436,
      "ary": 1437,
      "▁qu": 1438,
      "▁\\h": 1439,
      "▁\\\\\n": 1440,
      "xi": 1441,
      "mathcal{": 1442,
      "ru": 1443,
      "▁201": 1444,
      "\\in": 1445,
      "cc": 1446,
      "erm": 1447,
      "▁ne": 1448,
      "ong": 1449,
      "mple": 1450,
      "}_{": 1451,
      "▁k": 1452,
      "▁U": 1453,
      "▁\\emph{": 1454,
      "▁{\\em": 1455,
      "▁se": 1456,
      "▁po": 1457,
      "unction": 1458,
      "▁no": 1459,
      "11": 1460,
      "ork": 1461,
      "ting": 1462,
      "ined": 1463,
      "tation": 1464,
      "}^{": 1465,
      "psi": 1466,
      "ens": 1467,
      "ib": 1468,
      "ak": 1469,
      "ard": 1470,
      "▁et": 1471,
      "▁\\ref{": 1472,
      "ov": 1473,
      "ular": 1474,
      "ini": 1475,
      "ournal": 1476,
      "align": 1477,
      "ab": 1478,
      "alu": 1479,
      ".0": 1480,
      "log": 1481,
      "row": 1482,
      "+\\": 1483,
      "hi": 1484,
      "_{i": 1485,
      "act": 1486,
      "▁not": 1487,
      "▁\\text": 1488,
      "ill": 1489,
      "year": 1490,
      "wo": 1491,
      "ata": 1492,
      "do": 1493,
      "12": 1494,
      "]\n": 1495,
      "vel": 1496,
      "$\\": 1497,
      ".}~\\": 1498,
      "umber": 1499,
      ".}~\\bibnamefont": 1500,
      "▁inter": 1501,
      "pt": 1502,
      "▁{\\bibinfo": 1503,
      "lon": 1504,
      "vi": 1505,
      "are": 1506,
      "▁show": 1507,
      "▁function": 1508,
      "right)": 1509,
      "}{\\": 1510,
      "gamma": 1511,
      "▁pre": 1512,
      "▁5": 1513,
      "ray": 1514,
      "bb": 1515,
      "theta": 1516,
      "99": 1517,
      "no": 1518,
      "▁ra": 1519,
      "(x": 1520,
      "tilde": 1521,
      "po": 1522,
      "ics": 1523,
      "so": 1524,
      "$-": 1525,
      "▁\\frac{": 1526,
      "▁dif": 1527,
      "1,": 1528,
      "rho": 1529,
      "ac": 1530,
      "ay": 1531,
      "~al.": 1532,
      "▁\\citenamefont": 1533,
      "ollow": 1534,
      "ous": 1535,
      "bar": 1536,
      "leq": 1537,
      "ies": 1538,
      "ond": 1539,
      "ance": 1540,
      "|\\": 1541,
      "tau": 1542,
      "lation": 1543,
      "of": 1544,
      "0,": 1545,
      "▁all": 1546,
      "pace": 1547,
      ".\\": 1548,
      "eq:": 1549,
      "▁per": 1550,
      "over": 1551,
      "ound": 1552,
      "▁pa": 1553,
      "ion": 1554,
      "nu": 1555,
      "▁follow": 1556,
      "delta": 1557,
      "▁{S": 1558,
      "▁resul": 1559,
      "sigma": 1560,
      "▁ar": 1561,
      "tp": 1562,
      "▁`": 1563,
      "ke": 1564,
      "ubs": 1565,
      "▁set": 1566,
      "tical": 1567,
      "''": 1568,
      "▁one": 1569,
      "ystem": 1570,
      "13": 1571,
      "▁Y": 1572,
      "able": 1573,
      "▁def": 1574,
      "▁cont": 1575,
      "▁gener": 1576,
      "clu": 1577,
      "1}{": 1578,
      "▁ob": 1579,
      "//": 1580,
      "▁cor": 1581,
      "▁This": 1582,
      "▁Let": 1583,
      "beta": 1584,
      "▁two": 1585,
      "://": 1586,
      "..": 1587,
      "left(": 1588,
      "hat": 1589,
      "$\n": 1590,
      "igh": 1591,
      "▁la": 1592,
      "▁such": 1593,
      "the": 1594,
      "▁str": 1595,
      "frac{\\": 1596,
      "▁\\&": 1597,
      "▁exp": 1598,
      "^{-": 1599,
      "journal": 1600,
      "▁For": 1601,
      "lic": 1602,
      "▁r": 1603,
      "yn": 1604,
      "http": 1605,
      "son": 1606,
      "sk": 1607,
      "ni": 1608,
      "▁tran": 1609,
      "t{": 1610,
      "16": 1611,
      "▁}\\": 1612,
      "▁data": 1613,
      "omp": 1614,
      "tes": 1615,
      "infty": 1616,
      "graph": 1617,
      "▁Phys": 1618,
      "▁{\\bf": 1619,
      "mation": 1620,
      "bibfield": 1621,
      "array": 1622,
      "omm": 1623,
      "▁has": 1624,
      "15": 1625,
      "we": 1626,
      "y,": 1627,
      "bo": 1628,
      "ref": 1629,
      "▁if": 1630,
      "1)": 1631,
      "ection{": 1632,
      "▁ass": 1633,
      "EE": 1634,
      "▁differ": 1635,
      "_j": 1636,
      "▁{M": 1637,
      "▁giv": 1638,
      "ature": 1639,
      "▁lo": 1640,
      "ark": 1641,
      "14": 1642,
      "omega": 1643,
      "}[": 1644,
      "volu": 1645,
      "▁``": 1646,
      "ree": 1647,
      "▁x": 1648,
      "},\\": 1649,
      "▁imp": 1650,
      "ind": 1651,
      "ties": 1652,
      "bil": 1653,
      "}$,": 1654,
      "ated": 1655,
      "partial": 1656,
      "_k": 1657,
      "▁di": 1658,
      "▁const": 1659,
      "▁6": 1660,
      "1.": 1661,
      "all": 1662,
      "Bi": 1663,
      "chi": 1664,
      "10.": 1665,
      "a,": 1666,
      "erv": 1667,
      "app": 1668,
      "▁\\m": 1669,
      "▁there": 1670,
      "▁also": 1671,
      "▁X": 1672,
      "ations": 1673,
      "▁ad": 1674,
      "ew": 1675,
      "pm": 1676,
      "\\c": 1677,
      "▁\\end{equation}\n": 1678,
      "ide": 1679,
      "ld": 1680,
      "figure": 1681,
      "fig:": 1682,
      "ist": 1683,
      "*}\n": 1684,
      "ory": 1685,
      "mathbb": 1686,
      "org": 1687,
      "▁the\n": 1688,
      "▁\\eq": 1689,
      "22": 1690,
      "199": 1691,
      "▁system": 1692,
      "tain": 1693,
      "▁te": 1694,
      "▁Z": 1695,
      "quad": 1696,
      "ample": 1697,
      "item": 1698,
      "rm{": 1699,
      "17": 1700,
      "}(\\": 1701,
      "ial": 1702,
      "▁non": 1703,
      "▁mo": 1704,
      "^*": 1705,
      "▁our": 1706,
      "ort": 1707,
      "(t": 1708,
      "und": 1709,
      "pe": 1710,
      "▁then": 1711,
      "▁bet": 1712,
      "$.\n": 1713,
      "-s": 1714,
      "gh": 1715,
      "orem": 1716,
      "▁valu": 1717,
      "Bibitem": 1718,
      "tric": 1719,
      "man": 1720,
      "i,": 1721,
      "▁spec": 1722,
      "Delta": 1723,
      "03": 1724,
      "ger": 1725,
      "▁{B": 1726,
      "ulti": 1727,
      "ents": 1728,
      "}\\label{": 1729,
      "var": 1730,
      "con": 1731,
      "sition": 1732,
      "▁\\bibnamefont": 1733,
      "ors": 1734,
      "mathbf{": 1735,
      "arrow": 1736,
      "ex": 1737,
      "ization": 1738,
      "citenamefont": 1739,
      "led": 1740,
      "18": 1741,
      "▁200": 1742,
      "bility": 1743,
      "he": 1744,
      "og": 1745,
      "▁rep": 1746,
      "▁time": 1747,
      "ub": 1748,
      "title": 1749,
      "def": 1750,
      "▁es": 1751,
      "▁\\eqref{": 1752,
      "▁case": 1753,
      "2\\": 1754,
      "irst": 1755,
      ").\n": 1756,
      "▁each": 1757,
      "gle": 1758,
      "▁do": 1759,
      ")\n": 1760,
      "ual": 1761,
      "▁appro": 1762,
      "23": 1763,
      "ag": 1764,
      "ced": 1765,
      "eng": 1766,
      "ll": 1767,
      "▁eff": 1768,
      "ning": 1769,
      "▁only": 1770,
      "▁\\cite": 1771,
      "vid": 1772,
      "▁ver": 1773,
      "ension": 1774,
      "▁Pro": 1775,
      "pend": 1776,
      "▁gra": 1777,
      "▁\\\\": 1778,
      "04": 1779,
      "ms": 1780,
      "mathrm{": 1781,
      "!!!!": 1782,
      "▁{C": 1783,
      "work": 1784,
      "ba": 1785,
      "pen": 1786,
      ").": 1787,
      "2,": 1788,
      "org/": 1789,
      "▁{P": 1790,
      "▁en": 1791,
      "▁field": 1792,
      "qr": 1793,
      "▁des": 1794,
      ".5": 1795,
      "▁given": 1796,
      "\\\\\n": 1797,
      "▁trans": 1798,
      "sider": 1799,
      "▁will": 1800,
      "roup": 1801,
      "▁vari": 1802,
      "pr": 1803,
      "▁reg": 1804,
      "thod": 1805,
      "ween": 1806,
      "eqn": 1807,
      "big": 1808,
      "▁using": 1809,
      "ould": 1810,
      "gy": 1811,
      "er,": 1812,
      "▁between": 1813,
      "les": 1814,
      "▁number": 1815,
      "▁and\n": 1816,
      "doi": 1817,
      "ameter": 1818,
      "tis": 1819,
      "▁7": 1820,
      "▁$(": 1821,
      "Xiv": 1822,
      ".org/": 1823,
      "dition": 1824,
      "~\\ref{": 1825,
      "▁u": 1826,
      "▁ele": 1827,
      "\\s": 1828,
      "▁ph": 1829,
      "=0": 1830,
      "oth": 1831,
      "\\,": 1832,
      "▁Fig": 1833,
      "25": 1834,
      "▁(\\ref{": 1835,
      "▁ta": 1836,
      "ential": 1837,
      "_3": 1838,
      "▁{N": 1839,
      "ud": 1840,
      "cri": 1841,
      "▁{journal": 1842,
      "ers": 1843,
      "cess": 1844,
      "ord": 1845,
      "av": 1846,
      "{{": 1847,
      "05": 1848,
      "ula": 1849,
      "ince": 1850,
      "ess": 1851,
      "ly,": 1852,
      "▁cla": 1853,
      "mathbb{": 1854,
      "pl": 1855,
      "▁obs": 1856,
      "▁sim": 1857,
      "ast": 1858,
      "}},\\": 1859,
      "ose": 1860,
      "▁\\textbf{": 1861,
      "▁Con": 1862,
      "▁over": 1863,
      "e,": 1864,
      ":\n": 1865,
      "tect": 1866,
      "▁equation": 1867,
      "▁ev": 1868,
      "o,": 1869,
      "▁8": 1870,
      "ote": 1871,
      "▁\\b": 1872,
      "trib": 1873,
      "▁these": 1874,
      "put": 1875,
      ".4": 1876,
      "▁\\n": 1877,
      "mage": 1878,
      "_t": 1879,
      "▁Q": 1880,
      "mall": 1881,
      "tribu": 1882,
      "mega": 1883,
      "▁y": 1884,
      "_{n": 1885,
      "▁{et": 1886,
      ".3": 1887,
      "ian": 1888,
      "aus": 1889,
      "dic": 1890,
      "Omega": 1891,
      "2020": 1892,
      "^{(": 1893,
      "sec": 1894,
      "▁order": 1895,
      "▁high": 1896,
      "▁anal": 1897,
      "▁\\subs": 1898,
      "▁Rev": 1899,
      "▁so": 1900,
      ".}\\": 1901,
      "▁any": 1902,
      "trix": 1903,
      "▁\\begin{equation": 1904,
      "ue": 1905,
      "▁z": 1906,
      "▁lar": 1907,
      "▁\\item": 1908,
      "▁dec": 1909,
      "tab": 1910,
      "abs": 1911,
      "▁consider": 1912,
      "ased": 1913,
      "▁{A": 1914,
      "mo": 1915,
      "▁term": 1916,
      "▁than": 1917,
      "sim": 1918,
      "▁\\right": 1919,
      "▁other": 1920,
      "▁disc": 1921,
      "ym": 1922,
      "24": 1923,
      "}^": 1924,
      "ize": 1925,
      "▁bound": 1926,
      "gor": 1927,
      "▁method": 1928,
      "▁ro": 1929,
      ")$,": 1930,
      "▁\\l": 1931,
      "▁equ": 1932,
      "▁\\left": 1933,
      "pages": 1934,
      "Gamma": 1935,
      "▁ran": 1936,
      "▁parameter": 1937,
      "ish": 1938,
      "angle": 1939,
      "~\\cite{": 1940,
      "▁(\\bibinfo": 1941,
      "▁line": 1942,
      "asure": 1943,
      "▁ener": 1944,
      "06": 1945,
      "ici": 1946,
      "▁\\,": 1947,
      "▁pres": 1948,
      "▁rela": 1949,
      "▁its": 1950,
      "▁\\begin{align": 1951,
      "▁\\end{align": 1952,
      "vers": 1953,
      "▁first": 1954,
      "▁j": 1955,
      "▁some": 1956,
      "imension": 1957,
      "▁ext": 1958,
      "age": 1959,
      "}}\\": 1960,
      "}_": 1961,
      "▁{journal}": 1962,
      "▁\\begin{equation}\n": 1963,
      "2)": 1964,
      "Sh": 1965,
      "s.\n": 1966,
      "▁sub": 1967,
      "ton": 1968,
      "98": 1969,
      "ust": 1970,
      "volume": 1971,
      "eqnarray": 1972,
      "etwork": 1973,
      "top": 1974,
      "}$.": 1975,
      "▁{L": 1976,
      "out": 1977,
      "▁Ch": 1978,
      "ip": 1979,
      "_{\\rm": 1980,
      "resp": 1981,
      "▁partic": 1982,
      "ized": 1983,
      "form": 1984,
      "art": 1985,
      "21": 1986,
      "psilon": 1987,
      "rangle": 1988,
      "ef": 1989,
      "▁J.~": 1990,
      "old": 1991,
      "▁acc": 1992,
      "07": 1993,
      "}},\n": 1994,
      "▁Ma": 1995,
      "tern": 1996,
      "_{k": 1997,
      "▁}": 1998,
      "▁cal": 1999,
      "▁fact": 2000,
      "▁comple": 2001,
      "▁results": 2002,
      "~al.}(": 2003,
      "▁J.": 2004,
      "0000": 2005,
      "ator": 2006,
      "▁{H": 2007,
      "ference": 2008,
      "2018": 2009,
      "▁more": 2010,
      "26": 2011,
      "▁following": 2012,
      "-1}": 2013,
      "▁and\\": 2014,
      "fi": 2015,
      "▁out": 2016,
      "▁space": 2017,
      "silon": 2018,
      "clude": 2019,
      "text{": 2020,
      "inite": 2021,
      "bra": 2022,
      "▁observ": 2023,
      "▁state": 2024,
      "27": 2025,
      "2017": 2026,
      "▁\\sum": 2027,
      "u,": 2028,
      "dots": 2029,
      "▁measure": 2030,
      "▁general": 2031,
      "▁{K": 2032,
      "cture": 2033,
      "▁A.~": 2034,
      "08": 2035,
      "▁distribu": 2036,
      "table": 2037,
      "ia": 2038,
      "lem": 2039,
      "97": 2040,
      "▁{G": 2041,
      "es,": 2042,
      "tiv": 2043,
      "2019": 2044,
      "▁was": 2045,
      "geq": 2046,
      "dots,": 2047,
      "ha": 2048,
      "oc": 2049,
      "_s": 2050,
      "_{j": 2051,
      "epsilon": 2052,
      "varphi": 2053,
      ".8": 2054,
      "▁different": 2055,
      "▁tra": 2056,
      "▁M.~": 2057,
      "now": 2058,
      "▁It": 2059,
      "its": 2060,
      "ever": 2061,
      ".6": 2062,
      "amb": 2063,
      "+1": 2064,
      "▁$n": 2065,
      "sum": 2066,
      "▁when": 2067,
      "{S": 2068,
      ")=": 2069,
      "▁$x": 2070,
      "▁solu": 2071,
      "09": 2072,
      "inal": 2073,
      "ise": 2074,
      "{A": 2075,
      "▁\\tex": 2076,
      "wide": 2077,
      "ress": 2078,
      "▁oper": 2079,
      "fore": 2080,
      "en,": 2081,
      "Big": 2082,
      ".~\\": 2083,
      "▁used": 2084,
      "▁den": 2085,
      "frac{1}{": 2086,
      "}}\n": 2087,
      ".7": 2088,
      "▁\\leq": 2089,
      "▁under": 2090,
      "}}]{": 2091,
      "formation": 2092,
      "2016": 2093,
      "ural": 2094,
      "▁op": 2095,
      "ings": 2096,
      "▁col": 2097,
      "gorith": 2098,
      "ann": 2099,
      "ok": 2100,
      "ox": 2101,
      "▁cur": 2102,
      "▁same": 2103,
      "▁corresp": 2104,
      "▁$f": 2105,
      "tro": 2106,
      "http://": 2107,
      "▁esti": 2108,
      "▁sa": 2109,
      "▁{D": 2110,
      "▁si": 2111,
      "sc": 2112,
      "Xiv:": 2113,
      "▁Phys.": 2114,
      "▁repres": 2115,
      "vec": 2116,
      "proof": 2117,
      "▁low": 2118,
      "}_{\\": 2119,
      "cy": 2120,
      "▁energy": 2121,
      "▁proble": 2122,
      "ymme": 2123,
      "lan": 2124,
      "s://": 2125,
      "fa": 2126,
      "▁respec": 2127,
      "▁{R": 2128,
      "▁scal": 2129,
      "▁multi": 2130,
      "'s": 2131,
      "{\\citenamefont": 2132,
      "url": 2133,
      "0)": 2134,
      "▁\\bibfield": 2135,
      "3,": 2136,
      "35": 2137,
      "▁\\pro": 2138,
      "▁et~al.": 2139,
      "red": 2140,
      "▁mass": 2141,
      "main": 2142,
      "▁but": 2143,
      "28": 2144,
      "tivel": 2145,
      "▁network": 2146,
      "author}{\\": 2147,
      "▁sign": 2148,
      "ynam": 2149,
      "45": 2150,
      "est": 2151,
      "▁inte": 2152,
      "set": 2153,
      "\\right": 2154,
      "enti": 2155,
      "3}": 2156,
      "qrt{": 2157,
      "antum": 2158,
      "https://": 2159,
      "▁An": 2160,
      "1/": 2161,
      "olds": 2162,
      "m{": 2163,
      "action": 2164,
      "s\n": 2165,
      "a}": 2166,
      "ommand": 2167,
      "▁$A": 2168,
      "2015": 2169,
      "▁{et~al.}(": 2170,
      ")$.": 2171,
      "38": 2172,
      "sh": 2173,
      "▁stru": 2174,
      "▁assu": 2175,
      "▁use": 2176,
      "▁into": 2177,
      "▁point": 2178,
      "▁{T": 2179,
      "[\\": 2180,
      "graphics": 2181,
      "tilde{": 2182,
      "▁of\n": 2183,
      "-b": 2184,
      "198": 2185,
      "str": 2186,
      "ang,": 2187,
      "▁{\\it": 2188,
      "}^{\\": 2189,
      "▁form": 2190,
      "▁\\Bibitem": 2191,
      "▁non-": 2192,
      "t,": 2193,
      "ases": 2194,
      "▁inv": 2195,
      "▁9": 2196,
      "lab": 2197,
      "cent": 2198,
      "▁compu": 2199,
      "co": 2200,
      "umer": 2201,
      "=1}": 2202,
      "ific": 2203,
      "▁sur": 2204,
      "36": 2205,
      "ments": 2206,
      "ensity": 2207,
      "cre": 2208,
      "▁sp": 2209,
      "ura": 2210,
      "▁$p": 2211,
      "▁$k": 2212,
      "1-": 2213,
      "▁Comp": 2214,
      "ten": 2215,
      "▁pol": 2216,
      "ector": 2217,
      "▁pp": 2218,
      "2014": 2219,
      "Phi": 2220,
      "▁20": 2221,
      "idth": 2222,
      "oci": 2223,
      "2}\\": 2224,
      "tal": 2225,
      "Phys": 2226,
      "▁S.~": 2227,
      "▁char": 2228,
      "▁small": 2229,
      "-d": 2230,
      "▁proper": 2231,
      "fic": 2232,
      "▁$S": 2233,
      "29": 2234,
      "▁Rev.": 2235,
      "▁structure": 2236,
      "▁As": 2237,
      "ational": 2238,
      "▁their": 2239,
      "▁$G": 2240,
      "oS": 2241,
      "▁|": 2242,
      "orph": 2243,
      "EEE": 2244,
      "owever": 2245,
      "▁10": 2246,
      "dd": 2247,
      "▁group": 2248,
      "ilar": 2249,
      "▁been": 2250,
      "ysis": 2251,
      "▁(200": 2252,
      "▁both": 2253,
      "vare": 2254,
      "ry": 2255,
      "abs/": 2256,
      "▁\\section{": 2257,
      "▁$T": 2258,
      "\\in\\": 2259,
      "▁corre": 2260,
      "min": 2261,
      "href": 2262,
      "▁\\frac{\\": 2263,
      "4,": 2264,
      "ps": 2265,
      "▁bec": 2266,
      "▁\\hline": 2267,
      "sec:": 2268,
      "\\pro": 2269,
      "{C": 2270,
      "▁work": 2271,
      "}=": 2272,
      "▁&=": 2273,
      "entation": 2274,
      "▁sec": 2275,
      "▁$\\mathcal{": 2276,
      ")}]{": 2277,
      "uc": 2278,
      "round": 2279,
      "37": 2280,
      "^n": 2281,
      "▁If": 2282,
      "▁mag": 2283,
      "ern": 2284,
      "▁large": 2285,
      "rule": 2286,
      "▁}\n": 2287,
      "ints": 2288,
      "In": 2289,
      "{M": 2290,
      "3/": 2291,
      "▁\\subsection{": 2292,
      "▁\\int": 2293,
      "equ": 2294,
      "▁lim": 2295,
      "▁descri": 2296,
      "▁man": 2297,
      "▁class": 2298,
      "ero": 2299,
      "[]{": 2300,
      "ining": 2301,
      "kapp": 2302,
      "ai": 2303,
      "pri": 2304,
      "overline": 2305,
      "varepsilon": 2306,
      "Lamb": 2307,
      "ie": 2308,
      "_{0": 2309,
      "Open": 2310,
      "▁\\big": 2311,
      "▁may": 2312,
      "▁$M": 2313,
      "Lambda": 2314,
      "▁ty": 2315,
      "▁estima": 2316,
      "lin": 2317,
      "tively": 2318,
      "ffici": 2319,
      "gebra": 2320,
      "lec": 2321,
      "try": 2322,
      "▁\\end{figure": 2323,
      "▁&\\": 2324,
      "▁\\d": 2325,
      "▁\\begin{figure": 2326,
      "s},": 2327,
      "▁{F": 2328,
      "tra": 2329,
      "▁cons": 2330,
      "tained": 2331,
      "▁sc": 2332,
      "▁correspond": 2333,
      "rc": 2334,
      "ormal": 2335,
      "jec": 2336,
      "▁well": 2337,
      "e.": 2338,
      "01": 2339,
      "▁{W": 2340,
      "{\\'": 2341,
      "abla": 2342,
      "▁dire": 2343,
      "▁$C": 2344,
      "▁min": 2345,
      "▁depend": 2346,
      "▁produ": 2347,
      "ile": 2348,
      "\\|": 2349,
      "oStop": 2350,
      "3)": 2351,
      "▁problem": 2352,
      "ulation": 2353,
      "gorithm": 2354,
      "▁lear": 2355,
      "ner": 2356,
      "Pro": 2357,
      ".9": 2358,
      "}]{": 2359,
      "▁\\BibitemOpen": 2360,
      "ality": 2361,
      "▁To": 2362,
      "\\'": 2363,
      "sible": 2364,
      "na": 2365,
      "▁defined": 2366,
      "▁clo": 2367,
      "\\protect": 2368,
      "▁sing": 2369,
      "bove": 2370,
      "1\\": 2371,
      "Shut": 2372,
      "perim": 2373,
      "+1}": 2374,
      "▁\\left(": 2375,
      "▁\\[": 2376,
      "err": 2377,
      "▁\\mathcal{": 2378,
      "}}{": 2379,
      "istic": 2380,
      "▁above": 2381,
      "▁\\bibinfo{author}{\\": 2382,
      "▁$t": 2383,
      "▁$X": 2384,
      "ject": 2385,
      "34": 2386,
      "02": 2387,
      "5,": 2388,
      "onumber": 2389,
      "kappa": 2390,
      "ugh": 2391,
      "▁inde": 2392,
      "cludegraphics": 2393,
      "▁{year": 2394,
      "person": 2395,
      "ength": 2396,
      "\\l": 2397,
      "▁\\bibitem[\\protect": 2398,
      "gr": 2399,
      "▁\\label{fig:": 2400,
      "▁star": 2401,
      "oStop}\n": 2402,
      "▁{NoStop}\n": 2403,
      "_1,": 2404,
      "▁[{\\citenamefont": 2405,
      "110": 2406,
      "▁\\bibinfo{author}{\\bibfnamefont": 2407,
      "left(\\": 2408,
      "▁There": 2409,
      "▁calc": 2410,
      "ze": 2411,
      "▁distribution": 2412,
      "▁process": 2413,
      "space": 2414,
      "▁fe": 2415,
      "ing\n": 2416,
      "▁$$\n": 2417,
      "ision": 2418,
      "t.": 2419,
      "orm": 2420,
      "lay": 2421,
      "^{-1}": 2422,
      "s}": 2423,
      "▁see": 2424,
      "▁local": 2425,
      "))": 2426,
      "▁radi": 2427,
      "0$": 2428,
      "_c": 2429,
      "▁\\textit": 2430,
      "▁der": 2431,
      "▁ste": 2432,
      "▁ac": 2433,
      "▁approach": 2434,
      "▁\\includegraphics": 2435,
      "owever,": 2436,
      "person}{": 2437,
      "su": 2438,
      "ism": 2439,
      "▁em": 2440,
      "▁$N": 2441,
      "ecommand": 2442,
      "▁value": 2443,
      "videcommand": 2444,
      ";\n": 2445,
      "▁199": 2446,
      "year}{": 2447,
      "otimes": 2448,
      "▁\\bibitem[\\protect\\": 2449,
      "eterm": 2450,
      "▁com": 2451,
      "tron": 2452,
      "fra": 2453,
      "image": 2454,
      "ack": 2455,
      "▁values": 2456,
      "ans": 2457,
      "doi.org/": 2458,
      "▁<": 2459,
      "▁Then": 2460,
      "_m": 2461,
      "▁\\providecommand": 2462,
      "_{1": 2463,
      "▁graph": 2464,
      "^{-1": 2465,
      "▁\\right)": 2466,
      "authoryear": 2467,
      "47": 2468,
      "oh": 2469,
      "▁satis": 2470,
      "▁}\\href": 2471,
      "▁bi": 2472,
      "trodu": 2473,
      "▁example": 2474,
      "▁$L": 2475,
      "ating": 2476,
      "65": 2477,
      "ull": 2478,
      "mpl": 2479,
      "}[h": 2480,
      "1$": 2481,
      "▁up": 2482,
      "{T": 2483,
      "author}{": 2484,
      ".~S": 2485,
      "▁shown": 2486,
      "48": 2487,
      "med": 2488,
      "▁obtain": 2489,
      "stra": 2490,
      ".~M": 2491,
      "▁hy": 2492,
      "Sigma": 2493,
      "ik": 2494,
      "▁id": 2495,
      "▁{J": 2496,
      "▁${\\": 2497,
      "▁pos": 2498,
      "{B": 2499,
      "6,": 2500,
      "citeauthoryear": 2501,
      "▁$\\alpha": 2502,
      "▁\\bibitem[\\protect\\citeauthoryear": 2503,
      "1}\n": 2504,
      "2}\n": 2505,
      "▁density": 2506,
      "ists": 2507,
      "▁quantum": 2508,
      "-f": 2509,
      "tt": 2510,
      "▁\\end{equation": 2511,
      "ult": 2512,
      "width": 2513,
      "▁matrix": 2514,
      "^3": 2515,
      "}[h]\n": 2516,
      "ame}\n": 2517,
      "fter": 2518,
      "-c": 2519,
      "ross": 2520,
      "▁real": 2521,
      "▁\\bibitem[{{": 2522,
      "▁Al": 2523,
      "▁effec": 2524,
      "▁result": 2525,
      "textbf": 2526,
      "lear": 2527,
      "▁finite": 2528,
      "▁super": 2529,
      "▁theory": 2530,
      "ceed": 2531,
      "an,": 2532,
      "doi.org/10.": 2533,
      "▁Eq": 2534,
      "▁{volume": 2535,
      "one": 2536,
      "▁{\\bibfield": 2537,
      "ala": 2538,
      "ing,": 2539,
      "hat{": 2540,
      "▁pr": 2541,
      "mbox": 2542,
      "position": 2543,
      "▁supp": 2544,
      "ency": 2545,
      "label}\n": 2546,
      "erature": 2547,
      ".~\\ref{": 2548,
      "in,": 2549,
      "_p": 2550,
      "▁\\includegraphics[]{": 2551,
      "▁\\end{figure}\n": 2552,
      "}\\right": 2553,
      "_name}\n": 2554,
      "▁\\label{fig:label}\n": 2555,
      "▁\\begin{figure}[h]\n": 2556,
      "image_name}\n": 2557,
      "▁\\includegraphics[]{image_name}\n": 2558,
      "(1": 2559,
      "▁solution": 2560,
      "circ": 2561,
      "▁$H": 2562,
      "▁linear": 2563,
      "inu": 2564,
      "39": 2565,
      "▁\\bibinfo{author}{": 2566,
      "▁Theorem": 2567,
      ";\\": 2568,
      "dom": 2569,
      "▁q": 2570,
      "▁{pages": 2571,
      "ins": 2572,
      "ple": 2573,
      "▁\\citep": 2574,
      "▁}\\textbf": 2575,
      "inition": 2576,
      "▁dist": 2577,
      "proof}\n": 2578,
      "▁Since": 2579,
      "_{2": 2580,
      "van": 2581,
      "\\%": 2582,
      "cm": 2583,
      "eqnarray}\n": 2584,
      "▁determ": 2585,
      "▁opti": 2586,
      "▁$P": 2587,
      "▁analysis": 2588,
      "less": 2589,
      "qui": 2590,
      "umn": 2591,
      "ster": 2592,
      "▁ab": 2593,
      "▁,": 2594,
      "▁$m": 2595,
      "\\times": 2596,
      "e}": 2597,
      "▁\\times": 2598,
      "▁section": 2599,
      "75": 2600,
      "▁$i": 2601,
      "ative": 2602,
      "▁condition": 2603,
      "▁follows": 2604,
      "prime": 2605,
      "▁models": 2606,
      "}),": 2607,
      "▁sol": 2608,
      "▁obtained": 2609,
      "▁temp": 2610,
      "logy": 2611,
      "▁\\v": 2612,
      "!!!!!!!!": 2613,
      "▁A.": 2614,
      "▁flu": 2615,
      "▁experim": 2616,
      "▁$R": 2617,
      "--1": 2618,
      "100": 2619,
      "▁--": 2620,
      "▁\\hline\n": 2621,
      "\\right)": 2622,
      "BibitemShut": 2623,
      "▁$a": 2624,
      "-2": 2625,
      "rough": 2626,
      "▁dimension": 2627,
      "▁incre": 2628,
      "2013": 2629,
      "ymb": 2630,
      "very": 2631,
      "cdot": 2632,
      "▁find": 2633,
      "}\\right)": 2634,
      "▁spectr": 2635,
      "▁M.": 2636,
      ")=\\": 2637,
      "▁symme": 2638,
      "emma": 2639,
      "ick": 2640,
      "▁know": 2641,
      "▁Uni": 2642,
      "▁subs": 2643,
      "&\\": 2644,
      "AS": 2645,
      "▁since": 2646,
      "ences": 2647,
      "Rev": 2648,
      "▁approxi": 2649,
      "33": 2650,
      "▁region": 2651,
      "▁\t": 2652,
      "urther": 2653,
      "▁rec": 2654,
      "▁learning": 2655,
      "▁similar": 2656,
      "ymbol": 2657,
      "▁\\to": 2658,
      "44": 2659,
      "▁dynam": 2660,
      "ons": 2661,
      "▁By": 2662,
      "88": 2663,
      "otential": 2664,
      "▁second": 2665,
      "bu": 2666,
      "▁\\BibitemOpen\n": 2667,
      "che": 2668,
      "▁\\frac{1}{": 2669,
      "i}": 2670,
      "netic": 2671,
      "(n": 2672,
      "▁ed": 2673,
      "▁\\no": 2674,
      "pos": 2675,
      "▁were": 2676,
      "▁$r": 2677,
      "{D": 2678,
      "fy": 2679,
      "tional": 2680,
      "▁/": 2681,
      "har": 2682,
      "▁constant": 2683,
      "▁that\n": 2684,
      "▁paper": 2685,
      "_{t": 2686,
      "zeta": 2687,
      ".~A": 2688,
      "▁proba": 2689,
      "xim": 2690,
      "rela": 2691,
      "col": 2692,
      "▁most": 2693,
      "ines": 2694,
      "▁\\begin{equation}\\label{": 2695,
      "67": 2696,
      "▁particular": 2697,
      "▁three": 2698,
      "ates": 2699,
      "▁let": 2700,
      "ee": 2701,
      "print": 2702,
      "er},": 2703,
      "95": 2704,
      "▁$d": 2705,
      "▁terms": 2706,
      "matic": 2707,
      "ice": 2708,
      "▁discus": 2709,
      "eck": 2710,
      "▁redu": 2711,
      "ause": 2712,
      "put(": 2713,
      ":200": 2714,
      "▁$B": 2715,
      "^{2": 2716,
      "sing": 2717,
      "▁predic": 2718,
      "sitive": 2719,
      "▁sample": 2720,
      "face": 2721,
      "▁\\quad": 2722,
      "texlab": 2723,
      "name": 2724,
      "▁based": 2725,
      "▁{year}": 2726,
      "see": 2727,
      "▁phase": 2728,
      "▁compon": 2729,
      "_x": 2730,
      "▁{volume}": 2731,
      "mark": 2732,
      "\\\\": 2733,
      "ented": 2734,
      "ssi": 2735,
      "-0.": 2736,
      "▁:": 2737,
      "ough": 2738,
      "▁Conference": 2739,
      "9,": 2740,
      "bar{": 2741,
      "anti": 2742,
      "}\\BibitemShut": 2743,
      "xiv": 2744,
      "})$": 2745,
      "}}$": 2746,
      "▁$$": 2747,
      ".~L": 2748,
      "▁However,": 2749,
      "▁inf": 2750,
      "io": 2751,
      "▁{pages}": 2752,
      "▁\\textit{": 2753,
      "bin": 2754,
      "tabular": 2755,
      "▁corresponding": 2756,
      "▁proof": 2757,
      "ower": 2758,
      "s}\n": 2759,
      "(z": 2760,
      ")\\citenamefont": 2761,
      "matrix": 2762,
      "eries": 2763,
      "▁stud": 2764,
      "acter": 2765,
      "tilde{\\": 2766,
      "ival": 2767,
      "▁et~al.(": 2768,
      "▁sequ": 2769,
      "▁sum": 2770,
      "bibinfo{": 2771,
      "ech": 2772,
      "▁App": 2773,
      "▁complex": 2774,
      "4}": 2775,
      "iod": 2776,
      ".},": 2777,
      "8,": 2778,
      "▁every": 2779,
      "▁they": 2780,
      "▁\\label{eq:": 2781,
      "hen": 2782,
      "▁in\n": 2783,
      "▁vector": 2784,
      "mm": 2785,
      ".org/abs/": 2786,
      "):": 2787,
      "▁arXiv:": 2788,
      "ograph": 2789,
      "55": 2790,
      "\\{": 2791,
      "▁Sci": 2792,
      "▁requi": 2793,
      "arxiv": 2794,
      "▁\\cap": 2795,
      "▁\\alpha": 2796,
      "ression": 2797,
      "_2$": 2798,
      "tice": 2799,
      "2010": 2800,
      "sed": 2801,
      "\\to": 2802,
      "ami": 2803,
      "lat": 2804,
      "(X": 2805,
      "▁pp.": 2806,
      "\\rangle": 2807,
      "▁algorithm": 2808,
      "asi": 2809,
      "▁identi": 2810,
      "tational": 2811,
      "▁$g": 2812,
      "▁\\{": 2813,
      "pendent": 2814,
      "ash": 2815,
      "es.": 2816,
      "▁$v": 2817,
      "space{": 2818,
      "fficient": 2819,
      "▁perform": 2820,
      "▁$F": 2821,
      "▁feature": 2822,
      "uch": 2823,
      "aw": 2824,
      "ive": 2825,
      "▁$E": 2826,
      "▁would": 2827,
      "96": 2828,
      "▁spa": 2829,
      "ixed": 2830,
      "▁while": 2831,
      "/\\": 2832,
      "▁limit": 2833,
      "ental": 2834,
      "natexlab": 2835,
      "mon": 2836,
      "▁through": 2837,
      "enter": 2838,
      "sqrt{": 2839,
      "▁new": 2840,
      "▁Thus": 2841,
      "▁vol": 2842,
      "~~": 2843,
      "mbox{": 2844,
      "pm$": 2845,
      "rol": 2846,
      "▁On": 2847,
      "▁potential": 2848,
      ".}~\\bibnamefont\n": 2849,
      "frak": 2850,
      "o}": 2851,
      "mod": 2852,
      "nabla": 2853,
      "▁algebra": 2854,
      "ically": 2855,
      "{H": 2856,
      "▁\\bibinfo{person}{": 2857,
      "{P": 2858,
      "{L": 2859,
      "▁random": 2860,
      "ert": 2861,
      "▁constru": 2862,
      "Th": 2863,
      "versity": 2864,
      "ticle": 2865,
      "▁single": 2866,
      "▁\\end{align}\n": 2867,
      "▁sour": 2868,
      "▁need": 2869,
      "▁ini": 2870,
      "▁$(\\": 2871,
      "\\!": 2872,
      "▁$V": 2873,
      "▁variable": 2874,
      "not": 2875,
      ".~C": 2876,
      "▁lat": 2877,
      "arxiv.org/abs/": 2878,
      "▁Figure": 2879,
      "^{n": 2880,
      "▁$K": 2881,
      "7,": 2882,
      "▁deriv": 2883,
      "▁(see": 2884,
      "▁he": 2885,
      "thm": 2886,
      "▁$u": 2887,
      "▁calcula": 2888,
      "▁\\]\n": 2889,
      "ink": 2890,
      "qquad": 2891,
      "a},": 2892,
      "▁map": 2893,
      "▁elec": 2894,
      "}^2": 2895,
      "2.": 2896,
      "▁cho": 2897,
      "{\\bf": 2898,
      "tations": 2899,
      "omorph": 2900,
      "46": 2901,
      "plit": 2902,
      "i},": 2903,
      "lemma": 2904,
      "▁\\cdot": 2905,
      "▁bas": 2906,
      "ved": 2907,
      "rop": 2908,
      "ep-": 2909,
      "vious": 2910,
      "▁i.": 2911,
      "▁[\\": 2912,
      "-1)": 2913,
      "max": 2914,
      "^+": 2915,
      "tur": 2916,
      "ole": 2917,
      "▁ins": 2918,
      "▁cou": 2919,
      "itu": 2920,
      "_1$": 2921,
      "▁due": 2922,
      "\\leq": 2923,
      "ene": 2924,
      "s)": 2925,
      "▁\\hat": 2926,
      "{R": 2927,
      "Psi": 2928,
      "-S": 2929,
      "Zh": 2930,
      ".~B": 2931,
      "chan": 2932,
      "nd": 2933,
      "▁Lemma": 2934,
      "ves": 2935,
      "ads": 2936,
      "▁pair": 2937,
      "note": 2938,
      "i)": 2939,
      "▁continu": 2940,
      "▁does": 2941,
      "▁introdu": 2942,
      "lus": 2943,
      "▁$c": 2944,
      "lies": 2945,
      "▁minim": 2946,
      "oot": 2947,
      "ography": 2948,
      "clud": 2949,
      "▁fre": 2950,
      "(x)": 2951,
      "▁information": 2952,
      "The": 2953,
      "▁character": 2954,
      "ceedings": 2955,
      "natexlab{": 2956,
      "ely": 2957,
      "vert": 2958,
      "▁err": 2959,
      "gre": 2960,
      "▁uni": 2961,
      "ract": 2962,
      "earch": 2963,
      "PhysRev": 2964,
      "▁$D": 2965,
      "ah": 2966,
      "pages}{": 2967,
      "▁shows": 2968,
      "▁$\\lambda": 2969,
      "rid": 2970,
      "▁functions": 2971,
      "▁spin": 2972,
      "▁initial": 2973,
      "▁-\\": 2974,
      "▁mat": 2975,
      "$)": 2976,
      "▁($": 2977,
      "▁fra": 2978,
      "▁\\lambda": 2979,
      "als": 2980,
      "▁study": 2981,
      "▁\\E": 2982,
      "▁describe": 2983,
      "▁formu": 2984,
      "logical": 2985,
      "▁IEEE": 2986,
      "cor": 2987,
      "que": 2988,
      "_4": 2989,
      "elf": 2990,
      "197": 2991,
      "}).": 2992,
      "▁$s": 2993,
      "/2": 2994,
      "rit": 2995,
      "▁states": 2996,
      "▁\\href{": 2997,
      "▁\\eqref{eq:": 2998,
      "_{1}": 2999,
      "_1}": 3000,
      "ness": 3001,
      "2012": 3002,
      "66": 3003,
      ".~J": 3004,
      "▁Compu": 3005,
      "▁expec": 3006,
      "ission": 3007,
      "▁interaction": 3008,
      "verse": 3009,
      "rent": 3010,
      "riv": 3011,
      "on,": 3012,
      "oll": 3013,
      "▁$\\sigma": 3014,
      "▁maxim": 3015,
      "\\\"": 3016,
      "▁contain": 3017,
      "▁rate": 3018,
      "▁operator": 3019,
      "_r": 3020,
      "▁very": 3021,
      "bibli": 3022,
      "pre": 3023,
      "▁Section": 3024,
      "ey": 3025,
      "1pt": 3026,
      "▁now": 3027,
      "▁$\\mu": 3028,
      "▁\\sigma": 3029,
      "bibliography": 3030,
      "tivity": 3031,
      "▁gala": 3032,
      "▁temperature": 3033,
      "▁{E": 3034,
      "o},": 3035,
      "mages": 3036,
      "▁clu": 3037,
      "dx": 3038,
      "▁parameters": 3039,
      "▁{title": 3040,
      "▁$\\b": 3041,
      "▁S.": 3042,
      "}=\\": 3043,
      "(t)": 3044,
      "▁\\delta": 3045,
      "]$": 3046,
      "{G": 3047,
      "▁comm": 3048,
      "▁probability": 3049,
      "▁\\f": 3050,
      "cted": 3051,
      "udi": 3052,
      "▁properties": 3053,
      "}{2": 3054,
      "}$.\n": 3055,
      "^1": 3056,
      "▁\\nonumber": 3057,
      "▁plan": 3058,
      "▁15": 3059,
      "volution": 3060,
      "▁conn": 3061,
      "|^2": 3062,
      "▁et~al": 3063,
      "ribu": 3064,
      "eg": 3065,
      "▁strong": 3066,
      "▁>": 3067,
      "▁\\[\n": 3068,
      "imensional": 3069,
      "_{m": 3070,
      "▁go": 3071,
      "las": 3072,
      "▁tak": 3073,
      "let": 3074,
      "▁\\bibinfo{pages}{": 3075,
      "▁addition": 3076,
      "▁constra": 3077,
      "43": 3078,
      "▁points": 3079,
      "▁fa": 3080,
      "▁main": 3081,
      "▁ge": 3082,
      "▁\\a": 3083,
      "▁factor": 3084,
      "linear": 3085,
      "thebibliography": 3086,
      "}}.\n": 3087,
      "\\left(": 3088,
      "000": 3089,
      "▁Note": 3090,
      "▁associ": 3091,
      "amily": 3092,
      "dis": 3093,
      "▁Math": 3094,
      "iew": 3095,
      "2009": 3096,
      "_{x": 3097,
      "oldsymbol": 3098,
      "ternational": 3099,
      "▁possible": 3100,
      "skip": 3101,
      "85": 3102,
      "z,": 3103,
      "andard": 3104,
      "t)": 3105,
      "▁present": 3106,
      "(k": 3107,
      "}).\n": 3108,
      "_{ij": 3109,
      "df": 3110,
      "ied": 3111,
      "_i$": 3112,
      "▁mom": 3113,
      "49": 3114,
      "▁found": 3115,
      "40": 3116,
      "\\cdot": 3117,
      "▁level": 3118,
      "▁\\text{": 3119,
      "ob": 3120,
      "xp": 3121,
      "eqref{": 3122,
      "▁\\mathbb{": 3123,
      "1103/": 3124,
      "edu": 3125,
      "▁)": 3126,
      "▁$z": 3127,
      "▁Therefore": 3128,
      "▁mean": 3129,
      "▁contribu": 3130,
      "CM": 3131,
      "qrt": 3132,
      "hat{\\": 3133,
      "(\\ref{": 3134,
      "ven": 3135,
      "▁Sch": 3136,
      "relax": 3137,
      "▁image": 3138,
      "▁allow": 3139,
      "ariant": 3140,
      "}\\,": 3141,
      "\\big": 3142,
      "▁define": 3143,
      "▁\\href": 3144,
      "▁\\|": 3145,
      "mathfrak": 3146,
      "▁is\n": 3147,
      "lack": 3148,
      "▁pages": 3149,
      "{\\rm": 3150,
      "lish": 3151,
      "ST": 3152,
      "(x,": 3153,
      "n}": 3154,
      "▁\\mu": 3155,
      "▁assume": 3156,
      "gram": 3157,
      ".~G": 3158,
      "▁$q": 3159,
      ".~H": 3160,
      "▁indic": 3161,
      "▁University": 3162,
      "▁observed": 3163,
      "▁because": 3164,
      "▁back": 3165,
      "▁$\\gamma": 3166,
      "ese": 3167,
      ".}\n": 3168,
      "apj": 3169,
      "mag": 3170,
      "^{2}": 3171,
      "arg": 3172,
      "path": 3173,
      "▁power": 3174,
      "▁\\rho": 3175,
      "cC": 3176,
      "ass": 3177,
      "▁size": 3178,
      "ence,": 3179,
      "II": 3180,
      "}(x": 3181,
      "ets": 3182,
      "stru": 3183,
      "▁phys": 3184,
      "i\\": 3185,
      ".~P": 3186,
      "▁conver": 3187,
      "87": 3188,
      "arch": 3189,
      "▁\\geq": 3190,
      "ward": 3191,
      "▁exists": 3192,
      "eV": 3193,
      "▁equival": 3194,
      "30": 3195,
      "86": 3196,
      "atter": 3197,
      "aris": 3198,
      "2021": 3199,
      "ditions": 3200,
      "▁al.": 3201,
      "dag": 3202,
      "n,": 3203,
      "▁ent": 3204,
      "▁normal": 3205,
      "emph": 3206,
      "▁More": 3207,
      "ler": 3208,
      "_0$": 3209,
      "_a": 3210,
      "▁{title}": 3211,
      "onal": 3212,
      ")^2": 3213,
      "▁\\le": 3214,
      "ain": 3215,
      "▁frame": 3216,
      ",\\l": 3217,
      "▁\\phi": 3218,
      "▁total": 3219,
      "▁respectively": 3220,
      "})}\\BibitemShut": 3221,
      "▁$\\Delta": 3222,
      "▁applic": 3223,
      "▁phot": 3224,
      "1103/PhysRev": 3225,
      "angu": 3226,
      "▁type": 3227,
      "{F": 3228,
      "▁sem": 3229,
      "i.": 3230,
      "_d": 3231,
      "▁zero": 3232,
      "olumn": 3233,
      "ption": 3234,
      "▁part": 3235,
      "▁\\pi": 3236,
      "url{": 3237,
      "▁action": 3238,
      "▁quanti": 3239,
      "neq": 3240,
      "▁even": 3241,
      "fication": 3242,
      "ture": 3243,
      "▁by\n": 3244,
      "▁dete": 3245,
      "▁li": 3246,
      "▁\\begin{align}\n": 3247,
      "▁boundary": 3248,
      "hep-": 3249,
      "▁positive": 3250,
      ".2": 3251,
      "▁provid": 3252,
      "▁10.": 3253,
      "ays": 3254,
      ".~K": 3255,
      "_{L": 3256,
      "▁Su": 3257,
      "c|": 3258,
      "▁\\put(": 3259,
      "k,": 3260,
      "▁(\\bibinfo{": 3261,
      "valu": 3262,
      "^4": 3263,
      "tein": 3264,
      "unct": 3265,
      "ultic": 3266,
      "ed,": 3267,
      "▁Zh": 3268,
      "ket": 3269,
      "(2": 3270,
      "prop": 3271,
      "1}{\\": 3272,
      "▁simple": 3273,
      "▁test": 3274,
      "▁{V": 3275,
      "▁Tran": 3276,
      "2008": 3277,
      "ymp": 3278,
      "(r": 3279,
      "arXiv:": 3280,
      "▁propos": 3281,
      "▁(199": 3282,
      "berg": 3283,
      "k}": 3284,
      "▁\\Big": 3285,
      "(a": 3286,
      "2000": 3287,
      "}{{\\": 3288,
      "▁magnetic": 3289,
      "▁Fig.~\\ref{": 3290,
      "ron": 3291,
      "].\n": 3292,
      "volume}{": 3293,
      "▁$U": 3294,
      "bal": 3295,
      ".~D": 3296,
      "▁stra": 3297,
      "https://doi.org/10.": 3298,
      "▁aver": 3299,
      "▁conditions": 3300,
      "ators": 3301,
      "atural": 3302,
      "SS": 3303,
      "▁\\gamma": 3304,
      "own": 3305,
      "-$": 3306,
      "▁thus": 3307,
      ",''": 3308,
      "77": 3309,
      ")$.\n": 3310,
      "▁should": 3311,
      "▁au": 3312,
      "sequ": 3313,
      "-M": 3314,
      "▁to\n": 3315,
      "▁about": 3316,
      "▁import": 3317,
      "havi": 3318,
      "_f": 3319,
      ".~R": 3320,
      "indent": 3321,
      ".~W": 3322,
      "{K": 3323,
      "▁long": 3324,
      "▁\\citenamefont\n": 3325,
      "{\\\"": 3326,
      "▁a\n": 3327,
      "ared": 3328,
      "▁indu": 3329,
      "omial": 3330,
      "appro": 3331,
      "=0.": 3332,
      "0}": 3333,
      "cle": 3334,
      "inci": 3335,
      "▁$\\rho": 3336,
      "▁$h": 3337,
      "cer": 3338,
      "ift": 3339,
      "▁\\beta": 3340,
      "▁denote": 3341,
      "▁lower": 3342,
      "ensor": 3343,
      "how": 3344,
      "▁\\&\n": 3345,
      "▁Res": 3346,
      "mer": 3347,
      "_b": 3348,
      "▁frequ": 3349,
      "▁fixed": 3350,
      "$,\n": 3351,
      "▁\\bibinfo{journal": 3352,
      "vec{": 3353,
      "▁deta": 3354,
      "under": 3355,
      "▁equations": 3356,
      "▁element": 3357,
      "d\\": 3358,
      "▁abs": 3359,
      "▁hand": 3360,
      "lied": 3361,
      "▁coe": 3362,
      "▁16": 3363,
      "▁Ass": 3364,
      "rule{": 3365,
      "_N": 3366,
      "inter": 3367,
      "exp": 3368,
      "^k": 3369,
      "ootnote": 3370,
      "▁Journal": 3371,
      "star": 3372,
      "▁effect": 3373,
      "▁vel": 3374,
      "▁higher": 3375,
      "=1": 3376,
      "uk": 3377,
      "10.10": 3378,
      "▁am": 3379,
      "amil": 3380,
      "▁surface": 3381,
      "▁electron": 3382,
      "▁$2": 3383,
      "▁standard": 3384,
      "▁previous": 3385,
      "▁These": 3386,
      "oint": 3387,
      "box": 3388,
      "ulticolumn": 3389,
      "▁No": 3390,
      "▁implies": 3391,
      "-C": 3392,
      "2007": 3393,
      "▁exist": 3394,
      "annel": 3395,
      "▁direct": 3396,
      "ww": 3397,
      "▁$\\phi": 3398,
      "(p": 3399,
      "tically": 3400,
      "{N": 3401,
      "▁\\ee": 3402,
      "▁(\\bibinfo{year}{": 3403,
      "▁R.": 3404,
      "ulticolumn{": 3405,
      "theorem": 3406,
      "▁International": 3407,
      "▁control": 3408,
      "uring": 3409,
      "▁\\mn": 3410,
      ".00": 3411,
      "attern": 3412,
      "bf{\\": 3413,
      "-3": 3414,
      "▁tech": 3415,
      "▁no.~": 3416,
      "u}": 3417,
      "AC": 3418,
      ":\\": 3419,
      "sive": 3420,
      "▁deg": 3421,
      "'$": 3422,
      "▁sequence": 3423,
      "57": 3424,
      "▁within": 3425,
      "az": 3426,
      "▁theorem": 3427,
      "▁includ": 3428,
      "\\geq": 3429,
      "▁end": 3430,
      "ier": 3431,
      "▁evalu": 3432,
      "t}": 3433,
      "lection": 3434,
      "ane": 3435,
      "▁error": 3436,
      "▁Re": 3437,
      "▁many": 3438,
      "▁signific": 3439,
      "odes": 3440,
      "_l": 3441,
      "war": 3442,
      "ordin": 3443,
      "▁get": 3444,
      "http://arxiv.org/abs/": 3445,
      "▁eig": 3446,
      "▁range": 3447,
      "4)": 3448,
      "rr": 3449,
      "uting": 3450,
      "ris": 3451,
      "ino": 3452,
      "_A": 3453,
      "}}{\\": 3454,
      "-based": 3455,
      "56": 3456,
      "}.\r\n": 3457,
      "▁vol.~": 3458,
      "▁via": 3459,
      "(y": 3460,
      "▁orig": 3461,
      "▁systems": 3462,
      "_{\\alpha": 3463,
      "▁numer": 3464,
      "▁independent": 3465,
      "tate": 3466,
      "▁mon": 3467,
      "▁associated": 3468,
      "xt": 3469,
      "ibase": 3470,
      "doibase": 3471,
      "(1)": 3472,
      "cing": 3473,
      "▁$\\beta": 3474,
      "▁behavi": 3475,
      "▁cross": 3476,
      "▁Ad": 3477,
      "▁&&": 3478,
      "2006": 3479,
      "▁analy": 3480,
      "▁$\\c": 3481,
      "▁flow": 3482,
      "▁could": 3483,
      "▁Li": 3484,
      "\\pi": 3485,
      "▁wave": 3486,
      "phys": 3487,
      "y},": 3488,
      "anguage": 3489,
      "ili": 3490,
      "▁respect": 3491,
      "umerate": 3492,
      "▁\\noindent": 3493,
      "▁neu": 3494,
      "^0": 3495,
      "▁length": 3496,
      "com": 3497,
      "▁\\caption": 3498,
      "sian": 3499,
      "▁$\\delta": 3500,
      "▁here": 3501,
      "▁performance": 3502,
      "▁\\author": 3503,
      "▁simula": 3504,
      "▁Rec": 3505,
      "▁studi": 3506,
      "^{-\\": 3507,
      "yle": 3508,
      "▁typ": 3509,
      "}\\\\\n": 3510,
      "ange": 3511,
      "▁optim": 3512,
      "▁\\theta": 3513,
      "▁dataset": 3514,
      "tor": 3515,
      "▁sep": 3516,
      "esti": 3517,
      "▁\\bibnamefont\n": 3518,
      "enumerate": 3519,
      "▁solutions": 3520,
      "▁$b": 3521,
      "a}\n": 3522,
      "▁0$": 3523,
      "},\r\n": 3524,
      "mid": 3525,
      "▁$\\tau": 3526,
      "uto": 3527,
      "langle": 3528,
      "xy": 3529,
      "(A": 3530,
      "val": 3531,
      "_{\\mu": 3532,
      "50": 3533,
      "▁moment": 3534,
      "ij": 3535,
      "▁coupl": 3536,
      "▁\\Delta": 3537,
      "▁Here": 3538,
      "qrt{\\": 3539,
      "▁way": 3540,
      "▁exact": 3541,
      "textbf{": 3542,
      "▁lay": 3543,
      "▁{\\doibase": 3544,
      ",\\ldots,": 3545,
      "#1": 3546,
      "AP": 3547,
      "ocity": 3548,
      "ime": 3549,
      "velop": 3550,
      "ral": 3551,
      "pJ": 3552,
      "▁classi": 3553,
      "▁occ": 3554,
      "(u": 3555,
      ",\r\n": 3556,
      "▁deno": 3557,
      "ified": 3558,
      "\\,\\": 3559,
      "▁domain": 3560,
      "_h": 3561,
      "raw": 3562,
      "ount": 3563,
      "▁\\end{proof}\n": 3564,
      "\\}$": 3565,
      "▁cir": 3566,
      "▁become": 3567,
      "IEEE": 3568,
      "}_\\": 3569,
      "▁M.,": 3570,
      "olume": 3571,
      "▁formula": 3572,
      "▁\\partial": 3573,
      "▁methods": 3574,
      "▁geome": 3575,
      "9.\n": 3576,
      "itude": 3577,
      "ott": 3578,
      "=0$": 3579,
      "approx": 3580,
      "-dimensional": 3581,
      "▁\\multicolumn{": 3582,
      "lying": 3583,
      "▁those": 3584,
      "CC": 3585,
      "NR": 3586,
      "▁relation": 3587,
      "{E": 3588,
      "▁must": 3589,
      "▁\\apj": 3590,
      "mooth": 3591,
      "}}\r\n": 3592,
      "▁proposed": 3593,
      "▁\\citet{": 3594,
      "itemize": 3595,
      "▁\\R": 3596,
      "order": 3597,
      "▁\\end{eqnarray}\n": 3598,
      "▁\\\\\r\n": 3599,
      "▁right": 3600,
      "mption": 3601,
      "d,": 3602,
      "▁$Q": 3603,
      "-p": 3604,
      "eps": 3605,
      "_{p": 3606,
      "titu": 3607,
      "▁spectrum": 3608,
      "68": 3609,
      "mate": 3610,
      "▁{author": 3611,
      "▁$j": 3612,
      "s,\n": 3613,
      "▁weak": 3614,
      "▁component": 3615,
      "▁estimate": 3616,
      "▁{O": 3617,
      "5)": 3618,
      "▁Ne": 3619,
      "▁further": 3620,
      "ected": 3621,
      "▁product": 3622,
      "▁$y": 3623,
      "▁\\begin{align*}\n": 3624,
      "▁\\rangle": 3625,
      "▁Ro": 3626,
      "edge": 3627,
      "▁D.": 3628,
      "{}": 3629,
      "stract": 3630,
      "e.,": 3631,
      "▁representation": 3632,
      "size": 3633,
      "▁prove": 3634,
      "sch": 3635,
      "▁current": 3636,
      "▁direction": 3637,
      "▁remain": 3638,
      "inger": 3639,
      "alle": 3640,
      "▁along": 3641,
      "▁C.": 3642,
      "cheme": 3643,
      "clusion": 3644,
      "▁Me": 3645,
      "▁\\end{align*}\n": 3646,
      "ynomial": 3647,
      "▁hom": 3648,
      "▁$I": 3649,
      "▁\\def": 3650,
      "{J": 3651,
      "odel": 3652,
      "▁significant": 3653,
      "▁input": 3654,
      "▁\\show": 3655,
      "▁extend": 3656,
      "x}": 3657,
      "▁appear": 3658,
      "▁\\mathbf{": 3659,
      "▁17": 3660,
      "▁for\n": 3661,
      "▁av": 3662,
      "<$": 3663,
      "▁\\omega": 3664,
      "▁vis": 3665,
      "▁fit": 3666,
      "-L": 3667,
      "2011": 3668,
      "▁integra": 3669,
      "▁14": 3670,
      "ule": 3671,
      "licit": 3672,
      "ski": 3673,
      "ful": 3674,
      "(s": 3675,
      "style": 3676,
      "-P": 3677,
      "8.\n": 3678,
      "▁path": 3679,
      "▁distance": 3680,
      "rightarrow": 3681,
      "l.": 3682,
      "▁separ": 3683,
      "▁definition": 3684,
      "▁A.,": 3685,
      "▁evolution": 3686,
      "▁below": 3687,
      "▁impro": 3688,
      "Theta": 3689,
      "▁19": 3690,
      "2022": 3691,
      "▁cy": 3692,
      "▁how": 3693,
      "cs": 3694,
      "Ch": 3695,
      "32": 3696,
      "89": 3697,
      "teq": 3698,
      "▁Sh": 3699,
      "center": 3700,
      "pper": 3701,
      "▁important": 3702,
      "▁$|": 3703,
      "▁rati": 3704,
      "\\nu": 3705,
      "cale": 3706,
      "▁cent": 3707,
      "▁sen": 3708,
      "}\\left(": 3709,
      "▁\\S": 3710,
      "▁\\citep{": 3711,
      "▁add": 3712,
      "▁\\psi": 3713,
      "group": 3714,
      "bar{\\": 3715,
      "400": 3716,
      "▁unit": 3717,
      "d}": 3718,
      "tack": 3719,
      "▁$W": 3720,
      "auge": 3721,
      "▁after": 3722,
      "▁as\n": 3723,
      "▁$w": 3724,
      "gence": 3725,
      "array}{": 3726,
      "▁without": 3727,
      "▁\\r": 3728,
      "bit": 3729,
      "▁velocity": 3730,
      "sci": 3731,
      "▁\\tau": 3732,
      "▁tri": 3733,
      "▁|\\": 3734,
      "▁\\B": 3735,
      "_+": 3736,
      "▁ide": 3737,
      "lobal": 3738,
      "▁training": 3739,
      "temp": 3740,
      "$.\r\n": 3741,
      "▁\\ref{fig:": 3742,
      "▁inequ": 3743,
      "▁period": 3744,
      "ither": 3745,
      "ng": 3746,
      "▁gives": 3747,
      "▁act": 3748,
      "/}": 3749,
      "sto": 3750,
      "_*": 3751,
      "▁Our": 3752,
      "orted": 3753,
      "▁Mathe": 3754,
      "}|": 3755,
      "view": 3756,
      "▁step": 3757,
      "▁inst": 3758,
      "_{s": 3759,
      "▁P.": 3760,
      "net": 3761,
      "▁{Y": 3762,
      "^\\infty": 3763,
      "olution": 3764,
      "▁described": 3765,
      "▁Therefore,": 3766,
      "ost": 3767,
      "split": 3768,
      "▁particle": 3769,
      "CD": 3770,
      "_{i=1}": 3771,
      "elli": 3772,
      "▁transition": 3773,
      "{W": 3774,
      "▁left": 3775,
      "1]{": 3776,
      "▁loss": 3777,
      "footnote": 3778,
      "▁source": 3779,
      "▁ref": 3780,
      "}+": 3781,
      "(\\b": 3782,
      "▁\\;": 3783,
      "lot": 3784,
      "fied": 3785,
      "_L": 3786,
      "▁hyper": 3787,
      "69": 3788,
      "]{\\": 3789,
      "cript": 3790,
      "▁eigen": 3791,
      "play": 3792,
      "(v": 3793,
      "lev": 3794,
      "asing": 3795,
      "▁Math.": 3796,
      "Pi": 3797,
      "lim": 3798,
      "lass": 3799,
      "▁larger": 3800,
      "2\\pi": 3801,
      "_T": 3802,
      "ving": 3803,
      "▁{Phys": 3804,
      "▁satisfy": 3805,
      "raction": 3806,
      "▁integr": 3807,
      "▁$\\theta": 3808,
      "▁lead": 3809,
      "▁four": 3810,
      "64": 3811,
      "▁Qu": 3812,
      "▁arg": 3813,
      "▁natural": 3814,
      "}{2}": 3815,
      "▁yield": 3816,
      "~$": 3817,
      "SA": 3818,
      "dagger": 3819,
      "▁cluster": 3820,
      "\\relax": 3821,
      "article": 3822,
      "osition": 3823,
      "▁scale": 3824,
      "HE": 3825,
      "▁expression": 3826,
      "▁coordin": 3827,
      "3.": 3828,
      "▁Table": 3829,
      "▁metric": 3830,
      "▁\\bibinfo{year}{": 3831,
      "NN": 3832,
      "202": 3833,
      "c.": 3834,
      "▁tur": 3835,
      "▁complete": 3836,
      "▁equal": 3837,
      "lace": 3838,
      "▁$\\pi": 3839,
      "osi": 3840,
      "▁near": 3841,
      "▁polynomial": 3842,
      ".~F": 3843,
      "▁\\cite[": 3844,
      "▁Thus,": 3845,
      "▁&\n": 3846,
      "2b": 3847,
      "▁channel": 3848,
      "▁($\\": 3849,
      "▁&=&": 3850,
      "\\left(\\": 3851,
      "subs": 3852,
      "iform": 3853,
      "\\alpha": 3854,
      "▁equivalent": 3855,
      "▁\\rightarrow": 3856,
      "*}\r\n": 3857,
      "▁light": 3858,
      "}:": 3859,
      "▁weight": 3860,
      "-B": 3861,
      "▁known": 3862,
      "▁them": 3863,
      "▁therefore": 3864,
      "{\\rule{": 3865,
      "▁$\\Gamma": 3866,
      "58": 3867,
      "▁objec": 3868,
      "ath": 3869,
      "▁note": 3870,
      "3}\n": 3871,
      "amilton": 3872,
      "ants": 3873,
      "▁free": 3874,
      "▁\\ma": 3875,
      "FF": 3876,
      "▁198": 3877,
      "▁effective": 3878,
      "▁volume": 3879,
      "▁consist": 3880,
      "ually": 3881,
      "ages": 3882,
      "▁mechan": 3883,
      "bert": 3884,
      "▁topo": 3885,
      "▁$\\mathbf{": 3886,
      "earning": 3887,
      "2}{": 3888,
      "▁De": 3889,
      "s:": 3890,
      "-H": 3891,
      "59": 3892,
      "▁$e": 3893,
      "▁2020": 3894,
      "▁\\bibinfo{journal}{": 3895,
      "▁Un": 3896,
      "_B": 3897,
      "wor": 3898,
      "▁average": 3899,
      "▁Moreover": 3900,
      "▁effici": 3901,
      "▁18": 3902,
      "▁$\\{": 3903,
      "ground": 3904,
      "king": 3905,
      "▁Ar": 3906,
      "▁flux": 3907,
      "ology": 3908,
      "minus": 3909,
      "seteq": 3910,
      "y}": 3911,
      "^i": 3912,
      "alty": 3913,
      "▁band": 3914,
      "▁task": 3915,
      "▁St": 3916,
      "omorphism": 3917,
      "_q": 3918,
      "PR": 3919,
      "begin{": 3920,
      "olo": 3921,
      "▁\\bibitem[\\protect\\citeauthoryear{{": 3922,
      "2$": 3923,
      "▁Le": 3924,
      ")}\\": 3925,
      "▁considered": 3926,
      "▁ag": 3927,
      "ised": 3928,
      "▁\\left(\\": 3929,
      "_R": 3930,
      "^{+": 3931,
      "ivid": 3932,
      "▁least": 3933,
      "1},": 3934,
      "▁emission": 3935,
      "▁\\bibinfo\n": 3936,
      "g,": 3937,
      "af": 3938,
      "▁\\end{array": 3939,
      "ation,": 3940,
      "▁galaxi": 3941,
      "^2$": 3942,
      "(T": 3943,
      "1-\\": 3944,
      "mann": 3945,
      "▁scheme": 3946,
      "▁detection": 3947,
      "comp": 3948,
      "p}": 3949,
      "gative": 3950,
      "▁approximation": 3951,
      "▁$0.": 3952,
      "▁Now": 3953,
      "^-": 3954,
      "igure": 3955,
      "▁conf": 3956,
      "1999": 3957,
      "is,": 3958,
      "ances": 3959,
      "▁From": 3960,
      "▁family": 3961,
      "▁edge": 3962,
      "ording": 3963,
      "▁\\pm": 3964,
      "+1)": 3965,
      "7.\n": 3966,
      "\\left": 3967,
      "^{1/": 3968,
      "-in": 3969,
      "^2}": 3970,
      "▁emp": 3971,
      "1--": 3972,
      "cept": 3973,
      "reat": 3974,
      "title}{": 3975,
      "▁\\begin{eqnarray}\n": 3976,
      "abstract": 3977,
      "▁System": 3978,
      "▁develop": 3979,
      "(0,": 3980,
      "▁pe": 3981,
      "▁Sim": 3982,
      "oplus": 3983,
      "ite": 3984,
      "▁$$\\": 3985,
      "omin": 3986,
      "▁neural": 3987,
      "}$\n": 3988,
      "_{r": 3989,
      "▁At": 3990,
      "▁\\exp": 3991,
      ".edu": 3992,
      "▁$[": 3993,
      "ks": 3994,
      "2005": 3995,
      "▁\\langle": 3996,
      "imits": 3997,
      "_{l": 3998,
      "imp": 3999,
      "ledge": 4000,
      "&=": 4001,
      "lect": 4002,
      "▁\\qquad": 4003,
      "itz": 4004,
      "x,": 4005,
      "▁being": 4006,
      "gen": 4007,
      "▁statis": 4008,
      "\\h": 4009,
      "fies": 4010,
      "▁{}": 4011,
      "a)": 4012,
      "AR": 4013,
      "ubseteq": 4014,
      "vard": 4015,
      "-R": 4016,
      "pher": 4017,
      "▁{\\rm": 4018,
      "▁Using": 4019,
      "▁regular": 4020,
      "ire": 4021,
      "PS": 4022,
      "▁\\nu": 4023,
      "(G": 4024,
      "itemize}\n": 4025,
      "▁Trans": 4026,
      "▁signal": 4027,
      "wh": 4028,
      "▁smooth": 4029,
      "zz": 4030,
      "color": 4031,
      "▁generated": 4032,
      ",j": 4033,
      "▁ampl": 4034,
      "\\}": 4035,
      "▁clear": 4036,
      "tices": 4037,
      "▁pri": 4038,
      ")\\right": 4039,
      ".~T": 4040,
      "_S": 4041,
      "ao": 4042,
      "A.": 4043,
      "▁symmetry": 4044,
      "▁tru": 4045,
      "}})": 4046,
      "cC<$": 4047,
      "▁have\n": 4048,
      "mentation": 4049,
      "ug": 4050,
      "stric": 4051,
      "gain": 4052,
      "(f": 4053,
      "▁\\eta": 4054,
      "▁Gra": 4055,
      "book": 4056,
      "m}": 4057,
      "bedd": 4058,
      "▁H.": 4059,
      "endix": 4060,
      "wise": 4061,
      "6.\n": 4062,
      "AM": 4063,
      "_{2}": 4064,
      "tics": 4065,
      "^2\\": 4066,
      "▁\\bibitem{B": 4067,
      "▁$J": 4068,
      "unic": 4069,
      "▁pertur": 4070,
      "▁fil": 4071,
      "▁achi": 4072,
      "-h": 4073,
      "path{": 4074,
      "▁(S": 4075,
      "▁So": 4076,
      "▁prec": 4077,
      "aila": 4078,
      "▁et~al.}{": 4079,
      "kov": 4080,
      "pping": 4081,
      "▁\\textbf{\\": 4082,
      "▁gauge": 4083,
      "oid": 4084,
      "back": 4085,
      "▁van": 4086,
      "2},": 4087,
      "thm:": 4088,
      "-k": 4089,
      "▁{author}\n": 4090,
      "▁related": 4091,
      "fill": 4092,
      "▁continuous": 4093,
      "▁\\infty": 4094,
      "▁\\begin{proof}\n": 4095,
      "▁optimal": 4096,
      "-4": 4097,
      "▁contra": 4098,
      "▁scatter": 4099,
      "ali": 4100,
      "<\\": 4101,
      "cial": 4102,
      "▁open": 4103,
      "vide": 4104,
      "erve": 4105,
      "▁Computer": 4106,
      "▁+\\": 4107,
      "till": 4108,
      "▁J.,": 4109,
      "▁{I": 4110,
      "▁images": 4111,
      "▁design": 4112,
      "▁effects": 4113,
      "}$,\n": 4114,
      "tt{": 4115,
      "penalty": 4116,
      "ild": 4117,
      "▁\\end{equation}\r\n": 4118,
      "▁Proposition": 4119,
      "nonumber": 4120,
      "▁\\@": 4121,
      "mn": 4122,
      "▁expected": 4123,
      "▁\\providecommand{\\": 4124,
      "▁cases": 4125,
      "por": 4126,
      "▁case,": 4127,
      "▁\\url{": 4128,
      "bor": 4129,
      "▁$\\omega": 4130,
      "thes": 4131,
      "▁much": 4132,
      "▁bounded": 4133,
      "▁bin": 4134,
      "▁spectral": 4135,
      "rite": 4136,
      "▁holds": 4137,
      "▁$Z": 4138,
      "J.": 4139,
      "▁13": 4140,
      "▁\\wide": 4141,
      "▁elements": 4142,
      "80": 4143,
      "wedge": 4144,
      "▁Sta": 4145,
      "figura": 4146,
      "mic": 4147,
      "▁discre": 4148,
      "ason": 4149,
      "▁0.5": 4150,
      "}{\n": 4151,
      "penalty0": 4152,
      "▁final": 4153,
      "▁Physics": 4154,
      "▁with\n": 4155,
      "overline{\\": 4156,
      "stro": 4157,
      "▁sever": 4158,
      "erg": 4159,
      "dx.": 4160,
      "▁\\begin{eqnarray": 4161,
      "ama": 4162,
      "▁coun": 4163,
      "]\\": 4164,
      "▁refer": 4165,
      "▁Final": 4166,
      "▁dynamics": 4167,
      "-t": 4168,
      "79": 4169,
      "ii": 4170,
      "▁detail": 4171,
      "amiltonian": 4172,
      ")\\,": 4173,
      "AA": 4174,
      "tab:": 4175,
      "▁difference": 4176,
      "▁G.": 4177,
      "_g": 4178,
      "more": 4179,
      "ogni": 4180,
      "ady": 4181,
      "overline{": 4182,
      "▁atom": 4183,
      "▁matter": 4184,
      "Vert": 4185,
      "_\\alpha": 4186,
      "▁hal": 4187,
      "}{{\\tt": 4188,
      "▁Lett.": 4189,
      "ching": 4190,
      "usion": 4191,
      "▁times": 4192,
      "c}": 4193,
      "bul": 4194,
      "▁coupling": 4195,
      "▁take": 4196,
      "\\rightarrow": 4197,
      "▁change": 4198,
      "▁numerical": 4199,
      "▁lines": 4200,
      "63": 4201,
      "_e": 4202,
      "▁{et~al": 4203,
      "tative": 4204,
      "bm": 4205,
      "▁Ex": 4206,
      "▁lattice": 4207,
      "her": 4208,
      "(M": 4209,
      "▁\\C": 4210,
      "ympto": 4211,
      "-G": 4212,
      "▁$0": 4213,
      "▁Moreover,": 4214,
      "$\\pm$": 4215,
      "▁particular,": 4216,
      "_v": 4217,
      "izing": 4218,
      "chas": 4219,
      "_2,": 4220,
      "page": 4221,
      "▁Lett": 4222,
      "▁Further": 4223,
      "^{\\prime": 4224,
      "\\pm": 4225,
      "cap": 4226,
      "▁cate": 4227,
      "▁aff": 4228,
      "▁\\Omega": 4229,
      "_1,\\": 4230,
      "▁either": 4231,
      "reak": 4232,
      "enumerate}\n": 4233,
      "▁$G$": 4234,
      "formed": 4235,
      "}\\big": 4236,
      "▁called": 4237,
      "▁\\newblock\n": 4238,
      ")}{": 4239,
      "▁tr": 4240,
      "▁that,": 4241,
      "▁gas": 4242,
      "▁Sec": 4243,
      "-D": 4244,
      "IC": 4245,
      "emp": 4246,
      "54": 4247,
      "▁degree": 4248,
      "▁\\label{sec:": 4249,
      "▁simp": 4250,
      "duct": 4251,
      "-m": 4252,
      "▁log": 4253,
      "other": 4254,
      "▁techni": 4255,
      "▁multiple": 4256,
      "▁S.,": 4257,
      "ansion": 4258,
      "▁operators": 4259,
      "▁car": 4260,
      "▁New": 4261,
      "(0": 4262,
      "http://dx.": 4263,
      "▁occur": 4264,
      "▁\\xi": 4265,
      "▁provide": 4266,
      "▁nuc": 4267,
      "JcC<$": 4268,
      "equiv": 4269,
      "▁relations": 4270,
      "▁Supp": 4271,
      "en},": 4272,
      "IB": 4273,
      "onds": 4274,
      "ailable": 4275,
      "mit": 4276,
      "▁fields": 4277,
      "▁dia": 4278,
      "▁\\t": 4279,
      ".g": 4280,
      "+2": 4281,
      "^{k": 4282,
      "b)": 4283,
      "ritical": 4284,
      "▁full": 4285,
      "ns": 4286,
      "▁(\\ref{eq:": 4287,
      "off": 4288,
      "/abs/": 4289,
      "▁manif": 4290,
      "arison": 4291,
      "▁expon": 4292,
      "▁Learning": 4293,
      "▁$\\eta": 4294,
      "oper": 4295,
      "side": 4296,
      "▁give": 4297,
      "▁En": 4298,
      "ras": 4299,
      ">0": 4300,
      "▁uncer": 4301,
      "▁basis": 4302,
      "^{\\rm": 4303,
      "▁12": 4304,
      "s.\r\n": 4305,
      "▁self": 4306,
      "^T": 4307,
      "ognition": 4308,
      "▁investi": 4309,
      "llar": 4310,
      "5}": 4311,
      "ollary": 4312,
      "▁frequency": 4313,
      "▁$Y": 4314,
      "78": 4315,
      "ration": 4316,
      "60": 4317,
      "cos": 4318,
      "gges": 4319,
      "_{\\mathrm{": 4320,
      "$^{": 4321,
      "ecess": 4322,
      "▁scalar": 4323,
      "^m": 4324,
      "▁compact": 4325,
      "▁With": 4326,
      "▁like": 4327,
      "ability": 4328,
      "aj": 4329,
      "▁node": 4330,
      ",\\,": 4331,
      "▁\\multi": 4332,
      "▁recent": 4333,
      "eli": 4334,
      ")\\in": 4335,
      "enk": 4336,
      "▁$X$": 4337,
      "▁1,": 4338,
      "▁sugges": 4339,
      "(q": 4340,
      "▁Proceedings": 4341,
      "]\r\n": 4342,
      "_z": 4343,
      "r}": 4344,
      "a\n": 4345,
      "aussian": 4346,
      "={": 4347,
      "▁One": 4348,
      "2004": 4349,
      "_1)": 4350,
      "▁maximum": 4351,
      "▁.\n": 4352,
      "ani": 4353,
      ".~E": 4354,
      "▁experimental": 4355,
      "ety": 4356,
      "ument": 4357,
      "Con": 4358,
      "▁loc": 4359,
      "53": 4360,
      "▁means": 4361,
      "▁black": 4362,
      "▁satisfies": 4363,
      "eb": 4364,
      "noop": 4365,
      "▁1.": 4366,
      "arget": 4367,
      "▁behavior": 4368,
      "vari": 4369,
      "\\beta": 4370,
      "go": 4371,
      "▁example,": 4372,
      "▁ratio": 4373,
      "{\\natexlab{": 4374,
      "IS": 4375,
      "\\sum": 4376,
      "mathfrak{": 4377,
      "▁\\otimes": 4378,
      "})\\": 4379,
      "iron": 4380,
      "▁around": 4381,
      "<<": 4382,
      "allel": 4383,
      "mar": 4384,
      "▁val": 4385,
      "▁\\center": 4386,
      "▁integral": 4387,
      "_2)": 4388,
      "-ph": 4389,
      "▁author": 4390,
      "▁Science": 4391,
      ")]{": 4392,
      "▁\\epsilon": 4393,
      "▁$\\Omega": 4394,
      "bibinfo{volume}{": 4395,
      "▁spe": 4396,
      "(m": 4397,
      "!!!!!!!!!!!!!!!!": 4398,
      "s,''": 4399,
      "▁sufficient": 4400,
      "▁neutr": 4401,
      "▁deep": 4402,
      "90": 4403,
      "▁object": 4404,
      "-A": 4405,
      "▁additional": 4406,
      "underline": 4407,
      "▁setting": 4408,
      "$$\n": 4409,
      "▁restric": 4410,
      "')": 4411,
      "5.\n": 4412,
      "▁imple": 4413,
      "▁preprint": 4414,
      "vity": 4415,
      "▁classical": 4416,
      "▁$\\sim": 4417,
      "▁wor": 4418,
      "▁several": 4419,
      "▁and\r\n": 4420,
      "▁presented": 4421,
      "4.\n": 4422,
      "▁momentum": 4423,
      "▁last": 4424,
      "onom": 4425,
      "ca": 4426,
      "1.\n": 4427,
      "nm": 4428,
      "▁decay": 4429,
      "(\\alpha": 4430,
      "▁et~al.,": 4431,
      "4.": 4432,
      "_n$": 4433,
      "▁uniform": 4434,
      "▁\\end{equation*}\n": 4435,
      "▁less": 4436,
      "▁noise": 4437,
      "MS": 4438,
      "ify": 4439,
      "▁$\\pm$": 4440,
      "▁simulation": 4441,
      "▁\\begin{tabular": 4442,
      "\\sigma": 4443,
      "▁inequality": 4444,
      "\\mu": 4445,
      "▁configura": 4446,
      ")}{\\": 4447,
      "chastic": 4448,
      "▁squ": 4449,
      "(\\lambda": 4450,
      "▁embedd": 4451,
      "reg": 4452,
      "▁Col": 4453,
      "(2)": 4454,
      "▁still": 4455,
      "AT": 4456,
      "▁again": 4457,
      "▁Fig.": 4458,
      "▁decre": 4459,
      "eh": 4460,
      "labor": 4461,
      "▁view": 4462,
      "bitr": 4463,
      "ApJ": 4464,
      "_\\mu": 4465,
      "entations": 4466,
      "▁pattern": 4467,
      "mathbb{R": 4468,
      "▁pop": 4469,
      "▁When": 4470,
      "AL": 4471,
      "▁decomp": 4472,
      "jection": 4473,
      "trm{": 4474,
      "▁features": 4475,
      "▁hence": 4476,
      "gate": 4477,
      "ER": 4478,
      "-6": 4479,
      "\\theta": 4480,
      "~\\eqref{": 4481,
      "▁detect": 4482,
      "_X": 4483,
      "▁Fig.~\\ref{fig:": 4484,
      "▁compared": 4485,
      "▁property": 4486,
      "▁$1": 4487,
      "▁parti": 4488,
      "}{0.": 4489,
      "▁contains": 4490,
      "2.\n": 4491,
      "}(t": 4492,
      "light": 4493,
      "▁\\par": 4494,
      "▁$\\epsilon": 4495,
      "ogene": 4496,
      "▁T.": 4497,
      "1})": 4498,
      "▁applied": 4499,
      "▁\\Gamma": 4500,
      "',": 4501,
      "▁]": 4502,
      "▁galaxies": 4503,
      "^p": 4504,
      "▁multip": 4505,
      "vex": 4506,
      "▁run": 4507,
      "\\limits": 4508,
      "ffili": 4509,
      "stand": 4510,
      "▁\\sim": 4511,
      "ric": 4512,
      "▁position": 4513,
      "illi": 4514,
      "▁cos": 4515,
      "lem:": 4516,
      "ropy": 4517,
      "▁spatial": 4518,
      "@noop": 4519,
      "medi": 4520,
      "eff": 4521,
      "dient": 4522,
      "▁during": 4523,
      "▁Anal": 4524,
      "etal": 4525,
      "-T": 4526,
      "long": 4527,
      "ffiliation": 4528,
      "▁components": 4529,
      "▁Ins": 4530,
      "l,": 4531,
      "add": 4532,
      "gg": 4533,
      "▁\\apj,": 4534,
      "_0,": 4535,
      "_\\mathrm{": 4536,
      "▁\\end{tabular": 4537,
      "▁critical": 4538,
      "amp": 4539,
      "meq": 4540,
      "ernel": 4541,
      "▁measurement": 4542,
      "76": 4543,
      "▁Finally,": 4544,
      "▁L.": 4545,
      "▁Hamiltonian": 4546,
      "]}": 4547,
      "▁determined": 4548,
      "tead": 4549,
      "like": 4550,
      "▁$\\wide": 4551,
      "▁explicit": 4552,
      "▁Comm": 4553,
      "small": 4554,
      "▁\\vspace{": 4555,
      "▁1$": 4556,
      "most": 4557,
      "▁\\textbf{\\bibinfo{volume}{": 4558,
      "▁framework": 4559,
      "}{\\partial": 4560,
      "▁mode": 4561,
      "▁Spr": 4562,
      "}{\\emph": 4563,
      "matical": 4564,
      "▁seen": 4565,
      "http://dx.doi.org/10.": 4566,
      "split}\n": 4567,
      "▁sets": 4568,
      "}^\\": 4569,
      "e.g": 4570,
      "▁sto": 4571,
      "▁global": 4572,
      "▁polar": 4573,
      "DE": 4574,
      "▁\\begin{equation*}\n": 4575,
      "▁$\\nu": 4576,
      "▁arbitr": 4577,
      "▁\\ee\n": 4578,
      "@doi": 4579,
      "▁{et~al.}": 4580,
      "M.": 4581,
      "_F": 4582,
      "▁necess": 4583,
      "thebibliography}\n": 4584,
      "▁index": 4585,
      "simeq": 4586,
      "▁interes": 4587,
      "▁the\r\n": 4588,
      "▁block": 4589,
      "_y": 4590,
      "▁\\sqrt{": 4591,
      "ifx": 4592,
      "Re": 4593,
      "▁upper": 4594,
      "▁He": 4595,
      "▁closed": 4596,
      "han": 4597,
      "_M": 4598,
      "▁angle": 4599,
      "▁\\log": 4600,
      "▁motion": 4601,
      "boldsymbol": 4602,
      "^d": 4603,
      "▁{Z": 4604,
      "▁\\emph{Pro": 4605,
      "▁curve": 4606,
      "▁\\left[": 4607,
      "ault": 4608,
      "▁{Phys.": 4609,
      "LP": 4610,
      "▁syn": 4611,
      "{\n": 4612,
      "gl": 4613,
      "▁$\\s": 4614,
      "▁tensor": 4615,
      "urac": 4616,
      "ior": 4617,
      "iff": 4618,
      "▁whose": 4619,
      "though": 4620,
      "94": 4621,
      "ressed": 4622,
      "thebibliography}{": 4623,
      "harvard": 4624,
      "▁\\end{thebibliography}\n": 4625,
      "rier": 4626,
      "▁chang": 4627,
      "ape": 4628,
      "▁i.e.,": 4629,
      "r)": 4630,
      "arXiv": 4631,
      "▁\\nabla": 4632,
      "▁K.": 4633,
      "▁invariant": 4634,
      "ocus": 4635,
      "▁Then,": 4636,
      "lated": 4637,
      "▁(F": 4638,
      "▁event": 4639,
      "forall": 4640,
      "▁Ref": 4641,
      "▁Mat": 4642,
      "▁expansion": 4643,
      "▁background": 4644,
      "_{A": 4645,
      "▁$n$": 4646,
      ")},": 4647,
      "▁simulations": 4648,
      "▁correlation": 4649,
      "▁dep": 4650,
      "▁make": 4651,
      "-to": 4652,
      "▁physical": 4653,
      "N}": 4654,
      "▁top": 4655,
      "abstract}\n": 4656,
      "▁(198": 4657,
      "▁\\begin{thebibliography}{": 4658,
      "▁$\\psi": 4659,
      "▁relative": 4660,
      "_1\\": 4661,
      "})\n": 4662,
      "gies": 4663,
      "▁networks": 4664,
      "▁cell": 4665,
      "▁ind": 4666,
      "ublish": 4667,
      "▁next": 4668,
      "▁(201": 4669,
      "▁differential": 4670,
      "gorithms": 4671,
      "▁integer": 4672,
      "▁\\mathrm{": 4673,
      "}\\left": 4674,
      "▁$A$": 4675,
      "▁profi": 4676,
      "▁circ": 4677,
      "▁{\\sc": 4678,
      "▁assumption": 4679,
      "▁\\bibitem[{\\citenamefont": 4680,
      "93": 4681,
      "gs": 4682,
      "-F": 4683,
      "-n": 4684,
      "▁combin": 4685,
      "Phys.": 4686,
      "▁side": 4687,
      "▁vertex": 4688,
      "▁:=": 4689,
      ",k": 4690,
      "ices": 4691,
      "▁orbi": 4692,
      "),\n": 4693,
      "▁radius": 4694,
      ".~(\\ref{": 4695,
      "actions": 4696,
      "▁-0.": 4697,
      "▁Phys.\\": 4698,
      "_5": 4699,
      "^2}{": 4700,
      "(S": 4701,
      "oretical": 4702,
      "pmatrix": 4703,
      "▁spaces": 4704,
      "▁\\bibfield{": 4705,
      "▁diff": 4706,
      "cedure": 4707,
      "▁Research": 4708,
      "gu": 4709,
      "Qu": 4710,
      "ity,": 4711,
      "lations": 4712,
      "ilib": 4713,
      "▁observations": 4714,
      "▁smaller": 4715,
      "▁cannot": 4716,
      "▁invol": 4717,
      "▁require": 4718,
      "\\phi": 4719,
      "P}": 4720,
      "-\\frac{": 4721,
      "▁contribution": 4722,
      ".~V": 4723,
      "-a": 4724,
      "▁[0": 4725,
      "search": 4726,
      "▁output": 4727,
      "ware": 4728,
      "type": 4729,
      "3.\n": 4730,
      "▁\\cite{B": 4731,
      "▁consistent": 4732,
      "▁\\varphi": 4733,
      "▁peak": 4734,
      "▁enc": 4735,
      "enari": 4736,
      "▁magn": 4737,
      "▁--\n": 4738,
      "▁symmetric": 4739,
      "period": 4740,
      "▁Car": 4741,
      "sl": 4742,
      "▁}\\bibfield": 4743,
      "▁discussed": 4744,
      "▁[hep-": 4745,
      "etminus": 4746,
      "▁best": 4747,
      "▁layer": 4748,
      "an},": 4749,
      "▁{{": 4750,
      "▁\\mn@doi": 4751,
      "-con": 4752,
      "▁search": 4753,
      "lor": 4754,
      "▁specific": 4755,
      "▁theor": 4756,
      "▁rob": 4757,
      "center}\n": 4758,
      "ques": 4759,
      "^{*": 4760,
      "ati": 4761,
      "\\\r\n": 4762,
      "▁optimization": 4763,
      "▁E.": 4764,
      "&$": 4765,
      ")$\n": 4766,
      "Al": 4767,
      "osen": 4768,
      "fficients": 4769,
      "(N": 4770,
      "▁e.g": 4771,
      "/s": 4772,
      "-N": 4773,
      "scr": 4774,
      "den": 4775,
      "hood": 4776,
      "init": 4777,
      "}+\\": 4778,
      "$\r\n": 4779,
      "kip": 4780,
      "ker": 4781,
      "_{\\ell": 4782,
      "▁read": 4783,
      "84": 4784,
      "ly\n": 4785,
      "$}": 4786,
      "▁neigh": 4787,
      "▁{Sch": 4788,
      "▁Co": 4789,
      "8)": 4790,
      "kes": 4791,
      "\\le": 4792,
      "▁100": 4793,
      ">0$": 4794,
      "}{1pt": 4795,
      "hu": 4796,
      "▁\\item[": 4797,
      "▁bu": 4798,
      "▁cer": 4799,
      "point": 4800,
      "▁close": 4801,
      "▁princi": 4802,
      "_{c": 4803,
      "\\frac{": 4804,
      "▁spectra": 4805,
      "6}": 4806,
      "ling": 4807,
      "p,": 4808,
      "▁$\\ell": 4809,
      "isting": 4810,
      "dt": 4811,
      "▁iter": 4812,
      "▁construction": 4813,
      "(\\tau": 4814,
      "▁infinite": 4815,
      "anda": 4816,
      "▁resp": 4817,
      "-de": 4818,
      "▁ques": 4819,
      "▁correction": 4820,
      "ser": 4821,
      "href{": 4822,
      "▁valid": 4823,
      "▁particles": 4824,
      "OS": 4825,
      "▁\\begin{tabular}{": 4826,
      "resh": 4827,
      "jective": 4828,
      "▁grow": 4829,
      "▁series": 4830,
      "monstra": 4831,
      "scil": 4832,
      "}\\in": 4833,
      "_{N": 4834,
      "MR": 4835,
      "▁connected": 4836,
      "\\gamma": 4837,
      "▁First": 4838,
      "1pt}{1pt": 4839,
      "and}": 4840,
      "{\\rule{1pt}{1pt": 4841,
      "▁B.": 4842,
      "▁dual": 4843,
      "▁\\p": 4844,
      "A,": 4845,
      "ilibri": 4846,
      "gation": 4847,
      "▁\t\t": 4848,
      "olon": 4849,
      "▁domin": 4850,
      "▁respectively.": 4851,
      "ouble": 4852,
      "▁Ge": 4853,
      "ley": 4854,
      "▁bran": 4855,
      "▁\\affiliation": 4856,
      "▁\\end{eqnarray": 4857,
      ")|": 4858,
      "hom": 4859,
      "tri": 4860,
      "oy": 4861,
      "▁sources": 4862,
      "uracy": 4863,
      "pose": 4864,
      "▁better": 4865,
      "▁\\begin{array}{": 4866,
      "▁\\Phi": 4867,
      "▁label": 4868,
      "▁reason": 4869,
      "al,": 4870,
      "dim": 4871,
      "^N": 4872,
      "{x": 4873,
      "▁procedure": 4874,
      "scop": 4875,
      "harvard.edu": 4876,
      "▁matric": 4877,
      "▁\\bibnamefont{": 4878,
      "z},": 4879,
      "▁Ph": 4880,
      "16/": 4881,
      "▁Process": 4882,
      "lected": 4883,
      "▁measured": 4884,
      "▁code": 4885,
      "▁demonstra": 4886,
      "▁asympto": 4887,
      "74": 4888,
      "▁corresponds": 4889,
      "▁target": 4890,
      ".harvard.edu": 4891,
      "▁}\\href@noop": 4892,
      "▁coefficients": 4893,
      "3$": 4894,
      "tag": 4895,
      "b}": 4896,
      "aves": 4897,
      "{}\n": 4898,
      "▁variables": 4899,
      "2}$": 4900,
      "▁focus": 4901,
      ".~N": 4902,
      "▁Tech": 4903,
      "An": 4904,
      "ways": 4905,
      "▁original": 4906,
      "series": 4907,
      "0,1": 4908,
      "\\cite{": 4909,
      "spec": 4910,
      "▁various": 4911,
      "cep": 4912,
      "▁Cor": 4913,
      "▁\\mbox{": 4914,
      "ectors": 4915,
      "c}\n": 4916,
      "inos": 4917,
      "▁{\\cal": 4918,
      "▁(C": 4919,
      "b,": 4920,
      "▁strate": 4921,
      "adsabs": 4922,
      "adsabs.harvard.edu": 4923,
      "▁$l": 4924,
      "gine": 4925,
      "viron": 4926,
      "Sch": 4927,
      "definition": 4928,
      "{\\rule{1pt}{1pt}}\n": 4929,
      "6)": 4930,
      "▁Theory": 4931,
      "_{3": 4932,
      "▁trac": 4933,
      "▁few": 4934,
      "AD": 4935,
      ",\\,\\": 4936,
      "▁$\\xi": 4937,
      "▁\\math": 4938,
      "arc": 4939,
      "mat": 4940,
      "ApJ..": 4941,
      "▁write": 4942,
      "{\\cal": 4943,
      "eqn:": 4944,
      "ed}\n": 4945,
      "▁context": 4946,
      "▁objects": 4947,
      "▁choice": 4948,
      "▁derived": 4949,
      "▁Figure~\\ref{": 4950,
      "arge": 4951,
      "RL": 4952,
      ".1": 4953,
      "70": 4954,
      "▁application": 4955,
      "▁eigenvalu": 4956,
      "\\lambda": 4957,
      "▁int": 4958,
      "_0)": 4959,
      "land": 4960,
      "▁\\texts": 4961,
      "dap": 4962,
      "sp": 4963,
      "loc": 4964,
      "ritten": 4965,
      "▁explo": 4966,
      "▁perturb": 4967,
      "▁classification": 4968,
      "ock": 4969,
      "▁\\P": 4970,
      "▁optical": 4971,
      "~$\\": 4972,
      "▁Eq.": 4973,
      "h,": 4974,
      "el,": 4975,
      "▁$\\Lambda": 4976,
      "▁compute": 4977,
      ":199": 4978,
      "infty}": 4979,
      "▁good": 4980,
      ")(": 4981,
      "mediate": 4982,
      "ics,": 4983,
      "-w": 4984,
      "loy": 4985,
      ".p": 4986,
      "kin": 4987,
      "sitions": 4988,
      "ohn": 4989,
      "entry": 4990,
      "}},\r\n": 4991,
      "▁approximate": 4992,
      "_{B": 4993,
      "73": 4994,
      "▁$\\varphi": 4995,
      "'}": 4996,
      "NRAS": 4997,
      "▁$\\chi": 4998,
      "on},": 4999,
      "uro": 5000,
      "IR": 5001,
      "▁oscil": 5002,
      "_{\\text{": 5003,
      ")}$": 5004,
      "Let": 5005,
      "_u": 5006,
      "ale": 5007,
      "▁scenari": 5008,
      "iven": 5009,
      "adsabs.harvard.edu/abs/": 5010,
      "▁cover": 5011,
      "▁25": 5012,
      "▁language": 5013,
      "sem": 5014,
      "▁dependence": 5015,
      "(\\theta": 5016,
      "▁stars": 5017,
      "perp": 5018,
      "▁before": 5019,
      "son,": 5020,
      "words": 5021,
      "S.": 5022,
      "▁(c": 5023,
      "ited": 5024,
      "rivial": 5025,
      "▁\\subsubs": 5026,
      "apa": 5027,
      "sin": 5028,
      "tage": 5029,
      "ody": 5030,
      "▁Model": 5031,
      "▁{\\bibinfo\n": 5032,
      "▁hold": 5033,
      "^\\prime": 5034,
      "(E": 5035,
      "^t": 5036,
      "▁comb": 5037,
      "▁extension": 5038,
      "ters": 5039,
      "x)": 5040,
      "▁0.00": 5041,
      "ounds": 5042,
      "▁on\n": 5043,
      "eler": 5044,
      "▁hel": 5045,
      "(B": 5046,
      "eter": 5047,
      "pref": 5048,
      "\\langle": 5049,
      "▁expla": 5050,
      "ar[": 5051,
      "▁$M$": 5052,
      "▁ir": 5053,
      "m,": 5054,
      "▁available": 5055,
      "!<<": 5056,
      "=2": 5057,
      "uture": 5058,
      "ether": 5059,
      "▁resulting": 5060,
      "▁Rep": 5061,
      "ctu": 5062,
      "▁Suppose": 5063,
      "▁ground": 5064,
      "y)": 5065,
      "▁experiment": 5066,
      "▁cre": 5067,
      "▁central": 5068,
      "▁version": 5069,
      "-q": 5070,
      "zero": 5071,
      "▁\\right]": 5072,
      "▁Press": 5073,
      "quiv": 5074,
      "▁coll": 5075,
      "▁check": 5076,
      "}\\sum": 5077,
      "^j": 5078,
      "▁0.4": 5079,
      "^{\\alpha": 5080,
      "-V": 5081,
      "\\bib": 5082,
      "▁medi": 5083,
      "▁quad": 5084,
      "man,": 5085,
      "▁unique": 5086,
      "prefix": 5087,
      "▁gu": 5088,
      "▁pla": 5089,
      "psto": 5090,
      "▁ti": 5091,
      "T}": 5092,
      "▁denotes": 5093,
      "lemma}\n": 5094,
      "▁calculated": 5095,
      "▁ear": 5096,
      "▁support": 5097,
      "1+": 5098,
      "▁197": 5099,
      "table}\n": 5100,
      "▁certain": 5101,
      "▁partial": 5102,
      "remark": 5103,
      "quote": 5104,
      "dro": 5105,
      "onic": 5106,
      "▁characteristic": 5107,
      "by": 5108,
      "z}": 5109,
      "ano": 5110,
      "▁charge": 5111,
      "▁constraints": 5112,
      "bm{": 5113,
      "w.": 5114,
      "ilibrium": 5115,
      "▁individ": 5116,
      "▁arbitrary": 5117,
      "▁\\mid": 5118,
      "es.\n": 5119,
      "▁scattering": 5120,
      "titute": 5121,
      "▁\\def\\": 5122,
      "▁name": 5123,
      "CO": 5124,
      "eneral": 5125,
      "2}}": 5126,
      "Li": 5127,
      "u},": 5128,
      "{\\'e}": 5129,
      "▁problems": 5130,
      "lities": 5131,
      "ov,": 5132,
      "▁{\\bibfnamefont\n": 5133,
      "oriz": 5134,
      "▁discussion": 5135,
      "▁leads": 5136,
      "atch": 5137,
      "▁according": 5138,
      "(i": 5139,
      "7)": 5140,
      "1.0": 5141,
      "▁adj": 5142,
      "r,": 5143,
      "mma": 5144,
      "AN": 5145,
      "▁becomes": 5146,
      "83": 5147,
      "▁\\ell": 5148,
      "▁research": 5149,
      ")\\big": 5150,
      "cl": 5151,
      "icro": 5152,
      "uman": 5153,
      "ering": 5154,
      "_i)": 5155,
      "▁lit": 5156,
      "ubset": 5157,
      "cases": 5158,
      "▁conven": 5159,
      "▁instance": 5160,
      "▁allows": 5161,
      "c|c|": 5162,
      "▁negative": 5163,
      "ridge": 5164,
      "bibinfo{person}{": 5165,
      "▁$$\r\n": 5166,
      "cup": 5167,
      "hile": 5168,
      "gether": 5169,
      "▁{https://": 5170,
      "▁distributions": 5171,
      "▁short": 5172,
      "▁\\field": 5173,
      "gory": 5174,
      "▁hand,": 5175,
      "&0.": 5176,
      "^{i": 5177,
      "_-": 5178,
      "▁Gaussian": 5179,
      "anel": 5180,
      "command": 5181,
      "▁what": 5182,
      "▁prim": 5183,
      "▁24": 5184,
      "▁stellar": 5185,
      "phere": 5186,
      "▁convergence": 5187,
      "▁required": 5188,
      "_{1,": 5189,
      "▁apply": 5190,
      "ogeneous": 5191,
      "▁\\field{": 5192,
      "\\!\\!": 5193,
      "▁regime": 5194,
      "proposition": 5195,
      "agonal": 5196,
      "▁reson": 5197,
      "▁Furthermore": 5198,
      "-E": 5199,
      "▁interpre": 5200,
      "▁{https://doi.org/10.": 5201,
      "{V": 5202,
      "▁off": 5203,
      "▁recon": 5204,
      "pack": 5205,
      "-5": 5206,
      "\\vert": 5207,
      "▁$\\Phi": 5208,
      "▁estimation": 5209,
      "▁}{": 5210,
      "▁\\subset": 5211,
      "-1,": 5212,
      "\\otimes": 5213,
      "CS": 5214,
      "(w": 5215,
      "▁\\centering\n": 5216,
      "IN": 5217,
      "▁enough": 5218,
      "▁\\chi": 5219,
      "(1-": 5220,
      "_i,": 5221,
      "▁$\\mathbb{": 5222,
      "▁$|\\": 5223,
      "▁molec": 5224,
      "▁lik": 5225,
      "▁accuracy": 5226,
      "rel": 5227,
      "▁including": 5228,
      "articletitle": 5229,
      "],": 5230,
      "ek": 5231,
      "▁R.,": 5232,
      "D.": 5233,
      "ung": 5234,
      "_H": 5235,
      "(R": 5236,
      "ention": 5237,
      "▁~": 5238,
      "▁maps": 5239,
      "▁kernel": 5240,
      "-order": 5241,
      "\\rho": 5242,
      "deg": 5243,
      "author}{\\bibinfo{person}{": 5244,
      "▁\\bar": 5245,
      "▁subset": 5246,
      "images": 5247,
      "terial": 5248,
      "▁common": 5249,
      "▁beam": 5250,
      "▁construct": 5251,
      "▁column": 5252,
      "▁${\\cal": 5253,
      "▁improve": 5254,
      "ed\n": 5255,
      "(d": 5256,
      "▁Information": 5257,
      "▁(i.": 5258,
      "}\\left(\\": 5259,
      "▁always": 5260,
      "(0)": 5261,
      "^2)": 5262,
      "▁\\bibfield{author}{\\bibinfo{person}{": 5263,
      "▁D.,": 5264,
      "▁im": 5265,
      "xis": 5266,
      "vey": 5267,
      "▁easi": 5268,
      "▁$f$": 5269,
      "undam": 5270,
      "▁il": 5271,
      "ar,": 5272,
      "▁observation": 5273,
      "▁introduced": 5274,
      "▁\\Eprint": 5275,
      "},''": 5276,
      "_{a": 5277,
      "M}": 5278,
      "▁Consider": 5279,
      "▁$k$": 5280,
      "^2+": 5281,
      "▁(0.": 5282,
      "\\{\\": 5283,
      "▁down": 5284,
      "▁formation": 5285,
      "▁propa": 5286,
      "▁diagram": 5287,
      "▁\\equiv": 5288,
      "▁true": 5289,
      "▁understand": 5290,
      "▁i.e.": 5291,
      "▁cost": 5292,
      "FT": 5293,
      "\\tau": 5294,
      "▁just": 5295,
      "sequent": 5296,
      "...": 5297,
      "▁Hence,": 5298,
      "▁reach": 5299,
      "ret": 5300,
      "oi": 5301,
      "ally": 5302,
      "\\subset": 5303,
      "c}{": 5304,
      "▁=\n": 5305,
      "undamental": 5306,
      "▁.": 5307,
      "-time": 5308,
      "des": 5309,
      "▁depends": 5310,
      "ang},": 5311,
      "ei": 5312,
      "olic": 5313,
      "▁directly": 5314,
      "▁cap": 5315,
      "_G": 5316,
      "▁\\end{tabular}\n": 5317,
      "head": 5318,
      "▁\\showarticletitle": 5319,
      "▁vanish": 5320,
      "(t,": 5321,
      "ori": 5322,
      "▁reduced": 5323,
      "ermal": 5324,
      "▁center": 5325,
      "▁special": 5326,
      "-0": 5327,
      "▁algorithms": 5328,
      "▁\\href\n": 5329,
      "▁individual": 5330,
      "levant": 5331,
      "▁seg": 5332,
      "▁increasing": 5333,
      "▁Dis": 5334,
      "troduction": 5335,
      "▁\\bibinfo{title}{": 5336,
      "▁coefficient": 5337,
      "▁resolution": 5338,
      "▁vertices": 5339,
      "▁Data": 5340,
      "▁taken": 5341,
      "▁introduce": 5342,
      "dsh": 5343,
      "ults": 5344,
      "▁formal": 5345,
      "▁comparison": 5346,
      "\\label{": 5347,
      "▁gap": 5348,
      "ring": 5349,
      "▁width": 5350,
      "▁Y.": 5351,
      "▁fluctu": 5352,
      "▁word": 5353,
      "\\'{": 5354,
      "ymmetric": 5355,
      "struction": 5356,
      "▁transfer": 5357,
      "▁,\n": 5358,
      "\\mbox{": 5359,
      "}\\natexlab{": 5360,
      "S}": 5361,
      "./": 5362,
      "enci": 5363,
      "lustra": 5364,
      "▁represent": 5365,
      "_{q": 5366,
      "isms": 5367,
      "}}}": 5368,
      "▁press": 5369,
      "▁achiev": 5370,
      "▁\\D": 5371,
      "▁{http://arxiv.org/abs/": 5372,
      "-ray": 5373,
      "fact": 5374,
      "8}": 5375,
      "csname": 5376,
      "▁environ": 5377,
      "ing.": 5378,
      "▁F.": 5379,
      "▁bro": 5380,
      "▁prediction": 5381,
      "▁are\n": 5382,
      "ois": 5383,
      "_2}": 5384,
      "ification": 5385,
      "-v": 5386,
      "▁transformation": 5387,
      "▁$\\math": 5388,
      "section": 5389,
      "▁provides": 5390,
      "-W": 5391,
      "▁Assu": 5392,
      "▁edges": 5393,
      "-g": 5394,
      ")\\\\\n": 5395,
      "(c": 5396,
      "l}": 5397,
      "fi\n": 5398,
      "ext": 5399,
      "izes": 5400,
      "sky": 5401,
      "▁instead": 5402,
      "▁\\be\n": 5403,
      "andafter": 5404,
      "ource": 5405,
      "ules": 5406,
      "doi{": 5407,
      "▁Nuc": 5408,
      "L}": 5409,
      "▁Similar": 5410,
      "\\\\\r\n": 5411,
      "strophys": 5412,
      "&0": 5413,
      "▁Given": 5414,
      "▁curv": 5415,
      "astro": 5416,
      "▁studied": 5417,
      "▁morph": 5418,
      "▁is,": 5419,
      "▁calculation": 5420,
      "ermi": 5421,
      "pt}{0.": 5422,
      "thesis": 5423,
      "mations": 5424,
      "▁\\multicolumn{1}{": 5425,
      "▁nonlinear": 5426,
      "▁0.0": 5427,
      "▁(in": 5428,
      "▁\\ge": 5429,
      "42": 5430,
      "▁\\beq": 5431,
      "(g": 5432,
      "_C": 5433,
      "▁mach": 5434,
      "2003": 5435,
      "7}": 5436,
      "(\\omega": 5437,
      "bur": 5438,
      "▁$\\C": 5439,
      "faces": 5440,
      "▁gradient": 5441,
      "▁measurements": 5442,
      "▁performed": 5443,
      "zh": 5444,
      "Im": 5445,
      "^*$": 5446,
      "▁Mach": 5447,
      "A}": 5448,
      "▁computation": 5449,
      "omen": 5450,
      "JcC<$JcC<$": 5451,
      "▁text": 5452,
      "och": 5453,
      "▁Par": 5454,
      "▁Inte": 5455,
      "1+\\": 5456,
      "iss": 5457,
      "▁mix": 5458,
      "reshold": 5459,
      "aving": 5460,
      "(e": 5461,
      "▁$3": 5462,
      "▁soft": 5463,
      "itud": 5464,
      "▁\\subsubsection{": 5465,
      "enquote": 5466,
      "4}\n": 5467,
      "er}": 5468,
      "r]": 5469,
      "bilities": 5470,
      "▁\\imp": 5471,
      "▁{\\bfseries": 5472,
      "▁Section~\\ref{": 5473,
      "-1}\\": 5474,
      "frac{\\partial": 5475,
      "taint": 5476,
      "▁galaxy": 5477,
      "▁almost": 5478,
      "▁ful": 5479,
      "▁loop": 5480,
      "▁transform": 5481,
      "▁existence": 5482,
      "▁increase": 5483,
      "▁Ber": 5484,
      "ready": 5485,
      "textwidth": 5486,
      "▁provided": 5487,
      "▁Ste": 5488,
      "_K": 5489,
      "▁experiments": 5490,
      "script": 5491,
      "▁\"": 5492,
      "▁Inde": 5493,
      "▁review": 5494,
      "▁23": 5495,
      "ander": 5496,
      "▁made": 5497,
      "}}},": 5498,
      "▁another": 5499,
      "rang": 5500,
      "algebra": 5501,
      "{O": 5502,
      "lli": 5503,
      "▁[\\href{": 5504,
      "▁presence": 5505,
      ".~Y": 5506,
      "▁quasi": 5507,
      "lication": 5508,
      "▁discrete": 5509,
      "ham": 5510,
      "lue": 5511,
      ".~\\cite{": 5512,
      "ong,": 5513,
      "=1,": 5514,
      "1\n": 5515,
      "▁\\cdots": 5516,
      "▁illustra": 5517,
      "▁exci": 5518,
      "ing}\n": 5519,
      "tention": 5520,
      "▁$\\Sigma": 5521,
      "\\cap": 5522,
      "^{\\mu": 5523,
      "▁\\over": 5524,
      "^a": 5525,
      "-K": 5526,
      "\\bibinit": 5527,
      "▁\\bibitem{D": 5528,
      "▁quark": 5529,
      "s/": 5530,
      "▁disk": 5531,
      "▁pul": 5532,
      "▁stochastic": 5533,
      "{$": 5534,
      "▁All": 5535,
      "^{-1}$": 5536,
      "▁analog": 5537,
      "▁computed": 5538,
      "defined": 5539,
      "\\ge": 5540,
      "▁$O": 5541,
      "C}": 5542,
      "▁USA": 5543,
      "▁whether": 5544,
      "▁interval": 5545,
      "▁2019.\n": 5546,
      "7/": 5547,
      "▁lemma": 5548,
      "5.": 5549,
      "▁kine": 5550,
      "▁Furthermore,": 5551,
      "▁Def": 5552,
      "pc": 5553,
      "▁\\ref{sec:": 5554,
      "▁\\bibitem{M": 5555,
      "▁Astr": 5556,
      "▁material": 5557,
      "-x": 5558,
      "▁tor": 5559,
      "ometric": 5560,
      "mc": 5561,
      "(4": 5562,
      "▁induced": 5563,
      "jor": 5564,
      "textrm{": 5565,
      "▁thermal": 5566,
      "▁minimum": 5567,
      "_\\infty": 5568,
      "{The": 5569,
      "▁account": 5570,
      "▁plus": 5571,
      "tablish": 5572,
      "),\\": 5573,
      "$\\pm$0.": 5574,
      "\\Big": 5575,
      "date": 5576,
      "ren": 5577,
      "ky": 5578,
      "▁caus": 5579,
      "▁28": 5580,
      "▁\t\\": 5581,
      "▁already": 5582,
      "▁efficient": 5583,
      "▁Theorem~\\ref{": 5584,
      "ising": 5585,
      "ird": 5586,
      "\\sqrt{": 5587,
      "sqrt{\\": 5588,
      "▁estimates": 5589,
      "in},": 5590,
      "▁Soci": 5591,
      "▁split": 5592,
      "_D": 5593,
      "▁Hu": 5594,
      "▁hole": 5595,
      "del": 5596,
      "aneous": 5597,
      "▁rather": 5598,
      "urate": 5599,
      "versal": 5600,
      "▁\\tilde{": 5601,
      "▁Pa": 5602,
      "▁amplitude": 5603,
      "oral": 5604,
      "▁fla": 5605,
      "▁\\emph{Proceedings": 5606,
      "lesssim": 5607,
      "▁Mon": 5608,
      "\\r": 5609,
      "▁P.,": 5610,
      "▁0$,": 5611,
      "▁0,": 5612,
      "▁Mathematic": 5613,
      "lications": 5614,
      "xx": 5615,
      "v,": 5616,
      "▁convex": 5617,
      "=1$": 5618,
      "ars": 5619,
      "▁coordinate": 5620,
      "▁(M": 5621,
      "▁argument": 5622,
      ")]": 5623,
      "_{S": 5624,
      "}\\Big": 5625,
      "vised": 5626,
      "▁chosen": 5627,
      "_I": 5628,
      "▁W.": 5629,
      "author{\\": 5630,
      ":\r\n": 5631,
      "▁{arXiv:": 5632,
      "▁law": 5633,
      "int_{\\": 5634,
      "local": 5635,
      "▁curves": 5636,
      "f.": 5637,
      "▁written": 5638,
      "▁\\bibitem{C": 5639,
      "▁$N$": 5640,
      "itor": 5641,
      "pt}}\r\n": 5642,
      "command{\\": 5643,
      "120": 5644,
      "code": 5645,
      "▁2018.\n": 5646,
      "(V": 5647,
      "chitect": 5648,
      "www.": 5649,
      "ira": 5650,
      "▁together": 5651,
      "▁auto": 5652,
      "mcite": 5653,
      "▁enti": 5654,
      "▁Eq.~(\\ref{": 5655,
      "▁\\make": 5656,
      "^{m": 5657,
      "cccc": 5658,
      "▁constraint": 5659,
      "_{\\nu": 5660,
      "level": 5661,
      "aa": 5662,
      "hash": 5663,
      "▁$\n": 5664,
      "}-\\": 5665,
      "eful": 5666,
      "ola": 5667,
      "▁applications": 5668,
      "▁notation": 5669,
      "▁stable": 5670,
      "▁double": 5671,
      "▁\\begin{proof": 5672,
      "▁say": 5673,
      "ope": 5674,
      "dec": 5675,
      "▁$-$": 5676,
      "▁link": 5677,
      "_{\\lambda": 5678,
      "▁matrices": 5679,
      "formal": 5680,
      "▁respon": 5681,
      "▁choose": 5682,
      "eng,": 5683,
      "le,": 5684,
      "ed.": 5685,
      "▁2021": 5686,
      "tives": 5687,
      "\\b": 5688,
      "0.5": 5689,
      "▁future": 5690,
      "packages": 5691,
      "./images": 5692,
      "▁C.,": 5693,
      "▁groups": 5694,
      "aly": 5695,
      "_{j=1}": 5696,
      "▁(2": 5697,
      "tively,": 5698,
      "R}": 5699,
      "tainty": 5700,
      "▁user": 5701,
      "▁\\graphics": 5702,
      "▁redsh": 5703,
      "_3$": 5704,
      "▁\\begin{equation}": 5705,
      "▁\\graphicspath{": 5706,
      "▁modes": 5707,
      "▁key": 5708,
      "\\omega": 5709,
      "▁\\begin{equation}\r\n": 5710,
      "▁\\import": 5711,
      "▁{./images": 5712,
      "▁{./images/}": 5713,
      "packages{}\n": 5714,
      "▁\\importpackages{}\n": 5715,
      "▁nucle": 5716,
      "▁panel": 5717,
      "GC": 5718,
      "(D": 5719,
      "▁N.": 5720,
      "▁$x$": 5721,
      "▁absor": 5722,
      "▁agre": 5723,
      "000000": 5724,
      "▁singular": 5725,
      "▁Processing": 5726,
      "4$": 5727,
      "▁establish": 5728,
      "imin": 5729,
      "-of": 5730,
      "and}\n": 5731,
      "▁collision": 5732,
      "llig": 5733,
      "▁metal": 5734,
      "▁determine": 5735,
      "{I": 5736,
      "sta": 5737,
      "vitational": 5738,
      "uli": 5739,
      "▁\\bibitem{K": 5740,
      "▁observe": 5741,
      "color{": 5742,
      "(3)": 5743,
      "▁latter": 5744,
      "dual": 5745,
      "}},\\\n": 5746,
      "Net": 5747,
      "iffer": 5748,
      "-ma": 5749,
      "▁\\bibitem{S": 5750,
      "▁\\texttt{": 5751,
      "prop:": 5752,
      "▁decomposition": 5753,
      "▁nodes": 5754,
      "▁prac": 5755,
      "▁\\bibitem{G": 5756,
      "▁\\neq": 5757,
      "▁had": 5758,
      "▁(e.g": 5759,
      "▁Di": 5760,
      "▁{10.10": 5761,
      "ashi": 5762,
      ":=": 5763,
      "_{X": 5764,
      "sw": 5765,
      "▁(w": 5766,
      "(P": 5767,
      "▁topological": 5768,
      "default": 5769,
      "(L": 5770,
      "▁(A": 5771,
      "▁\\Lambda": 5772,
      "ottom": 5773,
      "th/": 5774,
      "▁plane": 5775,
      "▁\\draw": 5776,
      ")\\citenamefont\n": 5777,
      "▁Spec": 5778,
      "(\\xi": 5779,
      "▁exponential": 5780,
      "3}{": 5781,
      "▁Wang,": 5782,
      "11}": 5783,
      "trans": 5784,
      "▁(E": 5785,
      "lash": 5786,
      "▁manifold": 5787,
      "▁determin": 5788,
      "▁processes": 5789,
      "j.": 5790,
      "▁$\\kappa": 5791,
      "▁$\\R": 5792,
      "link": 5793,
      "▁Hence": 5794,
      "▁discuss": 5795,
      "(C": 5796,
      "{\\'a}": 5797,
      "▁configuration": 5798,
      "▁\\href{http://dx.doi.org/10.": 5799,
      "acu": 5800,
      "uter": 5801,
      "(F": 5802,
      "▁supported": 5803,
      "family": 5804,
      "▁regions": 5805,
      "▁interesting": 5806,
      "▁=\\": 5807,
      "▁conclude": 5808,
      "▁{journal}\n": 5809,
      "▁anti": 5810,
      "▁lum": 5811,
      "▁useful": 5812,
      "▁possi": 5813,
      "▁question": 5814,
      "$-$": 5815,
      "(\\Omega": 5816,
      "▁dark": 5817,
      "▁27": 5818,
      "_w": 5819,
      "ou,": 5820,
      "e},": 5821,
      "chitecture": 5822,
      "ement": 5823,
      "as,": 5824,
      "▁pp.~": 5825,
      "▁sense": 5826,
      "▁rank": 5827,
      "▁might": 5828,
      "▁Cont": 5829,
      "ermion": 5830,
      "\\bibinitperiod": 5831,
      "frac{1}{2}": 5832,
      "▁theoretical": 5833,
      "sities": 5834,
      "▁adap": 5835,
      "-par": 5836,
      "▁2017.\n": 5837,
      "IM": 5838,
      "onical": 5839,
      "_j$": 5840,
      "▁description": 5841,
      "▁Transactions": 5842,
      "\\footnote": 5843,
      "(\\mu": 5844,
      "▁binary": 5845,
      "▁include": 5846,
      "rule\n": 5847,
      "eve": 5848,
      "▁relevant": 5849,
      "ging": 5850,
      "▁Review": 5851,
      "hy": 5852,
      "▁geometry": 5853,
      "gular": 5854,
      "▁$S$": 5855,
      "▁horiz": 5856,
      "▁yields": 5857,
      ")+": 5858,
      "iral": 5859,
      "icture": 5860,
      "▁color": 5861,
      "▁model,": 5862,
      "mith": 5863,
      "▁\\ldots,": 5864,
      "(H": 5865,
      "olar": 5866,
      "▁leading": 5867,
      "ellip": 5868,
      "frac{1}{\\": 5869,
      "redu": 5870,
      "avi": 5871,
      "}]": 5872,
      "pled": 5873,
      "\\neq": 5874,
      "▁photon": 5875,
      "▁MS": 5876,
      "▁suc": 5877,
      "▁\\g": 5878,
      "alg": 5879,
      "▁\\begin{table": 5880,
      "▁(19": 5881,
      "\\delta": 5882,
      "▁bund": 5883,
      "▁hard": 5884,
      "ta,": 5885,
      "▁orth": 5886,
      "▁\\begin{equation}\\label{eq:": 5887,
      "▁V.": 5888,
      "port": 5889,
      "▁2020.\n": 5890,
      "_{T": 5891,
      "mcitedefault": 5892,
      "▁ACM": 5893,
      "-to-": 5894,
      "^s": 5895,
      "mes": 5896,
      "▁resi": 5897,
      "iny": 5898,
      "▁\\frac": 5899,
      "iled": 5900,
      "^{p": 5901,
      "_\\ell": 5902,
      "_{H": 5903,
      "ible": 5904,
      "_P": 5905,
      "▁Computational": 5906,
      "▁diffic": 5907,
      "▁elect": 5908,
      "▁break": 5909,
      "▁of\r\n": 5910,
      "▁representations": 5911,
      "_k$": 5912,
      "5$": 5913,
      "v}": 5914,
      "▁calculations": 5915,
      "▁environment": 5916,
      "▁communic": 5917,
      "▁correct": 5918,
      "▁strength": 5919,
      "pin": 5920,
      "▁\\textsc": 5921,
      "▁extended": 5922,
      "gan": 5923,
      "▁computational": 5924,
      "▁dev": 5925,
      "playstyle": 5926,
      "ench": 5927,
      "2})": 5928,
      "▁simpl": 5929,
      "▁\\eeq": 5930,
      "▁$10": 5931,
      "▁Mo": 5932,
      "▁fraction": 5933,
      "}\\natexlab{}.\n": 5934,
      "▁And": 5935,
      "Theorem": 5936,
      "▁entropy": 5937,
      "▁\\emph{IEEE": 5938,
      "▁consequ": 5939,
      "magnetic": 5940,
      "6.": 5941,
      "▁tree": 5942,
      "prod": 5943,
      "ras,": 5944,
      "▁Vision": 5945,
      "▁self-": 5946,
      "▁robust": 5947,
      "a.": 5948,
      "88/": 5949,
      "▁situ": 5950,
      "\\to\\": 5951,
      "range": 5952,
      "z)": 5953,
      "▁among": 5954,
      "▁minimal": 5955,
      "lex": 5956,
      "▁\\bibinfo{volume}{": 5957,
      "2b2b": 5958,
      "C.": 5959,
      "▁necessary": 5960,
      "▁Lemma~\\ref{": 5961,
      "ante": 5962,
      "{n": 5963,
      "wards": 5964,
      "▁wind": 5965,
      "t},": 5966,
      "▁reduction": 5967,
      "▁easily": 5968,
      "~~~~": 5969,
      "(s)": 5970,
      "▁commu": 5971,
      "variant": 5972,
      "arily": 5973,
      "bed": 5974,
      "B}": 5975,
      "theorem}\n": 5976,
      "▁threshold": 5977,
      "ambridge": 5978,
      "MNRAS": 5979,
      "iro": 5980,
      "▁however,": 5981,
      "▁plot": 5982,
      "_{d": 5983,
      "▁\\dot": 5984,
      "62": 5985,
      "reen": 5986,
      "▁capa": 5987,
      "▁$T$": 5988,
      "▁10^{-": 5989,
      "▁pure": 5990,
      "▁\\frac{\\partial": 5991,
      "▁vectors": 5992,
      "▁angular": 5993,
      "▁knowledge": 5994,
      "▁$\\langle": 5995,
      "▁\\bauthor{\\": 5996,
      "ological": 5997,
      "laboration": 5998,
      "IBentry": 5999,
      ".05": 6000,
      "**": 6001,
      "▁fi": 6002,
      "ae": 6003,
      "12}": 6004,
      "▁generalized": 6005,
      "bes": 6006,
      "▁G.,": 6007,
      "▁pressure": 6008,
      "mpling": 6009,
      "e^{-": 6010,
      "▁10.1103/PhysRev": 6011,
      "▁\\int_{\\": 6012,
      "▁\\bibitem{H": 6013,
      "▁{Ch": 6014,
      "bserv": 6015,
      "9}": 6016,
      "▁ess": 6017,
      "▁figure": 6018,
      "▁Statis": 6019,
      "-r": 6020,
      "&&": 6021,
      "ank": 6022,
      "ynamic": 6023,
      "▁\\BibitemOpen\r\n": 6024,
      "ned": 6025,
      "tz": 6026,
      "▁\\tilde": 6027,
      "▁tw": 6028,
      "▁magnitude": 6029,
      "|x": 6030,
      "SP": 6031,
      "ui": 6032,
      "▁mention": 6033,
      "_E": 6034,
      "▁selection": 6035,
      "{f": 6036,
      ";\\;\\": 6037,
      "▁hypo": 6038,
      "▁$i$": 6039,
      "▁pur": 6040,
      "▁requires": 6041,
      "asy": 6042,
      "▁filter": 6043,
      "00,": 6044,
      "▁studies": 6045,
      "ump": 6046,
      "M,": 6047,
      "}_{i": 6048,
      "-like": 6049,
      "D}": 6050,
      "0.\n": 6051,
      "sf": 6052,
      "_\\text{": 6053,
      "▁trivial": 6054,
      "tiz": 6055,
      "▁Man": 6056,
      "endcsname": 6057,
      "▁\\end": 6058,
      "▁numbers": 6059,
      "energy": 6060,
      "--3": 6061,
      "lap": 6062,
      "▁York": 6063,
      "*{": 6064,
      "▁root": 6065,
      "DF": 6066,
      "▁ion": 6067,
      "▁assumed": 6068,
      "▁be\n": 6069,
      "▁extre": 6070,
      "data": 6071,
      "▁Acc": 6072,
      "▁fundamental": 6073,
      "▁(s": 6074,
      "▁functional": 6075,
      "flo": 6076,
      "▁micro": 6077,
      "tim": 6078,
      "epart": 6079,
      "▁\\end{lemma}\n": 6080,
      "1998": 6081,
      "▁compar": 6082,
      "ryst": 6083,
      "▁l\n": 6084,
      "▁\\me": 6085,
      "example": 6086,
      "_\\nu": 6087,
      "hip": 6088,
      "▁\\multiput(": 6089,
      "▁(a": 6090,
      "model": 6091,
      "-2}": 6092,
      "52": 6093,
      "▁mechanism": 6094,
      "▁flat": 6095,
      "Introduction": 6096,
      "▁recognition": 6097,
      "cur": 6098,
      "my": 6099,
      "isted": 6100,
      "▁role": 6101,
      "▁\\end{enumerate}\n": 6102,
      "pped": 6103,
      "▁While": 6104,
      "car": 6105,
      "ford": 6106,
      "(K": 6107,
      "(b": 6108,
      "▁curvature": 6109,
      "\\'e": 6110,
      "PP": 6111,
      "▁great": 6112,
      "▁\\frac{1}{\\": 6113,
      "▁origin": 6114,
      "▁identity": 6115,
      "▁Gu": 6116,
      "▁exactly": 6117,
      "▁\\sin": 6118,
      "ulk": 6119,
      ".com": 6120,
      "forms": 6121,
      "ana": 6122,
      "▁rotation": 6123,
      "▁taking": 6124,
      "▁fermion": 6125,
      ",n": 6126,
      "▁altern": 6127,
      "licity": 6128,
      "}\\cdot": 6129,
      "▁\\end{itemize}\n": 6130,
      "-Y": 6131,
      "▁multi-": 6132,
      "▁compare": 6133,
      "▁Lie": 6134,
      "▁partition": 6135,
      "▁e^{-": 6136,
      "(3": 6137,
      "▁II": 6138,
      "▁ori": 6139,
      "fe": 6140,
      "▁chain": 6141,
      "▁devi": 6142,
      "odot": 6143,
      "▁subgroup": 6144,
      "▁bounds": 6145,
      "▁\\cos": 6146,
      "▁$\\mathrm{": 6147,
      "▁fin": 6148,
      "▁phen": 6149,
      "▁identify": 6150,
      "Zhang": 6151,
      "=0$,": 6152,
      "▁\\aap": 6153,
      "▁2.": 6154,
      "▁Equation": 6155,
      "Ad": 6156,
      "▁far": 6157,
      "▁$\\alpha$": 6158,
      "/2}": 6159,
      "ln": 6160,
      "▁(N": 6161,
      "▁\\Sigma": 6162,
      "ste": 6163,
      "▁Inter": 6164,
      "9)": 6165,
      "{U": 6166,
      "else": 6167,
      "▁machine": 6168,
      "▁(or": 6169,
      "\\psi": 6170,
      "▁paper,": 6171,
      "▁Amer": 6172,
      "oss": 6173,
      "▁mark": 6174,
      "Ex": 6175,
      "▁statistical": 6176,
      "▁bos": 6177,
      "▁$^{": 6178,
      "▁core": 6179,
      "ayes": 6180,
      "▁\\approx": 6181,
      "ged": 6182,
      "tries": 6183,
      "HEP": 6184,
      "▁able": 6185,
      "~M": 6186,
      "▁Soc": 6187,
      "▁equilibrium": 6188,
      "▁T.,": 6189,
      "▁samples": 6190,
      "way": 6191,
      "▁estimated": 6192,
      "▁\\expandafter": 6193,
      "\\penalty0": 6194,
      "arp": 6195,
      "▁strongly": 6196,
      "▁category": 6197,
      "▁adop": 6198,
      "▁rest": 6199,
      "e^{": 6200,
      "▁neighbor": 6201,
      "oding": 6202,
      "^{\\frac{": 6203,
      "▁$p$": 6204,
      "}}}\n": 6205,
      "textit": 6206,
      "▁Associ": 6207,
      "p{": 6208,
      "0004": 6209,
      "▁\\doi{": 6210,
      "▁dynamical": 6211,
      "ation.": 6212,
      "▁(the": 6213,
      "bl": 6214,
      "▁string": 6215,
      "▁cycle": 6216,
      "▁significantly": 6217,
      "▁simply": 6218,
      "▁section,": 6219,
      "▁visual": 6220,
      "i=": 6221,
      "10}\n": 6222,
      "line\n": 6223,
      "▁\\begin{itemize}\n": 6224,
      "▁contrast": 6225,
      "(1-\\": 6226,
      "▁(n": 6227,
      "_6": 6228,
      "IT": 6229,
      "ph/": 6230,
      "▁chall": 6231,
      "ighted": 6232,
      "▁[arXiv:": 6233,
      "▁that\r\n": 6234,
      "▁cosmo": 6235,
      "▁arXiv": 6236,
      "▁inverse": 6237,
      "▁\\url": 6238,
      "test": 6239,
      "E}": 6240,
      "▁increases": 6241,
      "▁profile": 6242,
      "▁\\left\\{": 6243,
      "oz": 6244,
      "▁shape": 6245,
      "IG": 6246,
      "epartment": 6247,
      "▁events": 6248,
      "rig": 6249,
      "_{\\sigma": 6250,
      "inger,": 6251,
      "▁denoted": 6252,
      "▁\\kappa": 6253,
      "▁Op": 6254,
      "ec:": 6255,
      "osed": 6256,
      ",t": 6257,
      "ditional": 6258,
      "▁uncertainty": 6259,
      "▁\\L": 6260,
      "▁classes": 6261,
      "eep": 6262,
      "▁Zhang,": 6263,
      "▁distin": 6264,
      "^c": 6265,
      "ery": 6266,
      "OI": 6267,
      "On": 6268,
      "▁population": 6269,
      "▁26": 6270,
      "92": 6271,
      "iem": 6272,
      "(h": 6273,
      "▁across": 6274,
      "▁asymptotic": 6275,
      "^r": 6276,
      "-scale": 6277,
      "-sh": 6278,
      "▁\\lim": 6279,
      "▁\\BibitemShut": 6280,
      "▁exter": 6281,
      "1.5": 6282,
      "}{4": 6283,
      "tability": 6284,
      "▁phenomen": 6285,
      "cid": 6286,
      "nown": 6287,
      "▁$\\S": 6288,
      "▁\\circ": 6289,
      "▁rem": 6290,
      "▁interactions": 6291,
      "ried": 6292,
      "duc": 6293,
      "rd": 6294,
      "q}": 6295,
      "+\\frac{": 6296,
      "}\\|": 6297,
      "▁statem": 6298,
      "}}].\n": 6299,
      "▁ideal": 6300,
      "box{": 6301,
      "10,": 6302,
      "(\\mathbf{": 6303,
      "lastic": 6304,
      "▁consists": 6305,
      "tionary": 6306,
      "▁represents": 6307,
      "▁Figure~\\ref{fig:": 6308,
      "▁\\!": 6309,
      "▁play": 6310,
      "▁\\begin{lemma": 6311,
      "olor": 6312,
      "▁\\varepsilon": 6313,
      "change": 6314,
      "ities": 6315,
      "vances": 6316,
      ",\\\\\n": 6317,
      "▁dynamic": 6318,
      "▁assign": 6319,
      "▁Mod": 6320,
      "▁contributions": 6321,
      "▁takes": 6322,
      "▁minus": 6323,
      ")}\n": 6324,
      "▁essential": 6325,
      "jecture": 6326,
      "▁row": 6327,
      "▁Method": 6328,
      "▁scaling": 6329,
      "nn": 6330,
      "▁square": 6331,
      "{c": 6332,
      "▁Per": 6333,
      "dskip": 6334,
      "End": 6335,
      "▁(b": 6336,
      "ensure": 6337,
      "call": 6338,
      ":=\\": 6339,
      "]$,": 6340,
      "▁Li,": 6341,
      "▁Neural": 6342,
      "▁$\\tilde{": 6343,
      "(Y": 6344,
      "▁et~al\\mbox{": 6345,
      "▁pairs": 6346,
      "82": 6347,
      "uming": 6348,
      "(j": 6349,
      "▁\\mnras,": 6350,
      "itch": 6351,
      "▁physics": 6352,
      "▁[width": 6353,
      "▁structures": 6354,
      "▁remains": 6355,
      "▁Indeed,": 6356,
      "comple": 6357,
      "erman": 6358,
      "oulo": 6359,
      "▁complexity": 6360,
      "run": 6361,
      "grams": 6362,
      "▁har": 6363,
      "▁red": 6364,
      "{a": 6365,
      "▁L.,": 6366,
      "▁\\|\\": 6367,
      ".;": 6368,
      "int_0": 6369,
      "▁production": 6370,
      "semble": 6371,
      "2002": 6372,
      "▁Quantum": 6373,
      "andid": 6374,
      "▁quadra": 6375,
      "mnras": 6376,
      "▁changes": 6377,
      "▁{year}\n": 6378,
      "ood": 6379,
      "▁types": 6380,
      "_{i,j": 6381,
      "-i": 6382,
      "_1,\\ldots,": 6383,
      "▁\\cup": 6384,
      "^\\dagger": 6385,
      "{\\\"o}": 6386,
      "3},": 6387,
      "}$)": 6388,
      "ES": 6389,
      "eline": 6390,
      "ken": 6391,
      "▁call": 6392,
      "(1,": 6393,
      "▁\\mathbb{R": 6394,
      "▁2,": 6395,
      "▁\\int_0": 6396,
      "▁(T": 6397,
      "(\\cdot": 6398,
      "▁details": 6399,
      "-re": 6400,
      "▁Analysis": 6401,
      "LS": 6402,
      "▁projection": 6403,
      "LR": 6404,
      "▁Systems": 6405,
      "hbar": 6406,
      "j}": 6407,
      "▁$\\hat{": 6408,
      "▁\\prod": 6409,
      "son},": 6410,
      "nowledge": 6411,
      "▁Ac": 6412,
      "uper": 6413,
      "hite": 6414,
      "▁stability": 6415,
      "▁energies": 6416,
      "▁norm": 6417,
      "▁$\\hat": 6418,
      "-pro": 6419,
      "▁factors": 6420,
      "-l": 6421,
      "check": 6422,
      "iggs": 6423,
      "▁where\n": 6424,
      "▁\\end{table}\n": 6425,
      "Xi": 6426,
      "}]\n": 6427,
      "▁\\Psi": 6428,
      "▁half": 6429,
      "MM": 6430,
      "▁mis": 6431,
      "cd": 6432,
      "▁\\maketitle": 6433,
      "-e": 6434,
      "▁approaches": 6435,
      "▁rece": 6436,
      "doi:": 6437,
      "▁prior": 6438,
      "▁\\subseteq": 6439,
      "ourier": 6440,
      "00000000": 6441,
      "agraph": 6442,
      "▁parallel": 6443,
      "▁slight": 6444,
      "1}\r\n": 6445,
      "PT": 6446,
      "ED": 6447,
      "▁proved": 6448,
      "▁gravitational": 6449,
      "\\mathcal{": 6450,
      "▁accurate": 6451,
      "aries": 6452,
      "▁evid": 6453,
      "▁semi": 6454,
      "^{N": 6455,
      "▁cut": 6456,
      "avel": 6457,
      "▁\\bibitem{A": 6458,
      "▁Lag": 6459,
      "▁They": 6460,
      "▁Network": 6461,
      "▁div": 6462,
      "riter": 6463,
      ".03": 6464,
      "ightarrow": 6465,
      "▁30": 6466,
      "▁Appendix": 6467,
      "▁diagonal": 6468,
      "▁fully": 6469,
      "▁{U": 6470,
      "floor": 6471,
      "ake": 6472,
      "-the": 6473,
      "▁theories": 6474,
      "▁satisfying": 6475,
      "▁shall": 6476,
      "}(t)": 6477,
      "tific": 6478,
      "▁(i": 6479,
      "▁et~al.}(": 6480,
      "▁Be": 6481,
      "}(X": 6482,
      "▁\\bar{": 6483,
      "mail": 6484,
      "▁pse": 6485,
      "tle": 6486,
      ":}": 6487,
      "ict": 6488,
      "▁\\hspace{": 6489,
      "(t)$": 6490,
      "0,\\": 6491,
      "▁reference": 6492,
      "▁Gal": 6493,
      "-y": 6494,
      "mission": 6495,
      "_0}": 6496,
      "▁X-ray": 6497,
      "ends": 6498,
      "{Y": 6499,
      "▁employ": 6500,
      "\\eta": 6501,
      "ina": 6502,
      "^{d": 6503,
      "▁belong": 6504,
      "▁s\n": 6505,
      "down": 6506,
      "▁ellip": 6507,
      "▁Mathematical": 6508,
      "\\)": 6509,
      "▁tool": 6510,
      "▁gravity": 6511,
      "nes": 6512,
      "ao,": 6513,
      "10.1103/PhysRev": 6514,
      "^{-1}\\": 6515,
      "m{\\": 6516,
      "▁(f": 6517,
      "▁aut": 6518,
      "▁calculate": 6519,
      "▁Bar": 6520,
      "▁(x": 6521,
      "▁---": 6522,
      "▁dimensional": 6523,
      "▁util": 6524,
      "b}\n": 6525,
      "▁2016.\n": 6526,
      "▁interest": 6527,
      "▁\\ldots": 6528,
      "▁22": 6529,
      "\\sim": 6530,
      "▁{M.}~\\bibnamefont": 6531,
      "1}.\n": 6532,
      "▁E.,": 6533,
      "publish": 6534,
      "▁clos": 6535,
      "monic": 6536,
      "2}.\n": 6537,
      "sname": 6538,
      "cont": 6539,
      "emical": 6540,
      "ater": 6541,
      "▁But": 6542,
      "{2": 6543,
      "ade": 6544,
      "len": 6545,
      "g}": 6546,
      "yset": 6547,
      "▁easy": 6548,
      "RR": 6549,
      "▁32": 6550,
      "▁disper": 6551,
      "1}$": 6552,
      "▁maximal": 6553,
      "ille": 6554,
      "^\\mu": 6555,
      "Ne": 6556,
      "{X": 6557,
      "tru": 6558,
      "=\\frac{": 6559,
      "oder": 6560,
      "late": 6561,
      "rem": 6562,
      "}\\frac{": 6563,
      "sf{": 6564,
      "\\\"{": 6565,
      "▁Machine": 6566,
      "▁mov": 6567,
      "ream": 6568,
      "ymmetry": 6569,
      "▁Mark": 6570,
      "_{\\beta": 6571,
      "sters": 6572,
      "▁Se": 6573,
      "osite": 6574,
      "(\\rho": 6575,
      "bullet": 6576,
      "▁impact": 6577,
      ".~J.": 6578,
      "-}": 6579,
      "▁37": 6580,
      "▁sufficiently": 6581,
      "0}\n": 6582,
      "APAC": 6583,
      "--5": 6584,
      "▁35": 6585,
      "▁$B$": 6586,
      "=0}^{": 6587,
      "▁tun": 6588,
      "bound": 6589,
      "use": 6590,
      "udo": 6591,
      "rant": 6592,
      "▁done": 6593,
      "▁[1]{": 6594,
      "ax": 6595,
      "10}": 6596,
      ".~A.": 6597,
      "(z)": 6598,
      "tyset": 6599,
      "▁[0]{\\": 6600,
      "unc": 6601,
      "P.": 6602,
      "▁$\\tilde": 6603,
      "▁$\\varepsilon": 6604,
      "▁mem": 6605,
      "(\\phi": 6606,
      "structure": 6607,
      "▁architecture": 6608,
      "omorphic": 6609,
      "_{h": 6610,
      "}_1": 6611,
      "▁(0,": 6612,
      "▁isomorphism": 6613,
      "▁agreement": 6614,
      "▁hydro": 6615,
      "}{{\\ttfamily": 6616,
      "bibitem": 6617,
      "i:": 6618,
      "▁\\forall": 6619,
      "▁often": 6620,
      "\\setminus": 6621,
      "ssive": 6622,
      "▁coordinates": 6623,
      "yste": 6624,
      "1016/": 6625,
      "l}\n": 6626,
      "nov": 6627,
      "brace": 6628,
      "▁candid": 6629,
      "^{2}\\": 6630,
      "Proof": 6631,
      "▁Techno": 6632,
      ")\\right)": 6633,
      "▁I.": 6634,
      "▁Mar": 6635,
      "▁derivative": 6636,
      "▁embedding": 6637,
      "2019)": 6638,
      "ixel": 6639,
      "▁(B": 6640,
      "enz": 6641,
      "~G": 6642,
      "▁acceler": 6643,
      "▁extra": 6644,
      "tian": 6645,
      "/3": 6646,
      "▁electro": 6647,
      "Fig": 6648,
      "Co": 6649,
      ";\r\n": 6650,
      "}_2": 6651,
      "bly": 6652,
      "▁Here,": 6653,
      "ired": 6654,
      "5}\n": 6655,
      "1)}": 6656,
      "▁Astronom": 6657,
      "9.": 6658,
      "ilbert": 6659,
      "Le": 6660,
      "▁strategy": 6661,
      "L.": 6662,
      "▁canonical": 6663,
      "▁Pre": 6664,
      "▁neutrino": 6665,
      "▁literature": 6666,
      "sist": 6667,
      "{\\\"u}": 6668,
      "ched": 6669,
      "sho": 6670,
      "2018)": 6671,
      "irical": 6672,
      "alk": 6673,
      "▁University,": 6674,
      "-level": 6675,
      "row{": 6676,
      "▁Assume": 6677,
      "▁Institute": 6678,
      "~\\cite": 6679,
      "▁propor": 6680,
      "1}.": 6681,
      "▁generate": 6682,
      "E.": 6683,
      ".~\\eqref{": 6684,
      "gineering": 6685,
      "▁rule": 6686,
      "--4": 6687,
      ",\\dots,": 6688,
      "▁\\citep[": 6689,
      "▁fluid": 6690,
      "ogonal": 6691,
      "cible": 6692,
      "R.": 6693,
      "▁claim": 6694,
      "\\xi": 6695,
      "c,": 6696,
      "▁inner": 6697,
      "▁$H$": 6698,
      "▁examples": 6699,
      "}\\,\\": 6700,
      "joint": 6701,
      "astro-ph": 6702,
      "mos": 6703,
      "▁_{": 6704,
      "▁look": 6705,
      "Eq": 6706,
      "▁third": 6707,
      "▁coher": 6708,
      "ter,": 6709,
      "acy": 6710,
      "}^n": 6711,
      "▁$\\mu$": 6712,
      "sitivity": 6713,
      "isot": 6714,
      "iota": 6715,
      "▁ring": 6716,
      "nonumber\\\\\n": 6717,
      "▁Com": 6718,
      "▁50": 6719,
      "▁${\\bf": 6720,
      "▁$C$": 6721,
      "▁\\end{array}\n": 6722,
      "▁speed": 6723,
      "▁fix": 6724,
      "▁start": 6725,
      "rangian": 6726,
      "8.": 6727,
      "▁circle": 6728,
      "▁recover": 6729,
      "▁,\\": 6730,
      "volutional": 6731,
      "kh": 6732,
      "2}.": 6733,
      "oma": 6734,
      "ush": 6735,
      "▁polic": 6736,
      "▁\\cite{K": 6737,
      "*}": 6738,
      "▁(a)": 6739,
      "key": 6740,
      "▁broad": 6741,
      "▁\\x": 6742,
      "▁\\medskip": 6743,
      "▁conta": 6744,
      "2017)": 6745,
      "▁$\\{\\": 6746,
      "orn": 6747,
      "\\circ": 6748,
      "ometry": 6749,
      "▁year": 6750,
      "▁Springer": 6751,
      "Hz": 6752,
      "▁techniques": 6753,
      "▁depth": 6754,
      "▁radio": 6755,
      "▁and\\\n": 6756,
      "▁grid": 6757,
      "▁masses": 6758,
      "▁categor": 6759,
      "▁combination": 6760,
      "}_{n": 6761,
      "priate": 6762,
      "(\\gamma": 6763,
      "lier": 6764,
      "▁derive": 6765,
      "ropic": 6766,
      "▁help": 6767,
      "(x)$": 6768,
      "})},\\": 6769,
      "yr": 6770,
      "▁principle": 6771,
      "isk": 6772,
      "▁evaluation": 6773,
      "_1+": 6774,
      "...,": 6775,
      "Lett.": 6776,
      "▁math": 6777,
      "▁show\n": 6778,
      "instein": 6779,
      "uan": 6780,
      "widetilde{": 6781,
      "▁generation": 6782,
      "▁(P": 6783,
      "▁\\N": 6784,
      "▁Astrophys": 6785,
      "texts": 6786,
      "▁\\cite{G": 6787,
      "▁\\bibitem[B": 6788,
      "▁computing": 6789,
      "▁Fran": 6790,
      "\\|_{L": 6791,
      "▁$K$": 6792,
      ".pdf": 6793,
      "▁growth": 6794,
      "(\\sigma": 6795,
      "▁reported": 6796,
      "▁and,": 6797,
      "eness": 6798,
      "▁2022": 6799,
      "▁\\section{Introduction": 6800,
      "ket{\\": 6801,
      "bmatrix": 6802,
      "▁distributed": 6803,
      "▁periodic": 6804,
      "▁Multi": 6805,
      "▁table": 6806,
      "▁Rev.\\": 6807,
      "ably": 6808,
      "prefix\\": 6809,
      "▁perturbation": 6810,
      "▁detailed": 6811,
      "}{2}\\": 6812,
      "▁$\\mathcal": 6813,
      "6}\n": 6814,
      "▁treat": 6815,
      "ui.": 6816,
      "▁\\cref{": 6817,
      "▁having": 6818,
      "▁dust": 6819,
      "▁Table~\\ref{": 6820,
      "▁\\cite{M": 6821,
      "▁\\bibinfo{book": 6822,
      "▁connection": 6823,
      "▁variation": 6824,
      "▁conserv": 6825,
      "▁tre": 6826,
      "come": 6827,
      "_\\lambda": 6828,
      "7.": 6829,
      "▁opp": 6830,
      "▁begin": 6831,
      "▁\\zeta": 6832,
      "▁area": 6833,
      "▁\\(": 6834,
      "▁Also": 6835,
      "▁response": 6836,
      "▁Recall": 6837,
      "_{f": 6838,
      "▁\\begin{align}\\label{": 6839,
      "i,j": 6840,
      "▁Press,": 6841,
      "cdots": 6842,
      "▁F.,": 6843,
      "_{y": 6844,
      "{\\v": 6845,
      "▁rates": 6846,
      "gated": 6847,
      "▁\\aap,": 6848,
      "mented": 6849,
      "][]{": 6850,
      "▁vary": 6851,
      "lectron": 6852,
      "▁}\\href\n": 6853,
      "▁seem": 6854,
      "▁\\cite{S": 6855,
      "2]{": 6856,
      "▁(D": 6857,
      "▁graphs": 6858,
      "inosity": 6859,
      "-1}$": 6860,
      "rich": 6861,
      "olute": 6862,
      "infor": 6863,
      "▁\\bigg": 6864,
      "ght": 6865,
      "ynamics": 6866,
      "_{\\mathcal{": 6867,
      "_n)": 6868,
      "▁$\\partial": 6869,
      "LL": 6870,
      "▁diffusion": 6871,
      "▁(197": 6872,
      "▁Fe": 6873,
      "▁counter": 6874,
      "tan": 6875,
      "▁advan": 6876,
      "7}\n": 6877,
      "ards": 6878,
      "mptions": 6879,
      "▁\\H": 6880,
      "▁\\F": 6881,
      "▁makes": 6882,
      "_{\\tau": 6883,
      "}/": 6884,
      "\\textwidth": 6885,
      "otop": 6886,
      "▁$R$": 6887,
      "ases,": 6888,
      "▁38": 6889,
      "m$": 6890,
      "▁spher": 6891,
      "▁pack": 6892,
      "▁K.,": 6893,
      "lasma": 6894,
      "▁errors": 6895,
      "▁e^{": 6896,
      "-1$": 6897,
      "avelength": 6898,
      "▁Work": 6899,
      "avy": 6900,
      "▁integration": 6901,
      "▁attack": 6902,
      "▁36": 6903,
      "gest": 6904,
      "{s": 6905,
      "belian": 6906,
      "-J": 6907,
      "ET": 6908,
      "multi": 6909,
      "▁human": 6910,
      "MC": 6911,
      "▁{A.}~\\bibnamefont": 6912,
      "▁conc": 6913,
      "▁\\end{figure*}\n": 6914,
      "▁conclusion": 6915,
      "isation": 6916,
      "aff": 6917,
      "▁Cambridge": 6918,
      "oto": 6919,
      "skip\n": 6920,
      "ded": 6921,
      "▁driv": 6922,
      "cho": 6923,
      "▁eq": 6924,
      "▁{and}": 6925,
      "▁{\\enquote": 6926,
      "frac{1}{2}\\": 6927,
      "~\\eqref{eq:": 6928,
      "))$": 6929,
      "▁influ": 6930,
      "▁\\sqrt{\\": 6931,
      "cu": 6932,
      "▁appropriate": 6933,
      "▁(wh": 6934,
      "3}$": 6935,
      "▁'": 6936,
      "▁\\newcommand{\\": 6937,
      "▁authors": 6938,
      "ki": 6939,
      "▁entire": 6940,
      "||": 6941,
      "▁After": 6942,
      "forward": 6943,
      "ner,": 6944,
      "formations": 6945,
      "^\\alpha": 6946,
      "(\\mathcal{": 6947,
      "▁(1)": 6948,
      "▁polarization": 6949,
      "▁odd": 6950,
      "idel": 6951,
      "▁detector": 6952,
      "_{n,": 6953,
      "ka": 6954,
      "▁supercon": 6955,
      "▁\\frac{d": 6956,
      "[1": 6957,
      "n.": 6958,
      "▁\\ar[": 6959,
      ")\\leq": 6960,
      "▁repla": 6961,
      "▁poly": 6962,
      "▁{https://ui.": 6963,
      "EC": 6964,
      "▁$\\bar": 6965,
      "▁solve": 6966,
      "{p": 6967,
      "▁external": 6968,
      "▁45": 6969,
      "▁distinct": 6970,
      "▁radial": 6971,
      "oi{": 6972,
      "▁Such": 6973,
      "▁regard": 6974,
      "(\\beta": 6975,
      "▁\\url{https://": 6976,
      "▁\\begin{enumerate}\n": 6977,
      "▁coinci": 6978,
      "▁Chen,": 6979,
      "sen": 6980,
      "▁straight": 6981,
      "▁fact,": 6982,
      "▁3D": 6983,
      "▁\\bibnamefont\r\n": 6984,
      "▁recur": 6985,
      "function": 6986,
      "▁\\cite{C": 6987,
      "\\v": 6988,
      "▁diver": 6989,
      "▁pdf": 6990,
      "▁(and": 6991,
      "▁constants": 6992,
      "▁basic": 6993,
      "▁attention": 6994,
      "▁vacu": 6995,
      "▁Although": 6996,
      "▁axis": 6997,
      "▁\\sup": 6998,
      "=\\sum": 6999,
      "_{R": 7000,
      "nian": 7001,
      "▁mer": 7002,
      "▁\\bin": 7003,
      "▁\\Z": 7004,
      "▁\\small": 7005,
      "{\\natexlab{a": 7006,
      "▁Association": 7007,
      "▁\\end{abstract}\n": 7008,
      "▁proto": 7009,
      "▁29": 7010,
      "_V": 7011,
      "cases}\n": 7012,
      ",y": 7013,
      "{\\natexlab{b": 7014,
      "010": 7015,
      "▁typical": 7016,
      "_{v": 7017,
      "▁model.": 7018,
      "ides": 7019,
      "▁force": 7020,
      "▁considering": 7021,
      "encies": 7022,
      "module": 7023,
      "▁$4": 7024,
      ".~Zh": 7025,
      "▁$\\m": 7026,
      ".com/": 7027,
      "▁0$.": 7028,
      "▁criter": 7029,
      "▁from\n": 7030,
      "_{ij}": 7031,
      "▁\\T": 7032,
      "(U": 7033,
      "▁remark": 7034,
      "tik": 7035,
      "ski,": 7036,
      ",\\alpha": 7037,
      "▁Pattern": 7038,
      "▁National": 7039,
      "_i}": 7040,
      "▁&$": 7041,
      "▁\\re": 7042,
      "▁slow": 7043,
      "_{b": 7044,
      "▁constructed": 7045,
      "▁-1": 7046,
      "interwords": 7047,
      "interwordspa": 7048,
      "▁mapping": 7049,
      "sup": 7050,
      "31": 7051,
      "▁sw": 7052,
      "▁\\href{http://arxiv.org/abs/": 7053,
      "▁massive": 7054,
      "▁algebraic": 7055,
      "_{i,": 7056,
      "▁al.(": 7057,
      "▁later": 7058,
      "▁base": 7059,
      ")\r\n": 7060,
      "▁\\eeq\n": 7061,
      "▁\\begin{split}\n": 7062,
      "▁nature": 7063,
      "fr": 7064,
      "paces": 7065,
      "▁precis": 7066,
      "produ": 7067,
      "inary": 7068,
      "-j": 7069,
      ",\\mu": 7070,
      "-10": 7071,
      "BC": 7072,
      "Ar": 7073,
      "I}": 7074,
      "▁\\hat{\\": 7075,
      "72": 7076,
      "avid": 7077,
      "dy": 7078,
      "vartheta": 7079,
      "▁2015.\n": 7080,
      "▁(L": 7081,
      "▁\\cite{D": 7082,
      "oli": 7083,
      "etti": 7084,
      "▁exhi": 7085,
      "_{0}^{": 7086,
      "▁invari": 7087,
      "dire": 7088,
      "er.": 7089,
      "▁score": 7090,
      "▁$L$": 7091,
      "parse": 7092,
      "slash": 7093,
      "F}": 7094,
      "▁uses": 7095,
      "pto": 7096,
      "mapsto": 7097,
      "linewidth": 7098,
      "▁locally": 7099,
      "tivistic": 7100,
      "▁symbol": 7101,
      "▁vide": 7102,
      "▁expressed": 7103,
      "_{g": 7104,
      "-00": 7105,
      "yond": 7106,
      "▁+\n": 7107,
      "ID": 7108,
      "urity": 7109,
      "SO": 7110,
      "▁conj": 7111,
      "remark}\n": 7112,
      "{2}": 7113,
      "▁\\cite{H": 7114,
      "▁\\end{theorem}\n": 7115,
      "▁\\end{split}\n": 7116,
      "▁efficiency": 7117,
      "▁CO": 7118,
      "&=&": 7119,
      "▁{http://": 7120,
      "▁\\begin{theorem": 7121,
      "ita": 7122,
      "dex": 7123,
      "n}\n": 7124,
      "scopic": 7125,
      "actic": 7126,
      "▁concent": 7127,
      "▁{\\path{": 7128,
      "▁First,": 7129,
      "phant": 7130,
      "▁transport": 7131,
      "cm}\n": 7132,
      "cr": 7133,
      "k},": 7134,
      "begin{array}{": 7135,
      "▁frac": 7136,
      "▁avoid": 7137,
      "▁dx": 7138,
      "▁orbital": 7139,
      "▁(d": 7140,
      "▁differences": 7141,
      "▁$\\left": 7142,
      "uish": 7143,
      "▁shift": 7144,
      "tificial": 7145,
      ")\\|": 7146,
      "(I": 7147,
      "hl": 7148,
      "▁scenario": 7149,
      "vee": 7150,
      "▁quality": 7151,
      "orth": 7152,
      "▁analytic": 7153,
      "orts": 7154,
      "ierarch": 7155,
      "}{\\emph{": 7156,
      "_{\\gamma": 7157,
      "ing.\n": 7158,
      "hspace{": 7159,
      "mated": 7160,
      "▁\\bibitem{L": 7161,
      "ingu": 7162,
      "▁program": 7163,
      "▁\\maketitle\n": 7164,
      "def\\": 7165,
      "▁Higgs": 7166,
      "▁forms": 7167,
      "2016)": 7168,
      "▁2021.\n": 7169,
      "▁game": 7170,
      "▁strict": 7171,
      "vent": 7172,
      "▁clusters": 7173,
      "▁bundle": 7174,
      "▁jet": 7175,
      "▁$t$": 7176,
      "▁syste": 7177,
      "▁1$,": 7178,
      "6$": 7179,
      "scriptsize": 7180,
      "▁success": 7181,
      "_{i}": 7182,
      "\\text{": 7183,
      "_{u": 7184,
      "▁mar": 7185,
      "▁\\title": 7186,
      "fect": 7187,
      "▁relatively": 7188,
      "▁selected": 7189,
      "operator": 7190,
      "▁addition,": 7191,
      "▁Te": 7192,
      "#1\\": 7193,
      "▁\\begin{abstract}\n": 7194,
      "▁coupled": 7195,
      "Journal": 7196,
      ".}}{": 7197,
      "bits": 7198,
      "1f": 7199,
      "2020)": 7200,
      "alog": 7201,
      "▁{https://ui.adsabs.harvard.edu/abs/": 7202,
      "▁identified": 7203,
      "Bst": 7204,
      "\\Omega": 7205,
      "ming": 7206,
      "▁spectro": 7207,
      "▁capture": 7208,
      "▁Liu,": 7209,
      "▁inside": 7210,
      "ald": 7211,
      "^\\circ": 7212,
      "mult": 7213,
      "▁$1$": 7214,
      "▁no.": 7215,
      "versari": 7216,
      "▁contradic": 7217,
      "▁$\\G": 7218,
      "▁$P$": 7219,
      "timal": 7220,
      "▁applying": 7221,
      "▁detected": 7222,
      "▁radiation": 7223,
      "▁(R": 7224,
      "▁ensure": 7225,
      "ries": 7226,
      "anglement": 7227,
      "▁propose": 7228,
      "+k": 7229,
      "▁uncertain": 7230,
      "500": 7231,
      ".$": 7232,
      "▁remov": 7233,
      "IP": 7234,
      "H}": 7235,
      ".~M.": 7236,
      "}\\times": 7237,
      "}),\n": 7238,
      "}.}\n": 7239,
      ",B": 7240,
      "1007/": 7241,
      "$^{\\rm": 7242,
      "4},": 7243,
      "\\varphi": 7244,
      "▁fluctuations": 7245,
      "▁accre": 7246,
      "▁(2)": 7247,
      "(1):": 7248,
      "flow": 7249,
      "▁$m$": 7250,
      "_t$": 7251,
      "/C": 7252,
      "sub": 7253,
      "▁parts": 7254,
      "un,": 7255,
      "definition}\n": 7256,
      "▁anom": 7257,
      "ically,": 7258,
      "▁suff": 7259,
      "We": 7260,
      "▁funct": 7261,
      "▁\\dod": 7262,
      "▁clearly": 7263,
      "a,b": 7264,
      "nm{": 7265,
      "▁\\dodoi{": 7266,
      "▁module": 7267,
      "_J": 7268,
      "(Q": 7269,
      "▁summar": 7270,
      ".\\\\\n": 7271,
      "$_2$": 7272,
      "▁quantities": 7273,
      "xs\n": 7274,
      "▁likely": 7275,
      "▁\\w": 7276,
      "}{d": 7277,
      "ara": 7278,
      "▁{$": 7279,
      "▁pdfxs\n": 7280,
      "▁absolute": 7281,
      "▁luminosity": 7282,
      "2021)": 7283,
      "ibration": 7284,
      "{k": 7285,
      "-free": 7286,
      "▁{\\bibfield\n": 7287,
      "ones": 7288,
      "zed": 7289,
      "▁separate": 7290,
      "tinguish": 7291,
      "▁put": 7292,
      "▁Non": 7293,
      "▁quadratic": 7294,
      "B.": 7295,
      "▁sequences": 7296,
      "^{\\infty": 7297,
      "▁containing": 7298,
      "im,": 7299,
      "vis": 7300,
      "ook": 7301,
      "rystal": 7302,
      "ocal": 7303,
      "▁Fourier": 7304,
      "▁memory": 7305,
      "normal": 7306,
      "_i\\": 7307,
      "▁electric": 7308,
      "sa": 7309,
      "rand": 7310,
      "A..": 7311,
      "yan": 7312,
      "\\csname": 7313,
      ":198": 7314,
      "▁surfaces": 7315,
      "pan": 7316,
      "hal": 7317,
      "▁\\begin{center}\n": 7318,
      "itudes": 7319,
      "▁recall": 7320,
      "▁cyc": 7321,
      "▁The\n": 7322,
      "(\\frac{": 7323,
      "▁redshift": 7324,
      "▁mathe": 7325,
      "▁$V$": 7326,
      "▁Pr": 7327,
      "▁geometric": 7328,
      "▁al.\\": 7329,
      "▁\\bauthor{\\bs": 7330,
      "ayesian": 7331,
      "▁face": 7332,
      "▁\\frac{1}{2}": 7333,
      "▁\\end{center}\n": 7334,
      "\\/}": 7335,
      "){\\": 7336,
      "▁Cal": 7337,
      "^{(n": 7338,
      "▁dispersion": 7339,
      "▁works": 7340,
      ".~I": 7341,
      "▁equivalence": 7342,
      "LO": 7343,
      "ko": 7344,
      "ImAD": 7345,
      "▁solid": 7346,
      "▁Computing": 7347,
      "\\&": 7348,
      "▁respectively,": 7349,
      "▁Den": 7350,
      "▁projec": 7351,
      "▁\\,\\": 7352,
      "\\right]": 7353,
      "▁B.,": 7354,
      "(1+": 7355,
      "▁$0$": 7356,
      "lement": 7357,
      "▁Dec": 7358,
      "racted": 7359,
      "12,": 7360,
      "}\\int": 7361,
      "lip": 7362,
      "ection*": 7363,
      "▁statement": 7364,
      "▁Des": 7365,
      "non": 7366,
      "n},": 7367,
      "\\ifx": 7368,
      "300": 7369,
      "▁$F$": 7370,
      "▁overall": 7371,
      "0.0": 7372,
      "▁bar": 7373,
      "▁\\simeq": 7374,
      "▁sampling": 7375,
      "▁bulk": 7376,
      "arante": 7377,
      "▁beyond": 7378,
      "▁survey": 7379,
      "▁\\dots": 7380,
      "inguistic": 7381,
      "Comp": 7382,
      "▁Each": 7383,
      "▁H.,": 7384,
      "antic": 7385,
      "▁immediate": 7386,
      "▁relax": 7387,
      "f,": 7388,
      "yl": 7389,
      "▁iden": 7390,
      "▁major": 7391,
      "endcsname\\relax": 7392,
      "▁34": 7393,
      "▁represented": 7394,
      "\\ifx\\csname": 7395,
      "▁\\mcite": 7396,
      "man},": 7397,
      "▁computer": 7398,
      "era": 7399,
      ":\\penalty0": 7400,
      "bd": 7401,
      "DM": 7402,
      "\\/": 7403,
      "uz": 7404,
      "▁\\bibnamefont{and}\n": 7405,
      "char": 7406,
      "(s,": 7407,
      "Punct": 7408,
      "▁appears": 7409,
      "1&": 7410,
      "▁\\mathcal": 7411,
      "e:": 7412,
      "▁whereas": 7413,
      "auto": 7414,
      "▁adm": 7415,
      "▁produce": 7416,
      "▁fore": 7417,
      "▁developed": 7418,
      "iu": 7419,
      "{Z": 7420,
      "▁scales": 7421,
      "_1$,": 7422,
      "▁${\\rm": 7423,
      ".06": 7424,
      "ing}": 7425,
      "▁(G": 7426,
      "#1}\\": 7427,
      "▁ont": 7428,
      "oti": 7429,
      "▁observable": 7430,
      "▁\\expandafter\\ifx\\csname": 7431,
      "_{C": 7432,
      "▁1}": 7433,
      ",\\quad": 7434,
      "ell,": 7435,
      "versarial": 7436,
      "▁fast": 7437,
      "rad": 7438,
      "RS": 7439,
      "▁abund": 7440,
      "▁SM": 7441,
      "subset": 7442,
      "▁itself": 7443,
      "▁inver": 7444,
      "-I": 7445,
      "^\\ast": 7446,
      "▁ApJ": 7447,
      "▁assumptions": 7448,
      ".~O": 7449,
      "@{": 7450,
      "}\\right]": 7451,
      "▁\\wedge": 7452,
      "luid": 7453,
      "_0$,": 7454,
      "▁joint": 7455,
      "▁Intellig": 7456,
      "▁$u$": 7457,
      ",\\beta": 7458,
      "eld": 7459,
      "}}},\n": 7460,
      "/S": 7461,
      "_{z": 7462,
      "in}": 7463,
      "_{2,": 7464,
      "▁communication": 7465,
      "▁we\n": 7466,
      "=0$.": 7467,
      "▁evaluate": 7468,
      "Res": 7469,
      "▁$\\v": 7470,
      "super": 7471,
      "▁depending": 7472,
      "sur": 7473,
      "morph": 7474,
      "2015)": 7475,
      "▁reduce": 7476,
      "▁data.": 7477,
      "▁lif": 7478,
      "▁degener": 7479,
      "city": 7480,
      "-dependent": 7481,
      "-8": 7482,
      "\\colon": 7483,
      "▁contained": 7484,
      "1997": 7485,
      "▁predictions": 7486,
      "nergy": 7487,
      "▁slightly": 7488,
      "reducible": 7489,
      "210": 7490,
      "br": 7491,
      "▁ren": 7492,
      "▁variance": 7493,
      "(x,y": 7494,
      "_{+": 7495,
      "bing": 7496,
      "▁Vol": 7497,
      "lam": 7498,
      "_{\\mu\\nu": 7499,
      "mathbf": 7500,
      "https://arxiv.org/abs/": 7501,
      "▁limited": 7502,
      "▁investigate": 7503,
      "▁usual": 7504,
      "▁sui": 7505,
      "▁Recognition": 7506,
      "▁\\bibitem{P": 7507,
      "▁preserv": 7508,
      "|$": 7509,
      "▁place": 7510,
      "▁predicted": 7511,
      "▁eigenvalues": 7512,
      "▁(2014": 7513,
      "▁(with": 7514,
      "▁repe": 7515,
      "3--": 7516,
      "▁Lagrangian": 7517,
      "oly": 7518,
      "▁parame": 7519,
      "oton": 7520,
      "crete": 7521,
      "▁towards": 7522,
      "▁\\set": 7523,
      "punct": 7524,
      "0.00": 7525,
      "}(z": 7526,
      "pid": 7527,
      "▁Symp": 7528,
      "}&": 7529,
      "▁\\]\r\n": 7530,
      "▁(1": 7531,
      ")$-": 7532,
      "▁\\tilde{\\": 7533,
      "pecial": 7534,
      "▁active": 7535,
      "▁pixel": 7536,
      "\\cup": 7537,
      "▁\\max": 7538,
      "norm": 7539,
      "layer": 7540,
      "ket{": 7541,
      "▁\\vert": 7542,
      "}\\label{sec:": 7543,
      "▁indicates": 7544,
      "▁el": 7545,
      "ode": 7546,
      "(\\pi": 7547,
      "▁above,": 7548,
      "la,": 7549,
      "▁box": 7550,
      "▁achieve": 7551,
      "▁\\node": 7552,
      "8$": 7553,
      "▁confir": 7554,
      "\\Delta": 7555,
      "VPR": 7556,
      "aco": 7557,
      "hao": 7558,
      "▁produced": 7559,
      "arities": 7560,
      "▁too": 7561,
      "ing},": 7562,
      "ly.": 7563,
      "enberg": 7564,
      "awa": 7565,
      "▁1em": 7566,
      "-type": 7567,
      "ftwo": 7568,
      "▁&\\leq": 7569,
      "▁(I": 7570,
      "▁$v$": 7571,
      "▁match": 7572,
      "▁(i)": 7573,
      "cz": 7574,
      "address": 7575,
      "\\Vert": 7576,
      "s$": 7577,
      "em\\relax": 7578,
      "va": 7579,
      "▁0.5em": 7580,
      "▁homogeneous": 7581,
      "}_i": 7582,
      "▁``A": 7583,
      "▁00": 7584,
      "\\over": 7585,
      "▁absorption": 7586,
      "▁0.4em\\relax": 7587,
      "▁$,": 7588,
      "j,": 7589,
      "alities": 7590,
      "irt": 7591,
      "}{n": 7592,
      "▁11": 7593,
      "corollary": 7594,
      "\\partial": 7595,
      "▁\\vec": 7596,
      "uments": 7597,
      ".~J.,": 7598,
      "osium": 7599,
      "▁data,": 7600,
      ":2015": 7601,
      "▁\\bibitem{F": 7602,
      "▁4.": 7603,
      "gramm": 7604,
      "▁whole": 7605,
      "▁\\paragraph": 7606,
      "urope": 7607,
      "-z": 7608,
      "▁Springer,": 7609,
      "▁Sur": 7610,
      "algorithm": 7611,
      "}^{2}": 7612,
      "illiam": 7613,
      "Set": 7614,
      "{\\alpha": 7615,
      "-2\\": 7616,
      "▁amount": 7617,
      "▁feed": 7618,
      "_{12}": 7619,
      "▁et~al\\mbox{.}}{": 7620,
      "ourse": 7621,
      "▁orthogonal": 7622,
      "enchmark": 7623,
      "}\\rangle": 7624,
      "AB": 7625,
      "▁generic": 7626,
      "▁vacuum": 7627,
      "phantom": 7628,
      "atcode": 7629,
      "▁39": 7630,
      "elihood": 7631,
      "▁extreme": 7632,
      "0004-6": 7633,
      "}}^{": 7634,
      "_{k=1}": 7635,
      "▁guarante": 7636,
      "(i)": 7637,
      "▁Mech": 7638,
      "ading": 7639,
      "lar": 7640,
      "▁wavelength": 7641,
      "det": 7642,
      "GN": 7643,
      "▁Rem": 7644,
      "osh": 7645,
      "orre": 7646,
      "ulus": 7647,
      "{u": 7648,
      "1996": 7649,
      "▁\\citenamefont\r\n": 7650,
      "_{e": 7651,
      "▁48": 7652,
      "_2$,": 7653,
      "mary": 7654,
      "mode": 7655,
      "▁intensity": 7656,
      "▁neutron": 7657,
      "hol": 7658,
      "▁\\multirow{": 7659,
      "▁remaining": 7660,
      "acc": 7661,
      "▁expect": 7662,
      "(5": 7663,
      "SM": 7664,
      "▁ru": 7665,
      "_{K": 7666,
      "pal": 7667,
      "ultaneous": 7668,
      "▁$1/": 7669,
      "\\cdots": 7670,
      "S,": 7671,
      "▁\\boldsymbol": 7672,
      "▁Communic": 7673,
      "osing": 7674,
      "learning": 7675,
      "▁quite": 7676,
      "▁e.g.,": 7677,
      "▁(i.e.,": 7678,
      "}}(\\": 7679,
      "iang": 7680,
      "}_{k": 7681,
      "matically": 7682,
      "▁bias": 7683,
      "▁molecular": 7684,
      "▁operation": 7685,
      "aster": 7686,
      "ening": 7687,
      "10.11": 7688,
      "uparrow": 7689,
      "H.": 7690,
      "]$.": 7691,
      "▁uniformly": 7692,
      "rint": 7693,
      "JImAD": 7694,
      "▁build": 7695,
      "▁3.": 7696,
      "▁behaviour": 7697,
      "▁internal": 7698,
      "▁answ": 7699,
      "b8": 7700,
      "_{M": 7701,
      "▁although": 7702,
      "▁translation": 7703,
      "▁$\\B": 7704,
      "▁Society": 7705,
      "9}\n": 7706,
      "}}.": 7707,
      "dimensional": 7708,
      "ux": 7709,
      "--6": 7710,
      "te,": 7711,
      "▁degre": 7712,
      "▁La": 7713,
      "ican": 7714,
      "▁N.,": 7715,
      "▁goal": 7716,
      "▁limits": 7717,
      "\\;": 7718,
      "▁she": 7719,
      "_{0,": 7720,
      "▁$k$-": 7721,
      "▁{S.}~\\bibnamefont": 7722,
      "_{\\theta": 7723,
      ")^{\\": 7724,
      "is},": 7725,
      "ALT": 7726,
      "RB": 7727,
      "▁$\\sim$": 7728,
      "BLP": 7729,
      "▁47": 7730,
      "▁time,": 7731,
      "trins": 7732,
      "▁layers": 7733,
      "▁Mich": 7734,
      "▁$\\t": 7735,
      "▁matching": 7736,
      "▁needed": 7737,
      "▁inference": 7738,
      "oo": 7739,
      "▁starting": 7740,
      "▁2014.\n": 7741,
      "▁holo": 7742,
      "▁$\\zeta": 7743,
      ":2014": 7744,
      "▁transmission": 7745,
      "▁\\(\\": 7746,
      "▁retur": 7747,
      "▁Section~\\ref{sec:": 7748,
      "ands": 7749,
      "(l": 7750,
      "▁steps": 7751,
      "▁\\q": 7752,
      "▁decision": 7753,
      "trics": 7754,
      "cher": 7755,
      "ares": 7756,
      "uck": 7757,
      "▁-2": 7758,
      "ondo": 7759,
      "cade": 7760,
      "nel": 7761,
      "▁an\n": 7762,
      "▁\\ref{thm:": 7763,
      "SC": 7764,
      "▁\\sum_{i=1}": 7765,
      "▁dense": 7766,
      "▁$\\g": 7767,
      "~(\\ref{": 7768,
      "▁draw": 7769,
      "roll": 7770,
      "▁fail": 7771,
      "▁densities": 7772,
      "▁{X": 7773,
      "brid": 7774,
      "p}\n": 7775,
      "▁\\bf": 7776,
      "ard,": 7777,
      "▁\\BIBentry": 7778,
      "▁conjecture": 7779,
      ")^{": 7780,
      "▁Sto": 7781,
      "[0,": 7782,
      "▁$r$": 7783,
      "_2^2": 7784,
      "▁desired": 7785,
      "▁underlying": 7786,
      "▁against": 7787,
      "EN": 7788,
      "loop": 7789,
      "▁Comput": 7790,
      "enc": 7791,
      "pt}{0.400": 7792,
      "_{12": 7793,
      ":2016": 7794,
      "rup": 7795,
      "▁regression": 7796,
      "▁Chem": 7797,
      ")\\times": 7798,
      "▁post": 7799,
      "▁address": 7800,
      "▁Sciences": 7801,
      "_{F": 7802,
      "ects": 7803,
      "\\%$": 7804,
      "▁situation": 7805,
      "▁covari": 7806,
      "11,": 7807,
      "arith": 7808,
      "▁\\emph{arXiv": 7809,
      ":2013": 7810,
      "De": 7811,
      ",x": 7812,
      "-res": 7813,
      "slant": 7814,
      "▁conformal": 7815,
      "\\quad": 7816,
      "artin": 7817,
      "▁turn": 7818,
      "▁$1.": 7819,
      "gather": 7820,
      "enta": 7821,
      "^2(\\": 7822,
      "▁$a$": 7823,
      "bon": 7824,
      "~A": 7825,
      "}^{-1}": 7826,
      "BLP:": 7827,
      "▁modified": 7828,
      ":2017": 7829,
      "▁2018": 7830,
      "▁\\beq\n": 7831,
      "▁implementation": 7832,
      "▁{J.}~\\bibnamefont": 7833,
      "olved": 7834,
      "cience": 7835,
      "dens": 7836,
      "▁his": 7837,
      "▁mentioned": 7838,
      ",q": 7839,
      "▁continuum": 7840,
      "multline": 7841,
      "▁Physics,": 7842,
      "▁Algorithm": 7843,
      "▁challen": 7844,
      "{e": 7845,
      "G}": 7846,
      "_{4": 7847,
      "▁shock": 7848,
      "aylor": 7849,
      "▁\\A": 7850,
      "▁discover": 7851,
      "ini,": 7852,
      "\\}$,": 7853,
      "▁cosmological": 7854,
      "nical": 7855,
      "nor": 7856,
      "#1}\n": 7857,
      "▁branch": 7858,
      "▁therm": 7859,
      "part": 7860,
      "proposition}\n": 7861,
      "/n": 7862,
      "▁satisfied": 7863,
      "oung": 7864,
      "}^{n": 7865,
      "atives": 7866,
      "ube": 7867,
      "▁$\\Psi": 7868,
      "ton,": 7869,
      "▁cloud": 7870,
      "▁$\\F": 7871,
      ".04": 7872,
      "~S": 7873,
      "▁memb": 7874,
      "▁(p": 7875,
      "▁highly": 7876,
      "+1}$": 7877,
      "▁onto": 7878,
      ".00,": 7879,
      "atz": 7880,
      "▁(t": 7881,
      "uler": 7882,
      "▁\\un": 7883,
      "▁\\setminus": 7884,
      "▁usually": 7885,
      "-me": 7886,
      "▁\\bibinfo{booktitle": 7887,
      "black": 7888,
      "He": 7889,
      "▁trained": 7890,
      "cm}": 7891,
      "bas": 7892,
      "-7": 7893,
      "▁10^{": 7894,
      "2001": 7895,
      ")\\cdot": 7896,
      "▁&&\\": 7897,
      "▁nuclear": 7898,
      "▁GeV": 7899,
      "▁heat": 7900,
      "▁technique": 7901,
      "▁reprodu": 7902,
      "negative": 7903,
      "▁irreducible": 7904,
      "▁33": 7905,
      "▁$\\cal": 7906,
      "▁align": 7907,
      "ises": 7908,
      "▁vol.": 7909,
      "▁completely": 7910,
      "▁equality": 7911,
      ")A": 7912,
      "{r": 7913,
      "▁Collaboration": 7914,
      "▁measures": 7915,
      "▁list": 7916,
      ").\r\n": 7917,
      "lide": 7918,
      "oisson": 7919,
      "pole": 7920,
      "ica": 7921,
      "▁convolutional": 7922,
      "arth": 7923,
      "_\\beta": 7924,
      "▁uniqu": 7925,
      "^{j": 7926,
      "uropean": 7927,
      "▁formulation": 7928,
      "▁{\\tt": 7929,
      "▁$1\\": 7930,
      "ype": 7931,
      "▁agent": 7932,
      "▁2017": 7933,
      ".07": 7934,
      "▁Po": 7935,
      "▁\\noindent\n": 7936,
      "~J": 7937,
      "▁Hilbert": 7938,
      "▁assuming": 7939,
      "▁Proc.": 7940,
      "▁44": 7941,
      "▁dedu": 7942,
      "▁access": 7943,
      "^{(1)}": 7944,
      "106": 7945,
      "▁turbul": 7946,
      "HC": 7947,
      "tempurl": 7948,
      "▁proportional": 7949,
      "DD": 7950,
      "-qc": 7951,
      "owski": 7952,
      "entific": 7953,
      "▁Now,": 7954,
      "▁$g$": 7955,
      "▁John": 7956,
      "▁thick": 7957,
      "+1,": 7958,
      "▁puls": 7959,
      "▁49": 7960,
      "01}": 7961,
      ".~Z": 7962,
      "▁55": 7963,
      "tral": 7964,
      "▁\\G": 7965,
      "▁hierarch": 7966,
      "ived": 7967,
      "-hand": 7968,
      "-u": 7969,
      "▁topology": 7970,
      "▁\\dots,": 7971,
      "▁transitions": 7972,
      "\\subseteq": 7973,
      "on.": 7974,
      "▁height": 7975,
      "▁Trans.": 7976,
      "▁\\str": 7977,
      "▁correlations": 7978,
      "LE": 7979,
      "▁$D$": 7980,
      "\\|\\": 7981,
      "▁{et~al.}(201": 7982,
      "f}": 7983,
      "oles": 7984,
      "▁Mc": 7985,
      "▁\\emph{\\": 7986,
      "▁sections": 7987,
      "020": 7988,
      "▁then\n": 7989,
      "ibra": 7990,
      "\\d": 7991,
      "olhead": 7992,
      "})=": 7993,
      "▁46": 7994,
      "▁$\\sum": 7995,
      "▁rational": 7996,
      "▁Bec": 7997,
      "▁explicitly": 7998,
      ")\\to": 7999,
      "~K": 8000,
      "▁$\\H": 8001,
      "▁form\n": 8002,
      "▁aim": 8003,
      "stable": 8004,
      "▁reconstruction": 8005,
      "Ph": 8006,
      "▁mid": 8007,
      "$\\,": 8008,
      "▁consequence": 8009,
      "mini": 8010,
      "▁location": 8011,
      "ounter": 8012,
      "▁early": 8013,
      "berger": 8014,
      "▁Corollary": 8015,
      "py": 8016,
      "(0.": 8017,
      "_{\\infty": 8018,
      "nowled": 8019,
      "▁processing": 8020,
      "▁trace": 8021,
      "▁Similarly,": 8022,
      ")$,\n": 8023,
      "us,": 8024,
      "▁distinguish": 8025,
      "▁\\[\r\n": 8026,
      "1$,": 8027,
      "▁{The": 8028,
      "\\equiv": 8029,
      "▁Har": 8030,
      "bic": 8031,
      "▁conveni": 8032,
      "Fe": 8033,
      "-O": 8034,
      "].": 8035,
      "▁pseudo": 8036,
      "^{(k": 8037,
      "▁difficult": 8038,
      "▁Eq.~\\eqref{": 8039,
      "wang": 8040,
      "▁\\colon": 8041,
      "▁modeling": 8042,
      "atory": 8043,
      "rank": 8044,
      ")-\\": 8045,
      "air": 8046,
      "▁reve": 8047,
      "▁segmentation": 8048,
      "}\\leq": 8049,
      "▁$\\hat{\\": 8050,
      "^\\top": 8051,
      "▁composition": 8052,
      "▁Linguistic": 8053,
      "▁explain": 8054,
      "▁fiber": 8055,
      "▁solar": 8056,
      "▁York,": 8057,
      "▁heavy": 8058,
      "^n$": 8059,
      "▁shif": 8060,
      "une": 8061,
      "K}": 8062,
      "PC": 8063,
      "▁$\\lambda$": 8064,
      "m}\n": 8065,
      "▁slo": 8066,
      "cell": 8067,
      "}{N": 8068,
      "conf": 8069,
      "▁glu": 8070,
      "▁{Sh": 8071,
      "▁combined": 8072,
      "▁subspace": 8073,
      "s}.\n": 8074,
      ":2018": 8075,
      "8}\n": 8076,
      "▁idea": 8077,
      "V}": 8078,
      "enn": 8079,
      "izations": 8080,
      "▁contact": 8081,
      "▁\\bibinfo{journal}{Phys.": 8082,
      "entz": 8083,
      "rob": 8084,
      "105": 8085,
      "▁att": 8086,
      "et,": 8087,
      "▁though": 8088,
      "el},": 8089,
      "^{\\dagger": 8090,
      "inity": 8091,
      "▁\\{\\": 8092,
      "ender": 8093,
      "ise,": 8094,
      "▁permu": 8095,
      "▁variety": 8096,
      "nual": 8097,
      "▁$\\l": 8098,
      "▁Fermi": 8099,
      "iy": 8100,
      "▁Under": 8101,
      "▁select": 8102,
      "▁weights": 8103,
      "}_{j": 8104,
      "▁uncertainties": 8105,
      "_{0}": 8106,
      "▁\\ln": 8107,
      "_{-\\": 8108,
      "▁generalization": 8109,
      "▁(3": 8110,
      "▁1.5": 8111,
      "▁\\bs": 8112,
      "▁degrees": 8113,
      "▁\\medskip\n": 8114,
      "13}": 8115,
      "FC": 8116,
      "▁move": 8117,
      "▁suppose": 8118,
      "▁40": 8119,
      "▁$\\P": 8120,
      "{v": 8121,
      "▁chemical": 8122,
      "▁proces": 8123,
      ",Y": 8124,
      "^{\\ast": 8125,
      "▁\\href{https://doi.org/10.": 8126,
      ")+\\": 8127,
      "scale": 8128,
      "▁In:": 8129,
      "▁2D": 8130,
      "▁achieved": 8131,
      "_Y": 8132,
      "▁suitable": 8133,
      "▁{van": 8134,
      "(2):": 8135,
      "▁halo": 8136,
      "rg": 8137,
      "operatorname": 8138,
      "▁(H": 8139,
      "]{B": 8140,
      "▁indicate": 8141,
      "lesc": 8142,
      "▁High": 8143,
      "▁dimensions": 8144,
      "▁ensemble": 8145,
      ".~A.,": 8146,
      "plan": 8147,
      "bc": 8148,
      "▁SU": 8149,
      "▁bal": 8150,
      "_{-": 8151,
      "7$": 8152,
      "▁waves": 8153,
      "anov": 8154,
      "~(": 8155,
      "ublic": 8156,
      "▁disp": 8157,
      "}(k": 8158,
      "=3": 8159,
      "▁\\[\\": 8160,
      "▁Riem": 8161,
      "_c$": 8162,
      "▁(e.g.,": 8163,
      ">0$,": 8164,
      "▁2016": 8165,
      "(\\eta": 8166,
      "uj": 8167,
      ".~Ch": 8168,
      "▁well-": 8169,
      "▁cru": 8170,
      "▁collection": 8171,
      "_{G": 8172,
      "ael": 8173,
      "▁in\r\n": 8174,
      "1--1": 8175,
      "▁motiv": 8176,
      "▁\\end{pmatrix": 8177,
      "▁Symposium": 8178,
      "uit": 8179,
      "▁exchange": 8180,
      "}{{\\em": 8181,
      "v\n": 8182,
      "ato": 8183,
      "▁$x\\in": 8184,
      "▁morphism": 8185,
      "▁2019": 8186,
      "▁\\bibitem{k": 8187,
      "▁anisot": 8188,
      "▁systematic": 8189,
      "\\int": 8190,
      "-9": 8191,
      "App": 8192,
      "▁Lett.}\\": 8193,
      "▁phases": 8194,
      "tikz": 8195,
      "▁two-": 8196,
      "tep": 8197,
      "-field": 8198,
      "▁plasma": 8199,
      "rew": 8200,
      ".08": 8201,
      "▁\\end{equation}": 8202,
      "▁evidence": 8203,
      "▁$\\gamma$": 8204,
      "lin,": 8205,
      "_{I": 8206,
      "▁quantity": 8207,
      "jector": 8208,
      "▁Cho": 8209,
      "▁instance,": 8210,
      "▁2$": 8211,
      "[width": 8212,
      "hard": 8213,
      "▁except": 8214,
      "▁understanding": 8215,
      "▁{\\path{doi:": 8216,
      "hep-ph/": 8217,
      "▁bright": 8218,
      "Lemma": 8219,
      "times$": 8220,
      "▁\\draw[": 8221,
      "\\frac{\\": 8222,
      "▁2015": 8223,
      "▁Lor": 8224,
      "▁\\bar{\\": 8225,
      "▁existing": 8226,
      ",\\lambda": 8227,
      "ital": 8228,
      "▁exam": 8229,
      "▁resonance": 8230,
      "▁axi": 8231,
      "▁corrections": 8232,
      "▁serv": 8233,
      "oling": 8234,
      "▁(for": 8235,
      "▁That": 8236,
      "▁Because": 8237,
      "\\bibinitperiod},\n": 8238,
      "ON": 8239,
      "▁kinetic": 8240,
      "▁\\section{Introduction}\n": 8241,
      "V.": 8242,
      "▁atomic": 8243,
      "_1,\\dots,": 8244,
      "▁protocol": 8245,
      "ch,": 8246,
      "hep-th/": 8247,
      "quid": 8248,
      "ontinu": 8249,
      "^3$": 8250,
      "\\ell": 8251,
      "▁\\bibitem{R": 8252,
      "p$": 8253,
      "▁According": 8254,
      "{1": 8255,
      "logy,": 8256,
      "▁exper": 8257,
      "OR": 8258,
      "({\\": 8259,
      "bolic": 8260,
      "lassical": 8261,
      "▁pas": 8262,
      "▁\\lesssim": 8263,
      "well": 8264,
      "▁priv": 8265,
      "▁at\n": 8266,
      "▁learn": 8267,
      "2)}": 8268,
      "▁Ref.~\\cite{": 8269,
      "▁universal": 8270,
      "▁interact": 8271,
      "93/": 8272,
      "▁Tak": 8273,
      "logies": 8274,
      "sti": 8275,
      "}[t": 8276,
      "}{3": 8277,
      "▁solving": 8278,
      "_W": 8279,
      "\\'{e}": 8280,
      "_1=": 8281,
      "▁0.3": 8282,
      "▁averag": 8283,
      ")/": 8284,
      "▁(e": 8285,
      "EM": 8286,
      "▁included": 8287,
      "edom": 8288,
      "gr-qc": 8289,
      "▁concept": 8290,
      "trinsic": 8291,
      "▁(h": 8292,
      "intro": 8293,
      "fill=": 8294,
      "empty": 8295,
      "▁$\\T": 8296,
      "▁planet": 8297,
      "▁{Bar": 8298,
      "▁five": 8299,
      "agn": 8300,
      "field": 8301,
      "▁conference": 8302,
      "20,": 8303,
      "▁QCD": 8304,
      ">\n": 8305,
      "ently": 8306,
      "▁Y.,": 8307,
      "41": 8308,
      "MNRAS.4": 8309,
      "s+": 8310,
      "ctic": 8311,
      "uration": 8312,
      "▁accretion": 8313,
      "▁vio": 8314,
      "\\`": 8315,
      "▁\\end{proof": 8316,
      "▁\\nonumber\\\\\n": 8317,
      "cla": 8318,
      "▁hep-": 8319,
      "_1^2": 8320,
      "ma,": 8321,
      "pt}{0.400pt}}\r\n": 8322,
      "▁simultaneous": 8323,
      "l|": 8324,
      "try,": 8325,
      "tors": 8326,
      "LM": 8327,
      "▁transverse": 8328,
      "▁$E$": 8329,
      "mathscr": 8330,
      "G.": 8331,
      "displaystyle": 8332,
      "ensing": 8333,
      "▁longer": 8334,
      "▁Lu": 8335,
      "▁rapid": 8336,
      "▁policy": 8337,
      "N$": 8338,
      "▁this,": 8339,
      "^b": 8340,
      "^q": 8341,
      "▁attribu": 8342,
      "▁straightforward": 8343,
      "uss": 8344,
      "ider": 8345,
      "▁reduces": 8346,
      "cdots,": 8347,
      "{{\\": 8348,
      "A&": 8349,
      "triv": 8350,
      "chen": 8351,
      "▁content": 8352,
      "word": 8353,
      "▁\\\n": 8354,
      "iting": 8355,
      "▁demonstrate": 8356,
      "▁perfect": 8357,
      "▁{Zh": 8358,
      "_\\tau": 8359,
      "15,": 8360,
      ".~M.,": 8361,
      "left[": 8362,
      "def:": 8363,
      "2d": 8364,
      "\\log": 8365,
      "ls": 8366,
      "▁Lett.}": 8367,
      "0},": 8368,
      "▁1)": 8369,
      "▁showed": 8370,
      "▁expand": 8371,
      "▁hypothesis": 8372,
      "upp": 8373,
      "H$": 8374,
      "▁$\\bar{": 8375,
      "17,": 8376,
      "▁indeed": 8377,
      "▁entanglement": 8378,
      "{In": 8379,
      "▁``S": 8380,
      "▁\\nonumber\n": 8381,
      "▁making": 8382,
      "▁{\n": 8383,
      "▁\\colhead": 8384,
      "mann,": 8385,
      "uni": 8386,
      "▁Set": 8387,
      "-up": 8388,
      "▁functor": 8389,
      "▁Am": 8390,
      "▁spacetime": 8391,
      "▁obtain\n": 8392,
      "▁approximately": 8393,
      "infty$": 8394,
      "▁Deep": 8395,
      "term": 8396,
      "(y)": 8397,
      "subsec:": 8398,
      "▁obvious": 8399,
      "lanck": 8400,
      "▁Bo": 8401,
      "SI": 8402,
      "Me": 8403,
      "▁aspec": 8404,
      "▁$\\f": 8405,
      "▁infer": 8406,
      "▁*": 8407,
      "▁CP": 8408,
      "_i$,": 8409,
      "get": 8410,
      "▁\\strng": 8411,
      "▁typically": 8412,
      "▁Reg": 8413,
      "SF": 8414,
      "▁Si": 8415,
      "ulated": 8416,
      "▁\\label{eq": 8417,
      "978": 8418,
      "▁low-": 8419,
      "ignal": 8420,
      "(-\\": 8421,
      "^5": 8422,
      "f\n": 8423,
      "▁gen": 8424,
      "})}": 8425,
      "uh": 8426,
      "▁$\\beta$": 8427,
      "widetilde{\\": 8428,
      "{$\\": 8429,
      "▁occurs": 8430,
      "▁includes": 8431,
      "▁2000": 8432,
      "▁196": 8433,
      "▁renormal": 8434,
      "ots": 8435,
      "{d": 8436,
      "binits": 8437,
      "▁[hep-ph": 8438,
      "\\epsilon": 8439,
      "▁(2011)": 8440,
      "▁Engineering": 8441,
      "▁Ji": 8442,
      "▁Or": 8443,
      "▁\\min": 8444,
      "(-": 8445,
      "-valu": 8446,
      "▁stage": 8447,
      "ke,": 8448,
      "▁Observ": 8449,
      "▁otherwise": 8450,
      "^{t": 8451,
      "▁system,": 8452,
      "▁\\end{eqnarray*}\n": 8453,
      "▁stress": 8454,
      "▁Second": 8455,
      "▁Dirac": 8456,
      ":2012": 8457,
      "frac{1}{2": 8458,
      "number": 8459,
      "▁course": 8460,
      "▁ones": 8461,
      "▁$\\boldsymbol": 8462,
      "▁\\M": 8463,
      "ulations": 8464,
      "--7": 8465,
      "▁normalized": 8466,
      "▁CM": 8467,
      "▁temporal": 8468,
      "nm{{": 8469,
      ")\\Big": 8470,
      "▁intermediate": 8471,
      "▁unitary": 8472,
      "ande": 8473,
      "\\catcode": 8474,
      "parti": 8475,
      "ctural": 8476,
      "▁$\\tilde{\\": 8477,
      "*}{": 8478,
      "▁(2000": 8479,
      "▁meas": 8480,
      "▁Found": 8481,
      "▁colo": 8482,
      "▁theory,": 8483,
      "GB": 8484,
      "morphic": 8485,
      "▁identical": 8486,
      "▁bottom": 8487,
      "▁&0.": 8488,
      "rn": 8489,
      "▁rough": 8490,
      "▁elliptic": 8491,
      "▁keep": 8492,
      "▁organ": 8493,
      ",\\theta": 8494,
      "▁orbit": 8495,
      "▁models,": 8496,
      "an}": 8497,
      "rary": 8498,
      "ubble": 8499,
      "▁work,": 8500,
      "▁freedom": 8501,
      "_{\\b": 8502,
      "inear": 8503,
      "▁vertical": 8504,
      "▁largest": 8505,
      "{\\theta": 8506,
      "^{s": 8507,
      "▁Do": 8508,
      "▁evaluated": 8509,
      "(W": 8510,
      "OM": 8511,
      "-1}}": 8512,
      "▁weighted": 8513,
      "▁-\\frac{": 8514,
      "▁(Fig": 8515,
      "▁prime": 8516,
      "▁{http://adsabs.harvard.edu/abs/": 8517,
      "_{ab": 8518,
      "▁0.7": 8519,
      "▁triang": 8520,
      ",m": 8521,
      "▁video": 8522,
      "^l": 8523,
      "omic": 8524,
      "▁greater": 8525,
      "▁dependent": 8526,
      "▁objective": 8527,
      "▁namely": 8528,
      "2c": 8529,
      "▁alternative": 8530,
      "▁fitting": 8531,
      "ler,": 8532,
      "▁{An": 8533,
      "ifferential": 8534,
      ",T": 8535,
      "▁\\begin{eqnarray*}\n": 8536,
      ",''\n": 8537,
      "▁$\\frac{": 8538,
      "▁proton": 8539,
      "\\left[": 8540,
      "▁influence": 8541,
      "▁\\binits": 8542,
      ".11": 8543,
      "▁notion": 8544,
      "▁mixing": 8545,
      "▁}$": 8546,
      "rief": 8547,
      "ored": 8548,
      "▁chiral": 8549,
      "▁{Re": 8550,
      "▁$\\phi$": 8551,
      "_j)": 8552,
      "iton": 8553,
      "\\end{": 8554,
      "▁follows.": 8555,
      "▁$d$": 8556,
      "▁in~\\cite{": 8557,
      "SR": 8558,
      "▁eigenvalue": 8559,
      "▁this\n": 8560,
      "aga": 8561,
      "▁que": 8562,
      "▁\t\t\t": 8563,
      "base": 8564,
      "_s$": 8565,
      "▁Auto": 8566,
      "▁$5": 8567,
      "_{[": 8568,
      "'!": 8569,
      "^{(1)": 8570,
      "▁compati": 8571,
      "LT": 8572,
      "true": 8573,
      "▁configurations": 8574,
      "factor": 8575,
      ",\\tau": 8576,
      "▁cohom": 8577,
      "mi": 8578,
      "10^{-": 8579,
      "gi": 8580,
      "};": 8581,
      "▁pass": 8582,
      "▁\\oplus": 8583,
      "▁99": 8584,
      "▁e.g.": 8585,
      "ea": 8586,
      "▁\\and": 8587,
      "rack": 8588,
      "y}\n": 8589,
      "verb": 8590,
      "▁\\bibitem[S": 8591,
      "▁candidate": 8592,
      "\\}$.": 8593,
      "▁thank": 8594,
      "downarrow": 8595,
      "▁(as": 8596,
      "▁\\emph{et": 8597,
      "▁superconduct": 8598,
      ",\\infty": 8599,
      "▁improved": 8600,
      "▁generally": 8601,
      "elling": 8602,
      "▁once": 8603,
      "lov": 8604,
      "▁separation": 8605,
      "▁novel": 8606,
      "sson": 8607,
      "▁outer": 8608,
      "sect": 8609,
      "▁\\bm{": 8610,
      "▁enh": 8611,
      ".~S.": 8612,
      "oted": 8613,
      "▁$\\sigma$": 8614,
      "-state": 8615,
      "▁medium": 8616,
      "▁sensitivity": 8617,
      ")$.\r\n": 8618,
      "texttt{": 8619,
      "CA": 8620,
      "ely,": 8621,
      "▁IR": 8622,
      "}-": 8623,
      "▁primary": 8624,
      "(\\nu": 8625,
      "\\}\\": 8626,
      "▁intersection": 8627,
      "▁Bel": 8628,
      "▁margin": 8629,
      "ending": 8630,
      "}}=": 8631,
      "▁57": 8632,
      "▁supers": 8633,
      "|\\leq": 8634,
      "▁Sc": 8635,
      "umerical": 8636,
      "^{3": 8637,
      "▁incor": 8638,
      "_{D": 8639,
      "▁condens": 8640,
      "▁\\mapsto": 8641,
      "▁vor": 8642,
      "220": 8643,
      "▁mixed": 8644,
      "▁X$": 8645,
      "▁0.03": 8646,
      "▁expectation": 8647,
      "▁Physical": 8648,
      "▁\\end{aligned}\n": 8649,
      "▁$q$": 8650,
      "▁zer": 8651,
      "p.": 8652,
      "61": 8653,
      "alla": 8654,
      "▁Graph": 8655,
      "erver": 8656,
      "backslash": 8657,
      "▁dr": 8658,
      "▁Super": 8659,
      "▁Applied": 8660,
      "▁li\n": 8661,
      "blem": 8662,
      "u,v": 8663,
      "lator": 8664,
      "_o": 8665,
      "▁Nucl.": 8666,
      "-tra": 8667,
      "3c": 8668,
      "▁cat": 8669,
      "▁NGC": 8670,
      "es},": 8671,
      "▁users": 8672,
      ")}(": 8673,
      "▁levels": 8674,
      "▁\\mathbb": 8675,
      ",\\sigma": 8676,
      "▁$\\D": 8677,
      "▁Applications": 8678,
      "izer": 8679,
      "X}": 8680,
      "\\mathbf{": 8681,
      "▁finding": 8682,
      "▁;": 8683,
      "ya": 8684,
      "▁atmos": 8685,
      "M$": 8686,
      "▁forward": 8687,
      "▁respectively.\n": 8688,
      "h}": 8689,
      "▁categories": 8690,
      "_\\gamma": 8691,
      "+1$": 8692,
      "$\\\\\n": 8693,
      "▁$s$": 8694,
      "▁needs": 8695,
      "rist": 8696,
      "▁M$": 8697,
      "▁Bi": 8698,
      "en}": 8699,
      "▁neighborhood": 8700,
      "minipage": 8701,
      "▁expressions": 8702,
      "ani,": 8703,
      "▁(which": 8704,
      "ecu": 8705,
      "▁inclusion": 8706,
      "▁system.": 8707,
      "▁tang": 8708,
      "As": 8709,
      "ai,": 8710,
      "oni": 8711,
      "▁Proposition~\\ref{": 8712,
      "▁43": 8713,
      "onz": 8714,
      "▁58": 8715,
      "▁stationary": 8716,
      "(1+\\": 8717,
      "▁\\begin{aligned}\n": 8718,
      "manif": 8719,
      "uchi": 8720,
      "▁\\overline{\\": 8721,
      "▁interface": 8722,
      "regular": 8723,
      "er}{": 8724,
      "rence": 8725,
      "start": 8726,
      "▁\\label{tab:": 8727,
      "▁pi": 8728,
      "▁2013.\n": 8729,
      "▁enable": 8730,
      "▁\\vskip": 8731,
      "▁cv\n": 8732,
      "▁\\begin{lemma}\\label{": 8733,
      "Z}": 8734,
      "▁wide": 8735,
      "A$": 8736,
      "i}}": 8737,
      "ley,": 8738,
      "▁converges": 8739,
      "cing\n": 8740,
      "▁{Mar": 8741,
      ")}.\n": 8742,
      "''\n": 8743,
      "adi": 8744,
      "){\\rule{1pt}{1pt}}\n": 8745,
      "▁143": 8746,
      "}\\right)\\": 8747,
      "▁Alex": 8748,
      "▁possibility": 8749,
      "tot": 8750,
      "theless": 8751,
      "(\\c": 8752,
      "▁Control": 8753,
      "_{P": 8754,
      "cel": 8755,
      "sube": 8756,
      "▁divid": 8757,
      "▁result,": 8758,
      "▁generating": 8759,
      "2\n": 8760,
      "_{\\rho": 8761,
      "▁atoms": 8762,
      "▁fine": 8763,
      "x},": 8764,
      "avity": 8765,
      "--10": 8766,
      "▁precision": 8767,
      "▁geodes": 8768,
      "cus": 8769,
      "}(x)": 8770,
      "Dis": 8771,
      "{0": 8772,
      "4}{": 8773,
      "▁recently": 8774,
      "....": 8775,
      "{#1}\\": 8776,
      "),\r\n": 8777,
      ".~A.}\\": 8778,
      "▁semantic": 8779,
      "▁Med": 8780,
      "\\pm0.": 8781,
      "vely": 8782,
      "▁e^{-\\": 8783,
      "pecially": 8784,
      "inte": 8785,
      "▁transformations": 8786,
      "▁Yu": 8787,
      "▁Series": 8788,
      "▁SI": 8789,
      "▁\\bibitem[M": 8790,
      "sep": 8791,
      "grad": 8792,
      "▁Ver": 8793,
      "thing": 8794,
      "▁\\bibitem[K": 8795,
      ")\\right]": 8796,
      "▁meta": 8797,
      "({\\bf": 8798,
      "▁\\dis": 8799,
      "▁development": 8800,
      "tating": 8801,
      "▁decreases": 8802,
      ",p": 8803,
      "e^{-\\": 8804,
      "▁Markov": 8805,
      "▁\\Pi": 8806,
      "ceil": 8807,
      "{2}{\\rule{": 8808,
      "2017}\n": 8809,
      "\\nabla": 8810,
      "bro": 8811,
      ":2010": 8812,
      "Of": 8813,
      "ifically,": 8814,
      "_\\theta": 8815,
      "space*{": 8816,
      "▁\\End": 8817,
      "'',": 8818,
      "13,": 8819,
      "▁\\underline": 8820,
      "▁\\providecommand{\\B": 8821,
      "▁(m": 8822,
      "▁hist": 8823,
      "Def": 8824,
      "_{11}": 8825,
      "band": 8826,
      "hi,": 8827,
      "▁1.0": 8828,
      "trivial": 8829,
      "▁\\fi\n": 8830,
      "$$": 8831,
      "▁empirical": 8832,
      "widehat{": 8833,
      "▁electrons": 8834,
      "▁harmonic": 8835,
      "▁2015,": 8836,
      ");\n": 8837,
      "▁\\end{align}\r\n": 8838,
      "(Z": 8839,
      "▁$U$": 8840,
      "1995": 8841,
      "▁ve": 8842,
      "c|}{": 8843,
      "▁rew": 8844,
      "▁propagation": 8845,
      "▁(ii)": 8846,
      "▁deviation": 8847,
      "▁Methods": 8848,
      "▁interpretation": 8849,
      "▁Av": 8850,
      "▁1/": 8851,
      "▁project": 8852,
      ",0": 8853,
      "A.,": 8854,
      "picture": 8855,
      "ram": 8856,
      "▁\\cite{L": 8857,
      "▁(1999": 8858,
      "2018}\n": 8859,
      "s8": 8860,
      "ontal": 8861,
      "ext,": 8862,
      "plane": 8863,
      "^{r": 8864,
      "2016}\n": 8865,
      "known": 8866,
      "uclide": 8867,
      "▁ball": 8868,
      "▁polynomials": 8869,
      "am,": 8870,
      "▁\\multicolumn{2}{": 8871,
      "rey": 8872,
      "APACref": 8873,
      "parallel": 8874,
      "deep": 8875,
      "4}$": 8876,
      "▁Commun": 8877,
      "^+$": 8878,
      "▁3,": 8879,
      "_{1},": 8880,
      "o}\n": 8881,
      "▁happ": 8882,
      "\\bar": 8883,
      "chron": 8884,
      "▁beh": 8885,
      "-1},": 8886,
      ":2019": 8887,
      "-body": 8888,
      "211": 8889,
      "▁$\\text{": 8890,
      "idden": 8891,
      "O}": 8892,
      "▁[0,": 8893,
      "▁IEEE,": 8894,
      "BA": 8895,
      "▁B}\\": 8896,
      "+n": 8897,
      "stan": 8898,
      "omorphisms": 8899,
      "▁space,": 8900,
      "▁sent": 8901,
      "_Q": 8902,
      "▁social": 8903,
      "▁restriction": 8904,
      "ashed": 8905,
      "_{\\pi": 8906,
      "ti,": 8907,
      "▁subject": 8908,
      "▁blue": 8909,
      "tel": 8910,
      "http://www.": 8911,
      "C,": 8912,
      "2.5": 8913,
      "▁actually": 8914,
      "^6": 8915,
      "berg,": 8916,
      "shop": 8917,
      "aud": 8918,
      "beled": 8919,
      "^{1/2}": 8920,
      "}$-": 8921,
      "▁spherical": 8922,
      "▁affine": 8923,
      "▁Notice": 8924,
      "ections": 8925,
      "▁(b)": 8926,
      "W.": 8927,
      "▁sector": 8928,
      "_{\\phi": 8929,
      "▁conditional": 8930,
      "(\\ell": 8931,
      "▁Soc.": 8932,
      "\\right)\\": 8933,
      "!!!": 8934,
      "▁splitting": 8935,
      "▁ApJ,": 8936,
      "▁\\bibitem{s": 8937,
      "▁Next,": 8938,
      "(3):": 8939,
      "itter": 8940,
      "▁\\ll": 8941,
      "▁SN": 8942,
      "▁Mor": 8943,
      "▁crystal": 8944,
      "▁sus": 8945,
      "maging": 8946,
      "pdf": 8947,
      "▁2018,": 8948,
      "En": 8949,
      "▁rise": 8950,
      "[fill=": 8951,
      "▁suggests": 8952,
      "0.3": 8953,
      "2023": 8954,
      "DP": 8955,
      "1016/j.": 8956,
      "▁B}": 8957,
      "▁rig": 8958,
      "F.": 8959,
      "▁projective": 8960,
      "\\@": 8961,
      "▁benchmark": 8962,
      "d$": 8963,
      "▁report": 8964,
      "▁American": 8965,
      "▁\\\\[": 8966,
      "3\n": 8967,
      "▁affect": 8968,
      "initions": 8969,
      "_0^2": 8970,
      ")&": 8971,
      "▁verify": 8972,
      "prefix\\url{": 8973,
      "urst": 8974,
      "▁\\not": 8975,
      ",\\gamma": 8976,
      "▁derivatives": 8977,
      "▁2014": 8978,
      "▁2017,": 8979,
      "break": 8980,
      "{t": 8981,
      ":2011": 8982,
      "}{r": 8983,
      "▁differenti": 8984,
      "vor": 8985,
      "called": 8986,
      "14,": 8987,
      "▁vision": 8988,
      "▁\\cite{F": 8989,
      "▁2016,": 8990,
      "TT": 8991,
      "▁1$.": 8992,
      "ples": 8993,
      "▁until": 8994,
      "uclidean": 8995,
      "J.,": 8996,
      "▁decays": 8997,
      "▁nor": 8998,
      "subequation": 8999,
      "+3": 9000,
      "nother": 9001,
      "III": 9002,
      "▁Ly": 9003,
      "}).\r\n": 9004,
      "ra,": 9005,
      "▁analys": 9006,
      ",\\xi": 9007,
      "-\\alpha": 9008,
      "▁adversarial": 9009,
      "2.4": 9010,
      "▁Hy": 9011,
      "▁static": 9012,
      "▁wall": 9013,
      "jectory": 9014,
      "▁Wil": 9015,
      "9/": 9016,
      "▁isomorphic": 9017,
      "bach": 9018,
      "}\\otimes": 9019,
      "mand": 9020,
      "L,": 9021,
      "▁strictly": 9022,
      "tization": 9023,
      "v.": 9024,
      "zi": 9025,
      "where": 9026,
      "▁\\cite{A": 9027,
      "▁\\ifx": 9028,
      "▁explained": 9029,
      "▁software": 9030,
      "▁time.": 9031,
      "▁56": 9032,
      "▁0.8": 9033,
      "lemma:": 9034,
      "tible": 9035,
      "(\\R": 9036,
      "93/mnras": 9037,
      "▁iso": 9038,
      "▁triple": 9039,
      "▁treatment": 9040,
      "ireless": 9041,
      "O$": 9042,
      "▁Some": 9043,
      "rate": 9044,
      "▁Can": 9045,
      "▁mu": 9046,
      "▁\\sum_{i": 9047,
      "(a)": 9048,
      "▁\\Theta": 9049,
      "▁especially": 9050,
      "▁$c$": 9051,
      "}}\\right)": 9052,
      "▁$j$": 9053,
      "▁sphere": 9054,
      "▁function,": 9055,
      "▁divis": 9056,
      "t}\n": 9057,
      "}\\left[": 9058,
      "▁neighb": 9059,
      "2}\r\n": 9060,
      "sequently,": 9061,
      "n$": 9062,
      "in}\n": 9063,
      "_\\sigma": 9064,
      "▁comes": 9065,
      "abi": 9066,
      "chang": 9067,
      "BB": 9068,
      "ffil": 9069,
      "▁residual": 9070,
      "varrho": 9071,
      "\\ref{": 9072,
      "quare": 9073,
      "▁site": 9074,
      "radi": 9075,
      "▁mess": 9076,
      "▁generator": 9077,
      "istance": 9078,
      "25,": 9079,
      "▁space.": 9080,
      "emptyset": 9081,
      "▁algebras": 9082,
      "fully": 9083,
      "▁Yang": 9084,
      "▁Nature": 9085,
      "^{a": 9086,
      "▁highest": 9087,
      "D,": 9088,
      "▁distances": 9089,
      "▁(resp": 9090,
      "▁indices": 9091,
      "(\\delta": 9092,
      "sively": 9093,
      "▁outside": 9094,
      "trical": 9095,
      "▁propag": 9096,
      "▁\\}": 9097,
      "▁(X": 9098,
      "V,": 9099,
      "▁reli": 9100,
      "▁\\emph{S": 9101,
      "▁Fig.\\": 9102,
      "▁logarith": 9103,
      "read": 9104,
      "▁m\n": 9105,
      "▁laser": 9106,
      "_{w": 9107,
      "▁&+": 9108,
      "eval": 9109,
      "▁\\sum_{\\": 9110,
      "apter": 9111,
      ":2009": 9112,
      "▁identification": 9113,
      "sterior": 9114,
      "(x)\\": 9115,
      "▁David": 9116,
      "▁\\notag": 9117,
      "enko": 9118,
      "▁\\end{proof}\r\n": 9119,
      "itt": 9120,
      "▁which\n": 9121,
      "page\n": 9122,
      "▁previously": 9123,
      "▁0.9": 9124,
      "tackrel": 9125,
      "▁1.3": 9126,
      "iver": 9127,
      "e-": 9128,
      "▁Exp": 9129,
      "▁ima": 9130,
      "▁Min": 9131,
      "▁estimator": 9132,
      "▁Language": 9133,
      "^1$": 9134,
      "ultra": 9135,
      "even": 9136,
      "▁2013,": 9137,
      "{3": 9138,
      "▁$Y$": 9139,
      "▁0}": 9140,
      "hash}{": 9141,
      "▁simulated": 9142,
      "▁replace": 9143,
      "▁\t\\bibitem": 9144,
      "▁feedback": 9145,
      "International": 9146,
      "\\Gamma": 9147,
      "ini},": 9148,
      "▁null": 9149,
      "▁magnet": 9150,
      "16,": 9151,
      "▁DM": 9152,
      "2015}\n": 9153,
      "▁\\bb": 9154,
      "▁likelihood": 9155,
      "aba": 9156,
      "mm}\n": 9157,
      "_{n+1}": 9158,
      "▁\\overline{": 9159,
      "=0,": 9160,
      "▁{et~al.": 9161,
      "rep": 9162,
      "▁weakly": 9163,
      "0\n": 9164,
      "sky,": 9165,
      "▁{Mc": 9166,
      "{g": 9167,
      "▁Appl.": 9168,
      "uzz": 9169,
      "\\not": 9170,
      "▁Another": 9171,
      "▁\\bibinfo{author}{\\bibfnamefont{M": 9172,
      "▁train": 9173,
      "▁meaning": 9174,
      "▁European": 9175,
      "^\\star": 9176,
      "▁Z.": 9177,
      "warf": 9178,
      "▁decrease": 9179,
      "aring": 9180,
      "▁brief": 9181,
      "▁\\O": 9182,
      "ctive": 9183,
      "}^{+": 9184,
      "ml": 9185,
      "▁[hep-th": 9186,
      "\\endcsname\\relax": 9187,
      "▁Sing": 9188,
      "▁59": 9189,
      "$-th": 9190,
      "▁\\end{definition}\n": 9191,
      "▁Cla": 9192,
      "▁\\ref{lem:": 9193,
      "cf": 9194,
      "vin": 9195,
      "R$": 9196,
      "g)": 9197,
      "▁{Le": 9198,
      "▁defines": 9199,
      "_{n-1}": 9200,
      "pt}\n": 9201,
      "▁Energy": 9202,
      "▁conju": 9203,
      ",s": 9204,
      "▁seems": 9205,
      "▁\\ref{fig": 9206,
      "▁proceed": 9207,
      "▁$Q$": 9208,
      "▁$\\vec": 9209,
      "▁outcome": 9210,
      "21,": 9211,
      "▁2012,": 9212,
      "▁\\section{Con": 9213,
      "-2)": 9214,
      "Gra": 9215,
      "0.\r\n": 9216,
      "5},": 9217,
      "}{2}}": 9218,
      "▁(t)": 9219,
      "atorial": 9220,
      "▁words,": 9221,
      "▁(2001)": 9222,
      "r.": 9223,
      "▁iteration": 9224,
      "▁relationship": 9225,
      "tran": 9226,
      "▁boson": 9227,
      "▁\\vec{": 9228,
      "▁\\end{eqnarray}\r\n": 9229,
      "ool": 9230,
      "▁bary": 9231,
      "M.,": 9232,
      "▁[\\href{https://arxiv.org/abs/": 9233,
      "abor": 9234,
      "▁0.05": 9235,
      "k}\n": 9236,
      "appendix": 9237,
      "ele": 9238,
      "▁lowest": 9239,
      "▁enhance": 9240,
      "▁$.": 9241,
      "▁Soft": 9242,
      "}\\\\": 9243,
      "▁picture": 9244,
      "+m": 9245,
      "▁rules": 9246,
      "▁Poisson": 9247,
      "▁setup": 9248,
      "~R": 9249,
      ".}~\\bibnamefont\r\n": 9250,
      "d]": 9251,
      "▁non-zero": 9252,
      "▁Department": 9253,
      "▁allowed": 9254,
      "ic,": 9255,
      "DA": 9256,
      "fold": 9257,
      "▁i.e": 9258,
      "▁t}": 9259,
      "BN": 9260,
      "1:": 9261,
      "\\t": 9262,
      "▁simplic": 9263,
      "▁cases,": 9264,
      "▁\\bibitem{W": 9265,
      "{m": 9266,
      "cement": 9267,
      "\\sin": 9268,
      "▁profiles": 9269,
      "irtual": 9270,
      "▁Cos": 9271,
      "▁$\\L": 9272,
      "0003": 9273,
      "▁Theor": 9274,
      "▁coherent": 9275,
      "JImADJImAD": 9276,
      "1b": 9277,
      "▁$\\tau$": 9278,
      ".10": 9279,
      "\\_": 9280,
      "2012}\n": 9281,
      "dot{\\": 9282,
      "_{E": 9283,
      "▁ht": 9284,
      "}$}": 9285,
      "▁describes": 9286,
      "▁sparse": 9287,
      "ongrightarrow": 9288,
      "▁Statistical": 9289,
      "Tr": 9290,
      "frac12": 9291,
      "▁stabil": 9292,
      "▁dissi": 9293,
      "▁General": 9294,
      "▁\\overline": 9295,
      "▁See": 9296,
      "▁imply": 9297,
      "hic": 9298,
      "CP": 9299,
      "2019}\n": 9300,
      "}'": 9301,
      "▁normalization": 9302,
      "▁induction": 9303,
      ".~J.}\\": 9304,
      "▁upon": 9305,
      "/H": 9306,
      "▁analogous": 9307,
      "uy": 9308,
      "rule[": 9309,
      "cas": 9310,
      "▁{\\doibase\n": 9311,
      "erial": 9312,
      "▁accoun": 9313,
      "{\\t": 9314,
      "▁datasets": 9315,
      "▁\\textrm{": 9316,
      "ymple": 9317,
      "▁\\har": 9318,
      "}}^{\\": 9319,
      "bative": 9320,
      "▁\\bibitem[H": 9321,
      "▁investigated": 9322,
      "▁2013": 9323,
      "▁hyperbolic": 9324,
      "2014}\n": 9325,
      "▁$z$": 9326,
      "▁2014,": 9327,
      "\\in\\mathcal{": 9328,
      "\\Phi": 9329,
      "eder": 9330,
      "16}": 9331,
      "▁by\r\n": 9332,
      "▁probabilities": 9333,
      ".09": 9334,
      "▁deal": 9335,
      "}_{t": 9336,
      "1088/": 9337,
      "▁{$\\": 9338,
      "▁Wang": 9339,
      "-qu": 9340,
      "003": 9341,
      "▁1.4": 9342,
      "▁Lev": 9343,
      "_4$": 9344,
      ".~M.}\\": 9345,
      "}_0": 9346,
      "▁away": 9347,
      "duction": 9348,
      "▁2012.\n": 9349,
      "▁positions": 9350,
      "▁host": 9351,
      "erre": 9352,
      "▁located": 9353,
      "▁integrated": 9354,
      "iter": 9355,
      "cip": 9356,
      "pite": 9357,
      "ity.": 9358,
      "A&A..": 9359,
      "bfigure": 9360,
      "▁{{hash": 9361,
      "▁(1-": 9362,
      "▁\\subsection{S": 9363,
      "▁quoti": 9364,
      "num": 9365,
      "(r)": 9366,
      "▁classifi": 9367,
      "/N": 9368,
      "!!!!!!!!!!!!!!!!!!!!!!!!!!!!!!!!": 9369,
      "▁Roy": 9370,
      "▁et~al.,}{": 9371,
      "▁\\right)\n": 9372,
      "▁2011,": 9373,
      "▁Remark": 9374,
      "than": 9375,
      "law": 9376,
      "▁inequalities": 9377,
      "▁San": 9378,
      "---": 9379,
      "▁activity": 9380,
      "&\n": 9381,
      "▁\\cite[Theorem": 9382,
      "}}.\r\n": 9383,
      "▁excitation": 9384,
      "▁{10": 9385,
      "▁cli": 9386,
      "▁$[\\": 9387,
      "▁64": 9388,
      "_Z": 9389,
      "▁http": 9390,
      "▁execu": 9391,
      "trightarrow": 9392,
      "▁is\r\n": 9393,
      "▁\\email": 9394,
      "▁2019,": 9395,
      "▁4.8": 9396,
      "▁Also,": 9397,
      "▁Communications": 9398,
      "\\cos": 9399,
      "secondo": 9400,
      "▁[0]{": 9401,
      "ski},": 9402,
      "tw": 9403,
      "mitted": 9404,
      ":2008": 9405,
      "▁Phys.}": 9406,
      "^{\\circ": 9407,
      "rimin": 9408,
      "▁54": 9409,
      "}$.\r\n": 9410,
      "cro": 9411,
      "OC": 9412,
      "secondoftwo": 9413,
      "oment": 9414,
      "J,": 9415,
      "}\\quad": 9416,
      "▁Imp": 9417,
      "aman": 9418,
      "▁Both": 9419,
      "▁implemented": 9420,
      "▁$\\d": 9421,
      "▁\\begin{pmatrix": 9422,
      "^{+0.": 9423,
      "▁\\end{proposition}\n": 9424,
      "▁lept": 9425,
      "Un": 9426,
      "odata": 9427,
      "_{\\mathbf{": 9428,
      "▁importance": 9429,
      "(n)": 9430,
      "▁\\Eprint\n": 9431,
      "15}": 9432,
      "sue": 9433,
      "▁Due": 9434,
      "▁contradiction": 9435,
      "▁Top": 9436,
      ".\\,": 9437,
      "uang": 9438,
      "▁signature": 9439,
      "(\\v": 9440,
      "▁reflect": 9441,
      "▁\\cline": 9442,
      "PI": 9443,
      "▁necessarily": 9444,
      "▁units": 9445,
      "0){2}{\\rule{": 9446,
      "+$": 9447,
      "2013}\n": 9448,
      "▁\\bibitem[G": 9449,
      "▁60": 9450,
      ";\\;": 9451,
      "▁isot": 9452,
      "dependent": 9453,
      "FE": 9454,
      "▁cosmic": 9455,
      "dots$": 9456,
      "▁\\left|": 9457,
      "▁2010,": 9458,
      "▁risk": 9459,
      "▁$\\Gamma$": 9460,
      "▁98": 9461,
      "}{\\sqrt{": 9462,
      "_{k,": 9463,
      "▁assess": 9464,
      "▁epo": 9465,
      "▁\\eprint": 9466,
      "▁90": 9467,
      "0001": 9468,
      "▁thermod": 9469,
      "Color": 9470,
      "▁(\\ref{eq": 9471,
      "▁\\bibinfo{author}{\\bibfnamefont{J": 9472,
      "▁frequencies": 9473,
      ".12": 9474,
      "oj": 9475,
[...]
